#include "gesture_model_tflite.h"
const unsigned char gesture_model_tflite_data[] = {
  0x1c, 0x00, 0x00, 0x00, 0x54, 0x46, 0x4c, 0x33, 0x14, 0x00, 0x20, 0x00,
  0x04, 0x00, 0x08, 0x00, 0x0c, 0x00, 0x10, 0x00, 0x14, 0x00, 0x00, 0x00,
  0x18, 0x00, 0x1c, 0x00, 0x14, 0x00, 0x00, 0x00, 0x03, 0x00, 0x00, 0x00,
  0x18, 0x00, 0x00, 0x00, 0x2c, 0x00, 0x00, 0x00, 0xd8, 0x00, 0x00, 0x00,
  0x2c, 0x00, 0x00, 0x00, 0x80, 0x00, 0x00, 0x00, 0x78, 0x00, 0x00, 0x00,
  0x05, 0x00, 0x00, 0x00, 0x1c, 0x07, 0x00, 0x00, 0x38, 0x06, 0x00, 0x00,
  0xac, 0x03, 0x00, 0x00, 0xe8, 0x02, 0x00, 0x00, 0xac, 0x01, 0x00, 0x00,
  0x01, 0x00, 0x00, 0x00, 0xd0, 0x00, 0x00, 0x00, 0x14, 0x00, 0x00, 0x00,
  0x5c, 0x31, 0x00, 0x00, 0x58, 0x31, 0x00, 0x00, 0x00, 0x30, 0x00, 0x00,
  0x38, 0x2f, 0x00, 0x00, 0xdc, 0x1c, 0x00, 0x00, 0x60, 0x1b, 0x00, 0x00,
  0xb8, 0x1a, 0x00, 0x00, 0x38, 0x1a, 0x00, 0x00, 0xcc, 0x19, 0x00, 0x00,
  0x7c, 0x09, 0x00, 0x00, 0xa8, 0x07, 0x00, 0x00, 0x30, 0x31, 0x00, 0x00,
  0x2c, 0x31, 0x00, 0x00, 0x28, 0x31, 0x00, 0x00, 0x24, 0x31, 0x00, 0x00,
  0x20, 0x31, 0x00, 0x00, 0x1c, 0x31, 0x00, 0x00, 0x18, 0x31, 0x00, 0x00,
  0x14, 0x31, 0x00, 0x00, 0x3c, 0x00, 0x00, 0x00, 0x00, 0x00, 0x00, 0x00,
  0x01, 0x00, 0x00, 0x00, 0x0c, 0x00, 0x00, 0x00, 0x08, 0x00, 0x0c, 0x00,
  0x04, 0x00, 0x08, 0x00, 0x08, 0x00, 0x00, 0x00, 0x08, 0x00, 0x00, 0x00,
  0x13, 0x00, 0x00, 0x00, 0x13, 0x00, 0x00, 0x00, 0x6d, 0x69, 0x6e, 0x5f,
  0x72, 0x75, 0x6e, 0x74, 0x69, 0x6d, 0x65, 0x5f, 0x76, 0x65, 0x72, 0x73,
  0x69, 0x6f, 0x6e, 0x00, 0x86, 0xd0, 0xff, 0xff, 0x04, 0x00, 0x00, 0x00,
  0x10, 0x00, 0x00, 0x00, 0x31, 0x2e, 0x35, 0x2e, 0x30, 0x00, 0x00, 0x00,
  0x00, 0x00, 0x00, 0x00, 0x00, 0x00, 0x00, 0x00, 0x0f, 0x00, 0x00, 0x00,
  0x4d, 0x4c, 0x49, 0x52, 0x20, 0x43, 0x6f, 0x6e, 0x76, 0x65, 0x72, 0x74,
  0x65, 0x64, 0x2e, 0x00, 0x00, 0x00, 0x0e, 0x00, 0x18, 0x00, 0x04, 0x00,
  0x08, 0x00, 0x0c, 0x00, 0x10, 0x00, 0x14, 0x00, 0x0e, 0x00, 0x00, 0x00,
  0x14, 0x00, 0x00, 0x00, 0x5c, 0x00, 0x00, 0x00, 0x60, 0x00, 0x00, 0x00,
  0x64, 0x00, 0x00, 0x00, 0x84, 0x00, 0x00, 0x00, 0x12, 0x00, 0x00, 0x00,
  0x24, 0x30, 0x00, 0x00, 0x7c, 0x2f, 0x00, 0x00, 0x84, 0x2e, 0x00, 0x00,
  0x08, 0x2e, 0x00, 0x00, 0xac, 0x1b, 0x00, 0x00, 0x24, 0x1a, 0x00, 0x00,
  0x7c, 0x19, 0x00, 0x00, 0x10, 0x19, 0x00, 0x00, 0xa8, 0x18, 0x00, 0x00,
  0x54, 0x08, 0x00, 0x00, 0x00, 0x06, 0x00, 0x00, 0x1c, 0x05, 0x00, 0x00,
  0xdc, 0x03, 0x00, 0x00, 0x30, 0x03, 0x00, 0x00, 0x88, 0x02, 0x00, 0x00,
  0xc4, 0x01, 0x00, 0x00, 0x00, 0x01, 0x00, 0x00, 0x84, 0x00, 0x00, 0x00,
  0x01, 0x00, 0x00, 0x00, 0x00, 0x00, 0x00, 0x00, 0x01, 0x00, 0x00, 0x00,
  0x11, 0x00, 0x00, 0x00, 0x08, 0x00, 0x00, 0x00, 0x68, 0x05, 0x00, 0x00,
  0x88, 0x04, 0x00, 0x00, 0x6c, 0x03, 0x00, 0x00, 0xbc, 0x02, 0x00, 0x00,
  0x20, 0x02, 0x00, 0x00, 0x40, 0x01, 0x00, 0x00, 0x98, 0x00, 0x00, 0x00,
  0x10, 0x00, 0x00, 0x00, 0x04, 0x00, 0x00, 0x00, 0x6d, 0x61, 0x69, 0x6e,
  0x00, 0x00, 0x00, 0x00, 0x72, 0xfd, 0xff, 0xff, 0x00, 0x00, 0x00, 0x09,
  0x04, 0x00, 0x00, 0x00, 0x1c, 0x00, 0x00, 0x00, 0x10, 0x00, 0x00, 0x00,
  0x04, 0x00, 0x00, 0x00, 0x82, 0xd1, 0xff, 0xff, 0x00, 0x00, 0x80, 0x3f,
  0x01, 0x00, 0x00, 0x00, 0x11, 0x00, 0x00, 0x00, 0x01, 0x00, 0x00, 0x00,
  0x10, 0x00, 0x00, 0x00, 0xac, 0xfa, 0xff, 0xff, 0x19, 0x00, 0x00, 0x00,
  0x00, 0x00, 0x00, 0x19, 0x01, 0x00, 0x00, 0x00, 0xb8, 0xd0, 0xff, 0xff,
  0x14, 0x00, 0x00, 0x00, 0x12, 0x00, 0x00, 0x00, 0x24, 0x00, 0x00, 0x00,
  0x30, 0x00, 0x00, 0x00, 0x10, 0x00, 0x00, 0x00, 0x02, 0x00, 0x00, 0x00,
  0x01, 0x00, 0x00, 0x00, 0x06, 0x00, 0x00, 0x00, 0x02, 0x00, 0x00, 0x00,
  0xff, 0xff, 0xff, 0xff, 0x06, 0x00, 0x00, 0x00, 0x08, 0x00, 0x00, 0x00,
  0x49, 0x64, 0x65, 0x6e, 0x74, 0x69, 0x74, 0x79, 0x00, 0x00, 0x00, 0x00,
  0x94, 0xd0, 0xff, 0xff, 0xf6, 0xfd, 0xff, 0xff, 0x00, 0x00, 0x00, 0x08,
  0x03, 0x00, 0x00, 0x00, 0x18, 0x00, 0x00, 0x00, 0x0c, 0x00, 0x00, 0x00,
  0x04, 0x00, 0x00, 0x00, 0xb0, 0xd0, 0xff, 0xff, 0x01, 0x00, 0x00, 0x00,
  0x10, 0x00, 0x00, 0x00, 0x03, 0x00, 0x00, 0x00, 0x0f, 0x00, 0x00, 0x00,
  0x09, 0x00, 0x00, 0x00, 0x06, 0x00, 0x00, 0x00, 0x30, 0xd1, 0xff, 0xff,
  0x14, 0x00, 0x00, 0x00, 0x11, 0x00, 0x00, 0x00, 0x24, 0x00, 0x00, 0x00,
  0x5c, 0x00, 0x00, 0x00, 0x10, 0x00, 0x00, 0x00, 0x02, 0x00, 0x00, 0x00,
  0x01, 0x00, 0x00, 0x00, 0x06, 0x00, 0x00, 0x00, 0x02, 0x00, 0x00, 0x00,
  0xff, 0xff, 0xff, 0xff, 0x06, 0x00, 0x00, 0x00, 0x34, 0x00, 0x00, 0x00,
  0x73, 0x65, 0x71, 0x75, 0x65, 0x6e, 0x74, 0x69, 0x61, 0x6c, 0x2f, 0x64,
  0x65, 0x6e, 0x73, 0x65, 0x5f, 0x31, 0x2f, 0x4d, 0x61, 0x74, 0x4d, 0x75,
  0x6c, 0x3b, 0x73, 0x65, 0x71, 0x75, 0x65, 0x6e, 0x74, 0x69, 0x61, 0x6c,
  0x2f, 0x64, 0x65, 0x6e, 0x73, 0x65, 0x5f, 0x31, 0x2f, 0x42, 0x69, 0x61,
  0x73, 0x41, 0x64, 0x64, 0x00, 0x00, 0x00, 0x00, 0x38, 0xd1, 0xff, 0xff,
  0xd6, 0xfc, 0xff, 0xff, 0x00, 0x00, 0x00, 0x08, 0x03, 0x00, 0x00, 0x00,
  0x24, 0x00, 0x00, 0x00, 0x18, 0x00, 0x00, 0x00, 0x0c, 0x00, 0x00, 0x00,
  0x00, 0x00, 0x06, 0x00, 0x08, 0x00, 0x07, 0x00, 0x06, 0x00, 0x00, 0x00,
  0x00, 0x00, 0x00, 0x01, 0x01, 0x00, 0x00, 0x00, 0x0f, 0x00, 0x00, 0x00,
  0x03, 0x00, 0x00, 0x00, 0x0e, 0x00, 0x00, 0x00, 0x08, 0x00, 0x00, 0x00,
  0x05, 0x00, 0x00, 0x00, 0xe4, 0xfb, 0xff, 0xff, 0x09, 0x00, 0x00, 0x00,
  0x00, 0x00, 0x00, 0x09, 0x01, 0x00, 0x00, 0x00, 0xf0, 0xd1, 0xff, 0xff,
  0x14, 0x00, 0x00, 0x00, 0x10, 0x00, 0x00, 0x00, 0x24, 0x00, 0x00, 0x00,
  0x6c, 0x00, 0x00, 0x00, 0x10, 0x00, 0x00, 0x00, 0x02, 0x00, 0x00, 0x00,
  0x01, 0x00, 0x00, 0x00, 0x10, 0x00, 0x00, 0x00, 0x02, 0x00, 0x00, 0x00,
  0xff, 0xff, 0xff, 0xff, 0x10, 0x00, 0x00, 0x00, 0x46, 0x00, 0x00, 0x00,
  0x73, 0x65, 0x71, 0x75, 0x65, 0x6e, 0x74, 0x69, 0x61, 0x6c, 0x2f, 0x64,
  0x65, 0x6e, 0x73, 0x65, 0x2f, 0x4d, 0x61, 0x74, 0x4d, 0x75, 0x6c, 0x3b,
  0x73, 0x65, 0x71, 0x75, 0x65, 0x6e, 0x74, 0x69, 0x61, 0x6c, 0x2f, 0x64,
  0x65, 0x6e, 0x73, 0x65, 0x2f, 0x42, 0x69, 0x61, 0x73, 0x41, 0x64, 0x64,
  0x3b, 0x73, 0x65, 0x71, 0x75, 0x65, 0x6e, 0x74, 0x69, 0x61, 0x6c, 0x2f,
  0x64, 0x65, 0x6e, 0x73, 0x65, 0x2f, 0x52, 0x65, 0x6c, 0x75, 0x00, 0x00,
  0x68, 0xd3, 0xff, 0xff, 0x00, 0x00, 0x0a, 0x00, 0x10, 0x00, 0x04, 0x00,
  0x08, 0x00, 0x0c, 0x00, 0x0a, 0x00, 0x00, 0x00, 0x02, 0x00, 0x00, 0x00,
  0x10, 0x00, 0x00, 0x00, 0x04, 0x00, 0x00, 0x00, 0x01, 0x00, 0x00, 0x00,
  0x0e, 0x00, 0x00, 0x00, 0x02, 0x00, 0x00, 0x00, 0x0d, 0x00, 0x00, 0x00,
  0x07, 0x00, 0x00, 0x00, 0xa4, 0xfc, 0xff, 0xff, 0x16, 0x00, 0x00, 0x00,
  0x00, 0x00, 0x00, 0x16, 0x01, 0x00, 0x00, 0x00, 0xb0, 0xd2, 0xff, 0xff,
  0x14, 0x00, 0x00, 0x00, 0x0f, 0x00, 0x00, 0x00, 0x24, 0x00, 0x00, 0x00,
  0x40, 0x00, 0x00, 0x00, 0x10, 0x00, 0x00, 0x00, 0x02, 0x00, 0x00, 0x00,
  0x01, 0x00, 0x00, 0x00, 0x40, 0x00, 0x00, 0x00, 0x02, 0x00, 0x00, 0x00,
  0xff, 0xff, 0xff, 0xff, 0x40, 0x00, 0x00, 0x00, 0x1a, 0x00, 0x00, 0x00,
  0x73, 0x65, 0x71, 0x75, 0x65, 0x6e, 0x74, 0x69, 0x61, 0x6c, 0x2f, 0x66,
  0x6c, 0x61, 0x74, 0x74, 0x65, 0x6e, 0x2f, 0x52, 0x65, 0x73, 0x68, 0x61,
  0x70, 0x65, 0x00, 0x00, 0xfc, 0xd3, 0xff, 0xff, 0x00, 0x00, 0x0e, 0x00,
  0x18, 0x00, 0x08, 0x00, 0x0c, 0x00, 0x10, 0x00, 0x07, 0x00, 0x14, 0x00,
  0x0e, 0x00, 0x00, 0x00, 0x00, 0x00, 0x00, 0x05, 0x01, 0x00, 0x00, 0x00,
  0x2c, 0x00, 0x00, 0x00, 0x20, 0x00, 0x00, 0x00, 0x04, 0x00, 0x00, 0x00,
  0x3a, 0xfe, 0xff, 0xff, 0x02, 0x00, 0x00, 0x00, 0x02, 0x00, 0x00, 0x00,
  0x02, 0x00, 0x00, 0x00, 0x02, 0x00, 0x00, 0x00, 0x00, 0x00, 0x00, 0x01,
  0x01, 0x00, 0x00, 0x00, 0x0d, 0x00, 0x00, 0x00, 0x01, 0x00, 0x00, 0x00,
  0x0c, 0x00, 0x00, 0x00, 0x54, 0xd3, 0xff, 0xff, 0x14, 0x00, 0x00, 0x00,
  0x0e, 0x00, 0x00, 0x00, 0x34, 0x00, 0x00, 0x00, 0x58, 0x00, 0x00, 0x00,
  0x18, 0x00, 0x00, 0x00, 0x04, 0x00, 0x00, 0x00, 0x01, 0x00, 0x00, 0x00,
  0x02, 0x00, 0x00, 0x00, 0x02, 0x00, 0x00, 0x00, 0x10, 0x00, 0x00, 0x00,
  0x04, 0x00, 0x00, 0x00, 0xff, 0xff, 0xff, 0xff, 0x02, 0x00, 0x00, 0x00,
  0x02, 0x00, 0x00, 0x00, 0x10, 0x00, 0x00, 0x00, 0x22, 0x00, 0x00, 0x00,
  0x73, 0x65, 0x71, 0x75, 0x65, 0x6e, 0x74, 0x69, 0x61, 0x6c, 0x2f, 0x6d,
  0x61, 0x78, 0x5f, 0x70, 0x6f, 0x6f, 0x6c, 0x69, 0x6e, 0x67, 0x32, 0x64,
  0x5f, 0x31, 0x2f, 0x4d, 0x61, 0x78, 0x50, 0x6f, 0x6f, 0x6c, 0x00, 0x00,
  0x58, 0xd3, 0xff, 0xff, 0x1a, 0xfe, 0xff, 0xff, 0x00, 0x00, 0x00, 0x01,
  0x24, 0x00, 0x00, 0x00, 0x18, 0x00, 0x00, 0x00, 0x04, 0x00, 0x00, 0x00,
  0x0c, 0xfe, 0xff, 0xff, 0x01, 0x00, 0x00, 0x00, 0x01, 0x00, 0x00, 0x00,
  0x00, 0x00, 0x01, 0x01, 0x01, 0x00, 0x00, 0x00, 0x0c, 0x00, 0x00, 0x00,
  0x03, 0x00, 0x00, 0x00, 0x0b, 0x00, 0x00, 0x00, 0x03, 0x00, 0x00, 0x00,
  0x01, 0x00, 0x00, 0x00, 0xfc, 0xd3, 0xff, 0xff, 0x14, 0x00, 0x00, 0x00,
  0x0d, 0x00, 0x00, 0x00, 0x34, 0x00, 0x00, 0x00, 0xb8, 0x00, 0x00, 0x00,
  0x18, 0x00, 0x00, 0x00, 0x04, 0x00, 0x00, 0x00, 0x01, 0x00, 0x00, 0x00,
  0x05, 0x00, 0x00, 0x00, 0x05, 0x00, 0x00, 0x00, 0x10, 0x00, 0x00, 0x00,
  0x04, 0x00, 0x00, 0x00, 0xff, 0xff, 0xff, 0xff, 0x05, 0x00, 0x00, 0x00,
  0x05, 0x00, 0x00, 0x00, 0x10, 0x00, 0x00, 0x00, 0x83, 0x00, 0x00, 0x00,
  0x73, 0x65, 0x71, 0x75, 0x65, 0x6e, 0x74, 0x69, 0x61, 0x6c, 0x2f, 0x63,
  0x6f, 0x6e, 0x76, 0x32, 0x64, 0x5f, 0x31, 0x2f, 0x52, 0x65, 0x6c, 0x75,
  0x3b, 0x73, 0x65, 0x71, 0x75, 0x65, 0x6e, 0x74, 0x69, 0x61, 0x6c, 0x2f,
  0x63, 0x6f, 0x6e, 0x76, 0x32, 0x64, 0x5f, 0x31, 0x2f, 0x42, 0x69, 0x61,
  0x73, 0x41, 0x64, 0x64, 0x3b, 0x73, 0x65, 0x71, 0x75, 0x65, 0x6e, 0x74,
  0x69, 0x61, 0x6c, 0x2f, 0x63, 0x6f, 0x6e, 0x76, 0x32, 0x64, 0x5f, 0x31,
  0x2f, 0x43, 0x6f, 0x6e, 0x76, 0x32, 0x44, 0x3b, 0x73, 0x65, 0x71, 0x75,
  0x65, 0x6e, 0x74, 0x69, 0x61, 0x6c, 0x2f, 0x63, 0x6f, 0x6e, 0x76, 0x32,
  0x64, 0x5f, 0x31, 0x2f, 0x42, 0x69, 0x61, 0x73, 0x41, 0x64, 0x64, 0x2f,
  0x52, 0x65, 0x61, 0x64, 0x56, 0x61, 0x72, 0x69, 0x61, 0x62, 0x6c, 0x65,
  0x4f, 0x70, 0x2f, 0x72, 0x65, 0x73, 0x6f, 0x75, 0x72, 0x63, 0x65, 0x00,
  0xc0, 0xd5, 0xff, 0xff, 0x00, 0x00, 0x0e, 0x00, 0x1a, 0x00, 0x08, 0x00,
  0x0c, 0x00, 0x10, 0x00, 0x07, 0x00, 0x14, 0x00, 0x0e, 0x00, 0x00, 0x00,
  0x00, 0x00, 0x00, 0x05, 0x01, 0x00, 0x00, 0x00, 0x3c, 0x00, 0x00, 0x00,
  0x30, 0x00, 0x00, 0x00, 0x14, 0x00, 0x00, 0x00, 0x00, 0x00, 0x0e, 0x00,
  0x18, 0x00, 0x17, 0x00, 0x10, 0x00, 0x0c, 0x00, 0x08, 0x00, 0x04, 0x00,
  0x0e, 0x00, 0x00, 0x00, 0x02, 0x00, 0x00, 0x00, 0x02, 0x00, 0x00, 0x00,
  0x02, 0x00, 0x00, 0x00, 0x02, 0x00, 0x00, 0x00, 0x00, 0x00, 0x00, 0x01,
  0x01, 0x00, 0x00, 0x00, 0x0b, 0x00, 0x00, 0x00, 0x01, 0x00, 0x00, 0x00,
  0x0a, 0x00, 0x00, 0x00, 0x2c, 0xff, 0xff, 0xff, 0x11, 0x00, 0x00, 0x00,
  0x00, 0x00, 0x00, 0x11, 0x01, 0x00, 0x00, 0x00, 0x38, 0xd5, 0xff, 0xff,
  0x14, 0x00, 0x00, 0x00, 0x0c, 0x00, 0x00, 0x00, 0x34, 0x00, 0x00, 0x00,
  0x58, 0x00, 0x00, 0x00, 0x18, 0x00, 0x00, 0x00, 0x04, 0x00, 0x00, 0x00,
  0x01, 0x00, 0x00, 0x00, 0x07, 0x00, 0x00, 0x00, 0x07, 0x00, 0x00, 0x00,
  0x08, 0x00, 0x00, 0x00, 0x04, 0x00, 0x00, 0x00, 0xff, 0xff, 0xff, 0xff,
  0x07, 0x00, 0x00, 0x00, 0x07, 0x00, 0x00, 0x00, 0x08, 0x00, 0x00, 0x00,
  0x20, 0x00, 0x00, 0x00, 0x73, 0x65, 0x71, 0x75, 0x65, 0x6e, 0x74, 0x69,
  0x61, 0x6c, 0x2f, 0x6d, 0x61, 0x78, 0x5f, 0x70, 0x6f, 0x6f, 0x6c, 0x69,
  0x6e, 0x67, 0x32, 0x64, 0x2f, 0x4d, 0x61, 0x78, 0x50, 0x6f, 0x6f, 0x6c,
  0x00, 0x00, 0x00, 0x00, 0x9c, 0xd6, 0xff, 0xff, 0x00, 0x00, 0x0e, 0x00,
  0x14, 0x00, 0x00, 0x00, 0x08, 0x00, 0x0c, 0x00, 0x07, 0x00, 0x10, 0x00,
  0x0e, 0x00, 0x00, 0x00, 0x00, 0x00, 0x00, 0x01, 0x30, 0x00, 0x00, 0x00,
  0x24, 0x00, 0x00, 0x00, 0x10, 0x00, 0x00, 0x00, 0x0c, 0x00, 0x10, 0x00,
  0x0e, 0x00, 0x04, 0x00, 0x08, 0x00, 0x0f, 0x00, 0x0c, 0x00, 0x00, 0x00,
  0x01, 0x00, 0x00, 0x00, 0x01, 0x00, 0x00, 0x00, 0x00, 0x00, 0x01, 0x01,
  0x01, 0x00, 0x00, 0x00, 0x0a, 0x00, 0x00, 0x00, 0x03, 0x00, 0x00, 0x00,
  0x00, 0x00, 0x00, 0x00, 0x04, 0x00, 0x00, 0x00, 0x02, 0x00, 0x00, 0x00,
  0x0c, 0x00, 0x10, 0x00, 0x0b, 0x00, 0x00, 0x00, 0x0c, 0x00, 0x04, 0x00,
  0x0c, 0x00, 0x00, 0x00, 0x03, 0x00, 0x00, 0x00, 0x00, 0x00, 0x00, 0x03,
  0x01, 0x00, 0x00, 0x00, 0x18, 0xd6, 0xff, 0xff, 0x14, 0x00, 0x00, 0x00,
  0x0b, 0x00, 0x00, 0x00, 0x34, 0x00, 0x00, 0x00, 0xb0, 0x00, 0x00, 0x00,
  0x18, 0x00, 0x00, 0x00, 0x04, 0x00, 0x00, 0x00, 0x01, 0x00, 0x00, 0x00,
  0x0e, 0x00, 0x00, 0x00, 0x0e, 0x00, 0x00, 0x00, 0x08, 0x00, 0x00, 0x00,
  0x04, 0x00, 0x00, 0x00, 0xff, 0xff, 0xff, 0xff, 0x0e, 0x00, 0x00, 0x00,
  0x0e, 0x00, 0x00, 0x00, 0x08, 0x00, 0x00, 0x00, 0x7b, 0x00, 0x00, 0x00,
  0x73, 0x65, 0x71, 0x75, 0x65, 0x6e, 0x74, 0x69, 0x61, 0x6c, 0x2f, 0x63,
  0x6f, 0x6e, 0x76, 0x32, 0x64, 0x2f, 0x52, 0x65, 0x6c, 0x75, 0x3b, 0x73,
  0x65, 0x71, 0x75, 0x65, 0x6e, 0x74, 0x69, 0x61, 0x6c, 0x2f, 0x63, 0x6f,
  0x6e, 0x76, 0x32, 0x64, 0x2f, 0x42, 0x69, 0x61, 0x73, 0x41, 0x64, 0x64,
  0x3b, 0x73, 0x65, 0x71, 0x75, 0x65, 0x6e, 0x74, 0x69, 0x61, 0x6c, 0x2f,
  0x63, 0x6f, 0x6e, 0x76, 0x32, 0x64, 0x2f, 0x43, 0x6f, 0x6e, 0x76, 0x32,
  0x44, 0x3b, 0x73, 0x65, 0x71, 0x75, 0x65, 0x6e, 0x74, 0x69, 0x61, 0x6c,
  0x2f, 0x63, 0x6f, 0x6e, 0x76, 0x32, 0x64, 0x2f, 0x42, 0x69, 0x61, 0x73,
  0x41, 0x64, 0x64, 0x2f, 0x52, 0x65, 0x61, 0x64, 0x56, 0x61, 0x72, 0x69,
  0x61, 0x62, 0x6c, 0x65, 0x4f, 0x70, 0x2f, 0x72, 0x65, 0x73, 0x6f, 0x75,
  0x72, 0x63, 0x65, 0x00, 0x74, 0xd6, 0xff, 0xff, 0xce, 0xd7, 0xff, 0xff,
  0x04, 0x00, 0x00, 0x00, 0x80, 0x01, 0x00, 0x00, 0x1c, 0x98, 0xf2, 0x3e,
  0x0b, 0x4a, 0x9c, 0x3c, 0xb6, 0x87, 0xf2, 0x3d, 0x01, 0x79, 0xcc, 0xbe,
  0x22, 0xee, 0xb0, 0x3e, 0x79, 0x80, 0x10, 0xbd, 0x60, 0x99, 0xc1, 0x3e,
  0x70, 0x18, 0xfa, 0x3e, 0xec, 0x8a, 0x03, 0x3d, 0xb7, 0x70, 0x3e, 0x3f,
  0x07, 0x05, 0x1a, 0xbf, 0x07, 0x5c, 0x12, 0x3e, 0xcb, 0xf7, 0xa2, 0x3d,
  0xb5, 0x7d, 0x04, 0x3f, 0xa3, 0xf3, 0x21, 0xbf, 0x46, 0xde, 0xde, 0xbe,
  0xba, 0x27, 0xaf, 0x3e, 0x2c, 0x7b, 0xbc, 0xbe, 0x53, 0xfa, 0xf4, 0xbd,
  0xe2, 0x0c, 0xc9, 0x3c, 0x27, 0x05, 0x9a, 0xbe, 0xa6, 0x71, 0x41, 0x3e,
  0x19, 0x8a, 0x32, 0xbe, 0xf5, 0x47, 0xbb, 0xbe, 0xd9, 0xbe, 0x08, 0x3f,
  0x2b, 0x84, 0x85, 0x3e, 0x17, 0xc8, 0x01, 0x3f, 0xe2, 0x74, 0x78, 0xbe,
  0x10, 0x69, 0x01, 0xbf, 0x84, 0x43, 0x92, 0xbe, 0xd4, 0x13, 0x0c, 0x3e,
  0x52, 0x6c, 0xe8, 0x3e, 0x35, 0xe9, 0xba, 0x3d, 0x8d, 0x07, 0x57, 0x3e,
  0x69, 0x5d, 0x03, 0x3f, 0xbc, 0xc8, 0xa6, 0x3e, 0xb0, 0xd4, 0x94, 0x3e,
  0x50, 0x94, 0x03, 0xbf, 0xe6, 0x43, 0x0c, 0xbe, 0xed, 0xa1, 0xad, 0xbe,
  0x2c, 0x41, 0x31, 0xbe, 0x4d, 0xb4, 0xc5, 0xbe, 0x18, 0xef, 0x2a, 0xbe,
  0x05, 0x61, 0x91, 0xbe, 0xc4, 0xb7, 0x45, 0xbe, 0x8f, 0x58, 0x9e, 0xbd,
  0x05, 0xc3, 0xa0, 0xbe, 0xa3, 0xa5, 0xad, 0x3e, 0xca, 0x5b, 0xa1, 0x3e,
  0x55, 0x50, 0x1a, 0xbe, 0xb4, 0x55, 0x27, 0xbf, 0xc3, 0xc1, 0x78, 0xbe,
  0x2e, 0x14, 0xb4, 0xbb, 0xdb, 0x5f, 0x12, 0x3f, 0x9f, 0x30, 0xf8, 0x3e,
  0x1f, 0x6f, 0xe6, 0xbe, 0x0d, 0xe0, 0x58, 0x3e, 0xfd, 0x3a, 0x62, 0xbd,
  0x6b, 0x38, 0x09, 0xbf, 0xd4, 0x39, 0xaf, 0x3e, 0xf0, 0xa3, 0x64, 0xbe,
  0x04, 0x78, 0x34, 0xbd, 0x0b, 0x9f, 0xc2, 0x3e, 0xaf, 0x7d, 0x08, 0x3f,
  0xf2, 0xdb, 0xd1, 0xbe, 0xda, 0x83, 0x2b, 0x3f, 0x39, 0xfe, 0x0a, 0xbe,
  0x7c, 0x11, 0xd1, 0xbe, 0x62, 0x15, 0xf4, 0x3e, 0x47, 0xfb, 0x1b, 0xbd,
  0xfc, 0xaf, 0x3e, 0x3f, 0x88, 0x90, 0x19, 0x3c, 0x21, 0xa7, 0xa8, 0x3d,
  0x8e, 0x36, 0xc6, 0xbb, 0x42, 0x8b, 0x0c, 0x3d, 0x8c, 0x04, 0x1b, 0xbe,
  0x69, 0xfa, 0x10, 0xbf, 0x98, 0x80, 0xe1, 0xbe, 0xd9, 0xea, 0xd0, 0xbe,
  0xe8, 0x34, 0xe3, 0xbd, 0x17, 0x37, 0x48, 0x3e, 0xdc, 0xc8, 0x19, 0xbb,
  0x50, 0x85, 0xc7, 0x3d, 0x03, 0xa0, 0xdf, 0xbe, 0x21, 0xf2, 0x84, 0x3e,
  0x54, 0x31, 0x97, 0xbe, 0x19, 0xb1, 0xfa, 0xbe, 0xa1, 0x6c, 0xf0, 0xbd,
  0xa7, 0xab, 0x00, 0xbf, 0x6b, 0x49, 0x81, 0xbe, 0xe9, 0xc8, 0xf2, 0xbd,
  0x24, 0x48, 0xe8, 0xbe, 0x14, 0x22, 0x17, 0x3f, 0xb1, 0xe5, 0x06, 0xbe,
  0x8b, 0x8d, 0xf8, 0x3e, 0x82, 0xe7, 0xa8, 0xbe, 0x06, 0xd9, 0xff, 0xff,
  0x10, 0x00, 0x00, 0x00, 0x0a, 0x00, 0x00, 0x00, 0x14, 0x00, 0x00, 0x00,
  0x30, 0x00, 0x00, 0x00, 0x02, 0x00, 0x00, 0x00, 0x06, 0x00, 0x00, 0x00,
  0x10, 0x00, 0x00, 0x00, 0x19, 0x00, 0x00, 0x00, 0x73, 0x65, 0x71, 0x75,
  0x65, 0x6e, 0x74, 0x69, 0x61, 0x6c, 0x2f, 0x64, 0x65, 0x6e, 0x73, 0x65,
  0x5f, 0x31, 0x2f, 0x4d, 0x61, 0x74, 0x4d, 0x75, 0x6c, 0x00, 0x00, 0x00,
  0x44, 0xd8, 0xff, 0xff, 0x9e, 0xd9, 0xff, 0xff, 0x04, 0x00, 0x00, 0x00,
  0x00, 0x10, 0x00, 0x00, 0x92, 0x1d, 0x91, 0x3e, 0xbe, 0x43, 0x98, 0xbe,
  0x40, 0x8b, 0xbd, 0x3d, 0x15, 0xd8, 0xc4, 0x3d, 0xfe, 0xae, 0x80, 0x3e,
  0x85, 0xb1, 0x46, 0xbe, 0xc6, 0x2c, 0xad, 0xbd, 0x65, 0x16, 0x45, 0x3d,
  0x0f, 0x1e, 0x30, 0xbb, 0x50, 0xae, 0x09, 0xbe, 0xb3, 0x5d, 0x7a, 0xbe,
  0xc1, 0xd0, 0xef, 0x3d, 0x10, 0xa2, 0x94, 0xbe, 0xdd, 0x1f, 0x3e, 0x3e,
  0x83, 0x70, 0xed, 0x3d, 0x63, 0xe7, 0x80, 0xbe, 0x04, 0x46, 0x4a, 0x3e,
  0x9e, 0x42, 0x9c, 0x3d, 0x96, 0x6a, 0xf9, 0xbd, 0x93, 0x1b, 0xd3, 0xbd,
  0xc2, 0xd6, 0xdd, 0x3d, 0xa0, 0x8e, 0x8e, 0xbe, 0x95, 0x54, 0x1e, 0x3e,
  0xa5, 0x28, 0xa8, 0xbb, 0xe1, 0x19, 0x0a, 0x3d, 0x3f, 0xc3, 0xb3, 0xbd,
  0xea, 0xf7, 0xcc, 0x3d, 0x2a, 0x3a, 0x6e, 0x3e, 0x06, 0xdd, 0x6d, 0xbd,
  0x34, 0x86, 0x8a, 0x3e, 0x6e, 0x2d, 0xd1, 0x3d, 0x5c, 0x8b, 0xdc, 0xbd,
  0x46, 0xef, 0x33, 0x3e, 0xde, 0x97, 0xb7, 0x3c, 0xd2, 0x16, 0x69, 0x3e,
  0xed, 0xa7, 0x01, 0xbe, 0x41, 0x7c, 0xd1, 0xbc, 0x98, 0x83, 0x7e, 0x3e,
  0x20, 0x74, 0x88, 0x3e, 0xf3, 0x0c, 0x89, 0x3e, 0xd1, 0x74, 0xaf, 0x3b,
  0x46, 0x2e, 0x74, 0x3d, 0xec, 0x99, 0x8b, 0xbd, 0x66, 0x9d, 0x67, 0x3e,
  0x66, 0x1e, 0x59, 0x3e, 0xcb, 0x73, 0x38, 0xbd, 0x81, 0xe2, 0x91, 0x3d,
  0x4a, 0x7e, 0x83, 0xbe, 0xe4, 0x54, 0x8d, 0x3d, 0x46, 0xdf, 0x01, 0xbe,
  0x34, 0x2f, 0x9f, 0xbd, 0xda, 0x69, 0x38, 0xbe, 0xc6, 0x1e, 0x92, 0x3e,
  0xa0, 0x6a, 0x66, 0x3e, 0xf2, 0x0d, 0x69, 0x3e, 0xe3, 0x63, 0x11, 0x3d,
  0xdd, 0x55, 0xe3, 0x3d, 0x15, 0xd4, 0xd9, 0xbd, 0xa2, 0xdb, 0x60, 0xbe,
  0xdd, 0xa4, 0xb4, 0x3e, 0x09, 0xc2, 0x95, 0x3e, 0xec, 0x10, 0x33, 0x3e,
  0x39, 0x4a, 0xaa, 0x3c, 0xe9, 0x08, 0x71, 0x3e, 0xb7, 0x81, 0x8e, 0xbd,
  0x39, 0x47, 0x8d, 0x3e, 0x98, 0x8d, 0xa0, 0x3d, 0x23, 0x50, 0x77, 0xbd,
  0x8a, 0x8d, 0x7f, 0x3d, 0x76, 0x2c, 0x96, 0xbd, 0xc0, 0xca, 0xa4, 0xbe,
  0x62, 0x78, 0x81, 0xbb, 0x88, 0xb5, 0x04, 0xbe, 0xbb, 0x93, 0x82, 0x3e,
  0x21, 0x1b, 0x3b, 0x3e, 0xd4, 0xe5, 0x6e, 0x3d, 0x7e, 0xc3, 0x8a, 0x3e,
  0xff, 0x18, 0x81, 0x3e, 0x95, 0x3b, 0xf9, 0xbc, 0x9f, 0x27, 0x70, 0x3e,
  0x2b, 0x58, 0xe0, 0x3c, 0x4c, 0x0c, 0x37, 0xbe, 0x98, 0x56, 0x62, 0xbd,
  0x5e, 0xc4, 0xef, 0x3e, 0xc0, 0x89, 0x0c, 0x3e, 0xfc, 0xd6, 0x0b, 0xbc,
  0x90, 0x1c, 0x42, 0x3e, 0xae, 0x46, 0x11, 0xbe, 0xa3, 0x76, 0x17, 0x3d,
  0x34, 0xe6, 0x5e, 0xbd, 0x85, 0x91, 0x0d, 0xbd, 0x37, 0x9c, 0x8e, 0xbd,
  0x39, 0x58, 0xf0, 0x3d, 0xc0, 0x69, 0x67, 0xbe, 0x5d, 0x41, 0xef, 0x3c,
  0xa3, 0xdf, 0x44, 0x3e, 0x32, 0x81, 0x19, 0xbe, 0x6f, 0xaa, 0x98, 0x3e,
  0x38, 0x37, 0xa8, 0x3d, 0xb5, 0x45, 0x43, 0xbe, 0x7d, 0xd7, 0x23, 0x3e,
  0x15, 0x14, 0x66, 0xbc, 0xb6, 0x5f, 0xb1, 0xbe, 0xde, 0x6d, 0x93, 0x3e,
  0xfc, 0xd2, 0x23, 0xbe, 0x93, 0x2e, 0xa3, 0x3c, 0xbe, 0x62, 0x2a, 0xbd,
  0x26, 0x02, 0x40, 0xbe, 0xcd, 0x27, 0xdb, 0xbd, 0x8d, 0xa2, 0x1a, 0xbe,
  0x0d, 0xd4, 0x54, 0x3e, 0xaa, 0x5f, 0x64, 0xbe, 0xff, 0xa2, 0x83, 0xbe,
  0x0e, 0x57, 0xd2, 0x3d, 0xa0, 0x57, 0x46, 0x3e, 0x36, 0x26, 0x4f, 0x3e,
  0xfe, 0x1a, 0x8f, 0x3e, 0xeb, 0x18, 0x29, 0x3d, 0xf3, 0x08, 0x59, 0xbe,
  0xa8, 0xb9, 0x3e, 0xbe, 0x82, 0xb1, 0x35, 0x3e, 0x2f, 0x98, 0x93, 0x3e,
  0xd7, 0xa3, 0xef, 0x3e, 0x80, 0x46, 0x72, 0x3e, 0xb5, 0xf8, 0x12, 0xb9,
  0x4e, 0xdd, 0x0a, 0x3d, 0x3e, 0xa4, 0x4d, 0xbe, 0xc8, 0xfe, 0xf8, 0x3d,
  0x72, 0xe2, 0x65, 0x3e, 0x02, 0xdf, 0x00, 0x3e, 0x2a, 0x03, 0x85, 0xbe,
  0x8a, 0x0b, 0x9a, 0xbe, 0x82, 0x01, 0x6a, 0xbe, 0x3f, 0x13, 0x87, 0x3e,
  0x65, 0xf5, 0x61, 0x3e, 0x5f, 0xe8, 0x38, 0x3d, 0x36, 0x8e, 0xcd, 0x3e,
  0xea, 0x48, 0x7a, 0x3e, 0x5f, 0x01, 0x01, 0xbd, 0x26, 0x2a, 0x69, 0xbd,
  0x2e, 0xd7, 0x16, 0x3e, 0x2d, 0x25, 0x0d, 0x3c, 0xa1, 0x22, 0x1b, 0x3d,
  0xf0, 0x67, 0xad, 0x3e, 0xec, 0x70, 0xf9, 0xbd, 0x6f, 0xfd, 0x0d, 0x3e,
  0xe0, 0x58, 0x2c, 0x3c, 0x0a, 0x4d, 0x73, 0xbe, 0x59, 0xb8, 0x7f, 0x3e,
  0xfe, 0x73, 0x5f, 0xbe, 0x09, 0xb5, 0x63, 0x3e, 0x94, 0xed, 0x37, 0xbe,
  0x4f, 0xb3, 0x82, 0xbd, 0xc9, 0x30, 0xeb, 0x3c, 0xda, 0xa8, 0xaa, 0x3e,
  0xbf, 0x28, 0x08, 0x3e, 0x59, 0x98, 0x92, 0x3d, 0x5b, 0xa6, 0x6a, 0xbb,
  0xaa, 0x9f, 0xe4, 0xbd, 0xb9, 0xc0, 0x95, 0xbe, 0x3e, 0x99, 0xb3, 0x3d,
  0xce, 0x7c, 0x7f, 0xbe, 0xf4, 0xa8, 0x94, 0x3d, 0xaf, 0x95, 0x5e, 0x3e,
  0xf6, 0xef, 0xab, 0xbe, 0x01, 0x93, 0x1d, 0xbe, 0x16, 0x24, 0x86, 0xbe,
  0x4e, 0xf0, 0x38, 0x3e, 0x39, 0x94, 0x1d, 0xbd, 0x56, 0xec, 0x97, 0xbd,
  0x5c, 0xa6, 0x1e, 0x3e, 0x79, 0xfa, 0x55, 0xbe, 0x4e, 0x79, 0x83, 0x3d,
  0xae, 0x8d, 0x9d, 0x3e, 0x12, 0xd5, 0xf4, 0xbc, 0x75, 0xa8, 0xcf, 0x3e,
  0x44, 0xf4, 0x81, 0x3e, 0x0a, 0x48, 0xf6, 0x3c, 0x50, 0x45, 0x65, 0x3d,
  0x0d, 0xa8, 0x58, 0x3d, 0x51, 0x3f, 0x92, 0x3e, 0xa4, 0x11, 0x50, 0xbe,
  0xac, 0xec, 0xe3, 0xbd, 0x65, 0xb9, 0xf3, 0xbc, 0x82, 0x09, 0x36, 0x3e,
  0x43, 0xbe, 0x46, 0xbe, 0x0b, 0xd9, 0x00, 0x3e, 0xb0, 0x94, 0x5a, 0x3e,
  0xec, 0xd6, 0xcd, 0xbd, 0xc7, 0xc4, 0x84, 0x3d, 0x84, 0xec, 0xf7, 0xbd,
  0xba, 0x27, 0x76, 0xbe, 0x4b, 0xb8, 0xf8, 0xbd, 0x56, 0xf9, 0x97, 0xbd,
  0xd6, 0x0c, 0x8a, 0xbe, 0xe7, 0x9e, 0x85, 0xbe, 0x87, 0x34, 0x9a, 0xbe,
  0x68, 0x09, 0x73, 0xbe, 0x8c, 0x89, 0x41, 0xbd, 0x8f, 0x19, 0x7f, 0x3e,
  0x4d, 0x8e, 0xae, 0x3e, 0xcc, 0xce, 0x8a, 0xbe, 0xda, 0x49, 0xf1, 0x3e,
  0x1d, 0x04, 0xf9, 0x3d, 0xfa, 0xa1, 0x5e, 0xbe, 0x14, 0x0a, 0x39, 0x3e,
  0xbf, 0x99, 0xc0, 0xbc, 0xed, 0xd5, 0x2a, 0xbd, 0xdb, 0x46, 0x18, 0x3e,
  0x0d, 0xb6, 0x94, 0xbe, 0x08, 0x0b, 0xb9, 0x3d, 0x7f, 0xd9, 0xa9, 0xbd,
  0x34, 0x42, 0xc1, 0x3d, 0x92, 0x1b, 0x3f, 0xbe, 0x06, 0x0d, 0xb3, 0x3e,
  0xd4, 0x78, 0x11, 0x3e, 0xb7, 0x96, 0x88, 0x3e, 0xe6, 0x79, 0x62, 0x3e,
  0x7c, 0xc7, 0xa4, 0x3e, 0x5d, 0x7c, 0xb4, 0x3e, 0x6c, 0x38, 0x8c, 0x3e,
  0xb1, 0xd5, 0x55, 0xbe, 0x4d, 0x30, 0x40, 0xbe, 0x41, 0x90, 0x36, 0xbe,
  0xbc, 0x52, 0x7f, 0x3e, 0x0d, 0x48, 0x5f, 0xbe, 0x18, 0xc4, 0xd5, 0x3d,
  0x3f, 0x1f, 0x23, 0x3d, 0x5b, 0x2a, 0x99, 0x3e, 0x8b, 0xa6, 0xd0, 0xbd,
  0x7d, 0x16, 0x7e, 0xbe, 0x62, 0xe1, 0x2f, 0x3e, 0xc5, 0xa6, 0x08, 0x3d,
  0x40, 0x66, 0x53, 0x3d, 0xc4, 0x20, 0xf9, 0xbd, 0x5b, 0xfd, 0x2c, 0xbb,
  0xfb, 0x1e, 0xfb, 0xbd, 0x93, 0x60, 0xc4, 0x3d, 0x9f, 0xab, 0xd7, 0xbd,
  0x6e, 0xb9, 0xe2, 0xbc, 0x03, 0xee, 0xb2, 0x3d, 0x0b, 0xc6, 0x7e, 0xbe,
  0x78, 0xe0, 0x41, 0xbd, 0x35, 0xf1, 0x90, 0x3e, 0x83, 0x9a, 0xa3, 0x3d,
  0xe3, 0x50, 0x8f, 0x3e, 0x56, 0x9f, 0x85, 0xbe, 0x1e, 0xe1, 0x6d, 0x3e,
  0xb2, 0xaa, 0x4c, 0x3e, 0x2f, 0xe5, 0x95, 0xbe, 0x3a, 0x34, 0xb9, 0xbd,
  0xe4, 0x21, 0xc8, 0x3b, 0xff, 0xfe, 0x36, 0x3e, 0x86, 0x39, 0xb1, 0xbd,
  0xde, 0xcb, 0x5a, 0x3e, 0x7e, 0x90, 0xaa, 0x3d, 0x8f, 0xb0, 0xf6, 0xbc,
  0xdc, 0x99, 0x82, 0xbc, 0x4a, 0x8b, 0x70, 0x3e, 0x34, 0x56, 0xb2, 0x3d,
  0x41, 0x18, 0x7f, 0xbe, 0xdb, 0x73, 0x66, 0xbd, 0xf0, 0x43, 0x42, 0xbd,
  0x39, 0x75, 0x87, 0x3e, 0xe6, 0x8e, 0x9f, 0x3e, 0xf4, 0xba, 0xab, 0x3c,
  0x4e, 0xea, 0x80, 0x3c, 0xe1, 0xf9, 0xb6, 0x3d, 0xb7, 0xa3, 0x0b, 0x3d,
  0x6c, 0x67, 0x34, 0xbe, 0xf5, 0xf1, 0x32, 0xbe, 0x2b, 0x7c, 0xa0, 0x3e,
  0xbc, 0x22, 0x63, 0xbe, 0x85, 0xd9, 0xbf, 0x3d, 0xa1, 0xbf, 0x8e, 0x3e,
  0x6b, 0xfb, 0x3f, 0xbd, 0xf8, 0x97, 0x88, 0x3e, 0xda, 0x0e, 0x1f, 0x3d,
  0xa2, 0x4c, 0x62, 0xbd, 0xb2, 0x3b, 0x37, 0xbe, 0x31, 0x25, 0x44, 0x3e,
  0xfc, 0x2c, 0x7b, 0xbe, 0x05, 0xdf, 0x0c, 0xbc, 0x62, 0x52, 0x12, 0x3e,
  0xb4, 0x61, 0x61, 0xbe, 0x67, 0xd2, 0x8e, 0x3e, 0x1d, 0x13, 0x0c, 0x3d,
  0x6f, 0x12, 0x65, 0x3e, 0x0e, 0xde, 0x9e, 0x3b, 0x4e, 0x42, 0x9e, 0x3d,
  0x3d, 0xe7, 0x81, 0x3e, 0x86, 0xa9, 0xf2, 0xba, 0xfc, 0x20, 0xa8, 0xbd,
  0x38, 0x37, 0x84, 0xbe, 0xb0, 0xcf, 0xef, 0xbd, 0x1e, 0x2b, 0xe7, 0xbd,
  0x35, 0xe6, 0x48, 0xbd, 0x5a, 0x3e, 0x1b, 0xbe, 0x7d, 0x47, 0xc2, 0x3b,
  0x8c, 0x92, 0x48, 0x3e, 0x34, 0xe1, 0xc4, 0x3d, 0xeb, 0xbd, 0x59, 0xbe,
  0x1d, 0xdd, 0x76, 0x3e, 0xd6, 0x4e, 0x3e, 0xbe, 0x72, 0x03, 0xcf, 0xbd,
  0x00, 0x2a, 0x72, 0xbe, 0x63, 0x33, 0x85, 0x3e, 0xb1, 0x92, 0xa9, 0xbd,
  0x2f, 0x43, 0x7b, 0xbe, 0xf7, 0xc8, 0x76, 0xbe, 0xfe, 0x99, 0x00, 0x3e,
  0x39, 0xec, 0x54, 0xbd, 0x9c, 0xd2, 0x12, 0x3e, 0x7e, 0x02, 0x9d, 0xbd,
  0x52, 0x22, 0xf8, 0xbd, 0xc2, 0x9b, 0x18, 0x3e, 0x4f, 0x94, 0xe6, 0xb8,
  0x20, 0x17, 0xe3, 0x3d, 0xae, 0x76, 0x83, 0x3d, 0x7b, 0x27, 0x9f, 0x3d,
  0x3b, 0x20, 0xd1, 0xbd, 0xbd, 0x8c, 0x0d, 0xbe, 0x52, 0x40, 0x18, 0xbe,
  0xf3, 0x23, 0x61, 0xbc, 0x5e, 0x77, 0x96, 0x3e, 0x8f, 0x8c, 0x99, 0x3d,
  0x5a, 0xbf, 0xea, 0xbd, 0x64, 0xbe, 0x36, 0xbe, 0xce, 0xf8, 0x9b, 0xbe,
  0xed, 0xc6, 0x42, 0x3e, 0x0e, 0x66, 0xba, 0x3d, 0xaa, 0x42, 0x80, 0x3e,
  0x1f, 0x2c, 0x82, 0xbe, 0x39, 0x19, 0x88, 0x3e, 0xda, 0xa9, 0x69, 0x3d,
  0x2e, 0x32, 0xb2, 0xbe, 0x96, 0x62, 0x32, 0xbe, 0x77, 0xfc, 0x8b, 0x3e,
  0x2e, 0x4a, 0x33, 0x3e, 0x7b, 0xbe, 0x48, 0x3e, 0x59, 0xa2, 0xe9, 0xbd,
  0xce, 0x34, 0x41, 0xbc, 0xf5, 0x7f, 0x21, 0xbd, 0x74, 0xaa, 0x82, 0x3e,
  0xd0, 0xae, 0x16, 0xbe, 0xe7, 0x2a, 0x4e, 0x3e, 0x9d, 0xa5, 0x5b, 0xbe,
  0xe4, 0xb3, 0xa0, 0xba, 0x29, 0xee, 0x28, 0xbd, 0x6b, 0xae, 0x23, 0xbe,
  0xc3, 0x5a, 0xdd, 0x3c, 0x40, 0x51, 0xe0, 0xbd, 0xbc, 0x7c, 0x8e, 0x3d,
  0x78, 0xc1, 0x94, 0x3e, 0x18, 0x54, 0x47, 0x3d, 0x08, 0x91, 0x8d, 0xbd,
  0x1e, 0x59, 0xb0, 0x3e, 0x2c, 0xf6, 0xdf, 0xbd, 0x3d, 0x99, 0xaf, 0x3e,
  0xad, 0x91, 0xa6, 0x3e, 0x98, 0x53, 0x28, 0x3b, 0x7c, 0xfd, 0xf9, 0x3d,
  0xd6, 0x32, 0x84, 0x3e, 0xfb, 0x66, 0x79, 0x3e, 0xed, 0x3d, 0x04, 0xbe,
  0xfb, 0xc2, 0x88, 0xbe, 0x01, 0xaf, 0xac, 0x3e, 0x20, 0x1e, 0xb8, 0xbc,
  0xdf, 0x00, 0x98, 0x3e, 0x8f, 0x5a, 0xdc, 0xbd, 0x02, 0xdc, 0xf3, 0xbd,
  0x85, 0x8f, 0x85, 0x3e, 0x73, 0xd9, 0x79, 0x3d, 0xb3, 0xe5, 0x13, 0x3e,
  0x4e, 0xb8, 0xec, 0xbd, 0xe5, 0x04, 0x43, 0x3d, 0x51, 0x28, 0x5f, 0x3e,
  0xe8, 0x05, 0x4c, 0xbe, 0xaf, 0x0a, 0x1c, 0xbe, 0x97, 0x5b, 0x94, 0x3e,
  0x22, 0x67, 0xda, 0xbd, 0x41, 0x8b, 0x8a, 0x3e, 0xbb, 0x36, 0x9b, 0x3e,
  0x4d, 0xb9, 0x8e, 0xbd, 0x02, 0xa3, 0xef, 0x3d, 0x91, 0xa0, 0x31, 0xbd,
  0xc6, 0xab, 0x55, 0x3e, 0x1f, 0x3c, 0xd5, 0x3e, 0x37, 0x24, 0xe8, 0xbd,
  0x04, 0x12, 0xa1, 0xbd, 0xe5, 0x9b, 0x1f, 0xbd, 0xc2, 0x95, 0x79, 0xbe,
  0x23, 0x64, 0x8b, 0x3e, 0x9d, 0xa7, 0xa7, 0x3e, 0x4c, 0x9d, 0x57, 0xbe,
  0xf8, 0xce, 0x0c, 0x3e, 0x77, 0x63, 0x39, 0x3e, 0xc4, 0xcc, 0x8e, 0x3d,
  0x5c, 0x90, 0x4e, 0xbe, 0x4c, 0x55, 0x91, 0xbe, 0xa8, 0x83, 0xdf, 0xbd,
  0xf6, 0x18, 0x8b, 0x3e, 0xbb, 0x64, 0x02, 0xbe, 0x5a, 0xd1, 0x03, 0x3f,
  0xba, 0xe3, 0xa6, 0x3e, 0x0b, 0x8f, 0x2b, 0xbe, 0xd6, 0xb1, 0x77, 0x3e,
  0x72, 0x27, 0x01, 0xbe, 0xa0, 0xd9, 0x03, 0x3e, 0x17, 0x72, 0x87, 0x3e,
  0x01, 0x01, 0x9c, 0xbe, 0x16, 0xde, 0xa4, 0x3d, 0x28, 0x45, 0x98, 0x3e,
  0xe1, 0xa1, 0x7c, 0xbe, 0x8c, 0x83, 0x92, 0xbd, 0x57, 0xc6, 0xb7, 0x3d,
  0xa4, 0xa3, 0xdf, 0xbd, 0xbc, 0x7a, 0x97, 0x3e, 0x00, 0xc1, 0xe4, 0x3c,
  0xa9, 0x38, 0x56, 0xbe, 0xbb, 0x30, 0x41, 0xbe, 0x7a, 0xe8, 0x8b, 0xbe,
  0xa6, 0x17, 0x46, 0x3e, 0x59, 0xed, 0xb9, 0x3e, 0x6f, 0x41, 0x62, 0x3d,
  0x33, 0x0b, 0xbc, 0x3c, 0x37, 0x22, 0x62, 0xbd, 0x04, 0x3c, 0x7c, 0xbe,
  0x81, 0x6e, 0x76, 0xbe, 0x51, 0xaa, 0xa2, 0xbc, 0x16, 0x37, 0x4f, 0xbe,
  0x14, 0x45, 0x1a, 0x3e, 0x26, 0x98, 0x42, 0x3e, 0xc0, 0xd7, 0x28, 0x3d,
  0xc2, 0x1a, 0x1c, 0xbe, 0x48, 0x5c, 0x04, 0xbe, 0x34, 0x7d, 0x80, 0xbe,
  0x9a, 0xf3, 0xc1, 0xbc, 0x7c, 0x2b, 0x9d, 0xbd, 0xe7, 0x3c, 0x97, 0x3b,
  0xb3, 0x71, 0x0e, 0xbd, 0x44, 0x2b, 0x60, 0xbe, 0x07, 0xff, 0x63, 0x3e,
  0x12, 0x8b, 0x17, 0xbe, 0xc5, 0x8d, 0x3a, 0x3e, 0x38, 0xf1, 0xe5, 0x3d,
  0x89, 0x7c, 0xdc, 0x3e, 0xe7, 0xed, 0x1f, 0x3e, 0x20, 0xde, 0x52, 0x3d,
  0x0b, 0x3f, 0x20, 0x3e, 0x42, 0x13, 0x76, 0x3e, 0xe0, 0xb9, 0x68, 0xbe,
  0x96, 0x7f, 0xb3, 0xbc, 0x8a, 0x00, 0xaa, 0xbd, 0x85, 0x55, 0x33, 0x3e,
  0xc9, 0x99, 0x43, 0x3e, 0xb0, 0x7b, 0x45, 0x3e, 0x20, 0x23, 0xd2, 0xbd,
  0x91, 0x33, 0x63, 0xbe, 0x23, 0x67, 0x8d, 0x3e, 0x46, 0x0a, 0x44, 0xbe,
  0x62, 0x39, 0x40, 0xbe, 0xec, 0x93, 0x33, 0x3e, 0x5e, 0xb6, 0x8d, 0xbe,
  0x29, 0x7f, 0x8a, 0xbe, 0x25, 0xfe, 0xca, 0x3d, 0xba, 0xb5, 0x5c, 0x3e,
  0xca, 0x50, 0xd9, 0xbc, 0x91, 0x50, 0x0b, 0x3e, 0x03, 0x7b, 0x5e, 0xbe,
  0xb6, 0xb2, 0x32, 0xbe, 0x5e, 0xff, 0xca, 0x3d, 0x50, 0xd2, 0xb6, 0x3c,
  0x99, 0xc0, 0x7e, 0xbc, 0x53, 0x04, 0x1e, 0x3c, 0x8c, 0x3d, 0x38, 0xbb,
  0xc0, 0x35, 0x74, 0xbc, 0x36, 0x92, 0x26, 0x3d, 0x13, 0xe0, 0x56, 0x3e,
  0xf6, 0x9d, 0x4a, 0x3d, 0x3c, 0x5b, 0x1b, 0x3e, 0xcb, 0xce, 0x68, 0xbe,
  0x60, 0x05, 0xac, 0xbc, 0xb1, 0xb1, 0x94, 0x3d, 0x53, 0x01, 0x87, 0xbe,
  0xbe, 0x5c, 0x8b, 0xbd, 0x7c, 0x2e, 0x39, 0xbd, 0x09, 0x66, 0x92, 0xbe,
  0x58, 0x8f, 0x9d, 0xbb, 0x21, 0xe7, 0x05, 0x3d, 0x9a, 0xa3, 0x5d, 0x3d,
  0x75, 0x15, 0x89, 0x3e, 0xef, 0x7d, 0xb5, 0x3c, 0x9c, 0xab, 0x55, 0x3e,
  0x0d, 0x00, 0x87, 0xbe, 0x89, 0x46, 0x99, 0xbe, 0x05, 0x7d, 0xcc, 0x3d,
  0x9d, 0x64, 0xf3, 0x3d, 0x14, 0x8a, 0x89, 0xbd, 0x07, 0x23, 0xf0, 0x3b,
  0xbe, 0xde, 0x5c, 0x3e, 0xca, 0xae, 0x58, 0x3e, 0x49, 0xdb, 0x45, 0xbe,
  0xc4, 0xac, 0x70, 0xbe, 0x18, 0xdb, 0x8b, 0x3d, 0x95, 0x6d, 0x81, 0xbd,
  0x0c, 0x61, 0x94, 0xbd, 0x1e, 0x5c, 0x87, 0xbe, 0xc0, 0xc4, 0x95, 0x3d,
  0x23, 0x5f, 0x8f, 0x3c, 0x44, 0x27, 0x4e, 0xbe, 0x33, 0xb3, 0x62, 0x3e,
  0x2b, 0x87, 0xbf, 0x3d, 0x88, 0xf1, 0xa1, 0x3d, 0x50, 0x5a, 0x87, 0x3c,
  0x53, 0x75, 0x66, 0x3d, 0xa5, 0xc1, 0xc0, 0xbc, 0x9c, 0xdb, 0x73, 0x3e,
  0x47, 0xce, 0x24, 0x3e, 0x3c, 0x2f, 0x4b, 0xbe, 0xa7, 0x9a, 0xf4, 0xbd,
  0x3a, 0x26, 0x3d, 0x3e, 0xb0, 0x4a, 0xae, 0x3e, 0xb8, 0x2c, 0x9c, 0x3e,
  0x5b, 0x84, 0xb7, 0x3d, 0x16, 0x11, 0x6d, 0xbe, 0x08, 0xdc, 0x6f, 0x3d,
  0x6f, 0xcc, 0x29, 0xbe, 0x10, 0xdf, 0xf4, 0xbc, 0x80, 0x65, 0x3b, 0x3e,
  0xf0, 0xb1, 0xbc, 0x3d, 0x93, 0xf5, 0x92, 0x3c, 0x03, 0x1d, 0x82, 0x3e,
  0xd2, 0xd9, 0xec, 0xbd, 0xbf, 0x2e, 0x8d, 0x3c, 0x33, 0xc7, 0x3c, 0x3e,
  0x96, 0xe7, 0xac, 0x3e, 0xf3, 0x41, 0xa7, 0x3d, 0x5c, 0x5d, 0x57, 0xbe,
  0x2e, 0x7a, 0xaa, 0xbd, 0x77, 0xd8, 0x2e, 0xbe, 0x7b, 0x2d, 0x4e, 0xbe,
  0xf0, 0xc6, 0x88, 0x3e, 0x8a, 0x38, 0x18, 0xbd, 0x23, 0x61, 0xfe, 0xbd,
  0x42, 0x9f, 0x85, 0x3e, 0xc0, 0x47, 0x0f, 0x3e, 0x4c, 0x8c, 0x49, 0xbe,
  0x4c, 0x73, 0x86, 0x3d, 0xdd, 0x43, 0x95, 0x3d, 0xfa, 0x15, 0xc9, 0x3d,
  0x22, 0x45, 0xab, 0xbc, 0xb5, 0x02, 0x30, 0x3e, 0x4f, 0x6b, 0x8a, 0xbe,
  0x6d, 0x34, 0x2b, 0x3d, 0x89, 0xea, 0x56, 0x3e, 0x14, 0xaf, 0xfa, 0x3d,
  0x61, 0xf6, 0x9d, 0x3e, 0x66, 0x9e, 0x8b, 0xbe, 0x5f, 0x80, 0x38, 0xbc,
  0xcd, 0x0f, 0x24, 0x3c, 0x3e, 0xd6, 0x4a, 0xbe, 0x14, 0x0e, 0x8e, 0x3d,
  0xad, 0x71, 0x73, 0x3e, 0xb1, 0xb9, 0x2f, 0xbe, 0x07, 0xdd, 0xd7, 0xbd,
  0xab, 0xd6, 0x1f, 0x3d, 0x3f, 0x47, 0x3e, 0x3b, 0x45, 0x45, 0x6f, 0xbe,
  0x00, 0xd7, 0x87, 0xbd, 0xea, 0x86, 0x85, 0xbd, 0x35, 0xce, 0x63, 0x3d,
  0x28, 0x37, 0x3c, 0xbe, 0xe2, 0xf3, 0xe6, 0xbd, 0x38, 0x2c, 0x6e, 0xbe,
  0xae, 0x06, 0xbd, 0x3e, 0x81, 0x4a, 0xfa, 0x3b, 0x1b, 0xee, 0xab, 0xbd,
  0x44, 0xcf, 0x38, 0x3e, 0xc4, 0x0b, 0x57, 0x3e, 0x49, 0x6c, 0x87, 0x3e,
  0xf7, 0xd1, 0xba, 0xba, 0x5d, 0x5f, 0x1a, 0x3e, 0x66, 0x90, 0x3d, 0xbe,
  0x5a, 0xb4, 0x55, 0x3d, 0xd9, 0x26, 0x9a, 0xbe, 0x4e, 0x35, 0x8f, 0xbe,
  0x51, 0x4a, 0x3a, 0xbd, 0xf4, 0x00, 0x92, 0xbe, 0x05, 0xbd, 0x95, 0x3e,
  0xc4, 0xa6, 0xd4, 0x3d, 0x4d, 0xf6, 0x62, 0x3d, 0x0a, 0x03, 0x2d, 0xbe,
  0x57, 0x5c, 0x5d, 0x3e, 0x2c, 0x15, 0xe3, 0x3d, 0xe6, 0x62, 0x80, 0x3c,
  0x7a, 0x8f, 0x2a, 0xbe, 0x23, 0x9e, 0xaf, 0xbe, 0x2a, 0x83, 0xaa, 0xbd,
  0xe6, 0x53, 0x4c, 0x3d, 0x41, 0x43, 0xde, 0xbd, 0xef, 0xd3, 0x8d, 0x3e,
  0x1f, 0x75, 0x16, 0xbe, 0xfd, 0xd4, 0x1b, 0x3e, 0xc4, 0x3c, 0x34, 0xbe,
  0xe3, 0xa1, 0x89, 0x3e, 0x79, 0x98, 0x05, 0xbd, 0x3b, 0x6d, 0x8c, 0x3e,
  0x11, 0x48, 0xf8, 0x3d, 0x1a, 0x73, 0x50, 0xbe, 0x46, 0xa7, 0x69, 0x3e,
  0x91, 0x61, 0x0c, 0xbe, 0x54, 0x83, 0x1a, 0xbd, 0x4a, 0x2d, 0x6b, 0xbd,
  0x42, 0x30, 0xe6, 0xbc, 0xc1, 0xe3, 0xd8, 0x3d, 0x2e, 0x8e, 0x06, 0xbe,
  0xb5, 0xb7, 0x6f, 0x3e, 0xb3, 0xf5, 0x86, 0xbe, 0x19, 0x08, 0x4d, 0x3c,
  0xb9, 0x04, 0x65, 0x3d, 0x45, 0x0d, 0x59, 0x3e, 0xfc, 0x1b, 0x6f, 0x3e,
  0xe3, 0x7b, 0x61, 0x3d, 0x02, 0x8f, 0x47, 0x3d, 0x63, 0x0c, 0x94, 0xbe,
  0xa8, 0x17, 0xb5, 0x3d, 0xca, 0xc0, 0x47, 0x3d, 0x5b, 0x9b, 0x8f, 0xbd,
  0xa3, 0xb9, 0x82, 0xbe, 0xa7, 0xe9, 0x7d, 0xbd, 0x3d, 0x4c, 0x90, 0x3e,
  0x4c, 0x93, 0x55, 0x3e, 0xd2, 0x3f, 0x87, 0x3e, 0x7a, 0x09, 0x13, 0x3d,
  0x82, 0x83, 0x62, 0x3e, 0xfd, 0x72, 0x98, 0x3e, 0xcd, 0x22, 0x98, 0x3d,
  0x93, 0x6a, 0xcc, 0x3d, 0xb5, 0x89, 0x8b, 0xbe, 0x81, 0x81, 0x0b, 0x3e,
  0xde, 0xeb, 0x2d, 0xbd, 0xcf, 0x0d, 0x60, 0xbe, 0x7f, 0x96, 0x20, 0xbd,
  0x55, 0x11, 0xe0, 0x3c, 0xe9, 0x68, 0x89, 0xbb, 0xc6, 0x36, 0x05, 0xbe,
  0xd2, 0x1f, 0x3c, 0xbd, 0x1b, 0xd1, 0x6e, 0xbe, 0x4e, 0xd2, 0xbe, 0x3d,
  0xef, 0x16, 0x8c, 0x3d, 0xc5, 0x3c, 0x7a, 0x3e, 0xb2, 0x25, 0x28, 0x3e,
  0x7b, 0x11, 0x9e, 0xbe, 0x32, 0x38, 0x67, 0xbe, 0x21, 0x1f, 0x3b, 0xbe,
  0x48, 0xaa, 0x59, 0x3e, 0xd0, 0x5a, 0x47, 0x3e, 0xe8, 0x2a, 0x23, 0xbd,
  0x12, 0x6f, 0xb5, 0x3e, 0x32, 0x8f, 0x61, 0x3d, 0xe6, 0x2e, 0xd0, 0x3d,
  0xab, 0xbd, 0x87, 0xbd, 0xeb, 0x42, 0x8f, 0xbe, 0x0a, 0xca, 0x77, 0x3e,
  0x87, 0xfe, 0x85, 0xbe, 0xd8, 0xc7, 0xea, 0x3e, 0x9d, 0xe3, 0x2c, 0xbe,
  0x05, 0xe9, 0x5a, 0xbe, 0x3a, 0x6f, 0x15, 0xbe, 0xa1, 0x6c, 0xa2, 0x3e,
  0xe3, 0x36, 0x17, 0xbd, 0x70, 0xb6, 0x6a, 0x3d, 0xc7, 0x7d, 0xeb, 0x3d,
  0xb6, 0x10, 0x47, 0x3e, 0xf8, 0x5d, 0xff, 0xbd, 0xaf, 0xcb, 0x36, 0x3e,
  0xde, 0xef, 0x80, 0x3e, 0x3e, 0x81, 0x3c, 0x3e, 0x45, 0xf0, 0x1c, 0x3e,
  0x36, 0x9e, 0x2d, 0xbe, 0x2f, 0x29, 0x43, 0x3e, 0xd1, 0xc0, 0x1a, 0x3c,
  0xc7, 0xf5, 0x39, 0xbe, 0x9d, 0xa9, 0x74, 0xbe, 0xa7, 0xeb, 0x28, 0x3e,
  0xc3, 0x54, 0xb7, 0xbd, 0xee, 0x74, 0x09, 0xbe, 0xb1, 0x3a, 0xa7, 0xbe,
  0xf9, 0x83, 0x81, 0xbe, 0x20, 0x78, 0x94, 0x3d, 0x3f, 0x2f, 0x94, 0x3e,
  0x89, 0xba, 0x01, 0x3d, 0xb2, 0xc3, 0xfe, 0x3d, 0xa8, 0x9e, 0x65, 0x3d,
  0x6d, 0x10, 0xc6, 0x3d, 0x44, 0x4a, 0x9d, 0x3e, 0x4e, 0x6e, 0x04, 0x3c,
  0xa1, 0x87, 0xb5, 0x3e, 0x7f, 0x44, 0x26, 0xbe, 0xb9, 0xa1, 0x86, 0xbe,
  0x16, 0x8e, 0xad, 0x3e, 0x03, 0x3b, 0x04, 0xbe, 0xc6, 0xeb, 0xc3, 0xbd,
  0x5d, 0xad, 0xc1, 0xbd, 0x8d, 0xb2, 0x37, 0x3d, 0x12, 0x34, 0x12, 0xbe,
  0x14, 0x43, 0x49, 0x3e, 0x27, 0x1d, 0xb8, 0x3e, 0xfe, 0x8d, 0x54, 0x3e,
  0x18, 0x65, 0xd4, 0x3d, 0x57, 0xea, 0x2b, 0xbd, 0x03, 0xb1, 0x63, 0x3e,
  0x92, 0x4d, 0xd8, 0x3d, 0x17, 0xa4, 0x2d, 0xbe, 0x13, 0xc8, 0x6a, 0x3e,
  0x71, 0xae, 0x8f, 0xbe, 0xa5, 0xa1, 0x0f, 0xbd, 0x25, 0x6c, 0x56, 0xbe,
  0x13, 0xe6, 0xb1, 0xbe, 0x70, 0xc4, 0x21, 0xbe, 0xfe, 0xbd, 0xdb, 0xbd,
  0x92, 0xf7, 0x8d, 0xbe, 0x0e, 0x5f, 0x29, 0x3d, 0x14, 0xc8, 0xc8, 0xbd,
  0x44, 0x34, 0x77, 0xbe, 0x1c, 0xda, 0xef, 0x3c, 0x41, 0x74, 0x0c, 0xbe,
  0x7a, 0xe5, 0xc5, 0x3d, 0xc1, 0xc0, 0x95, 0x3e, 0x51, 0x9f, 0x98, 0x3c,
  0x69, 0x9c, 0x2d, 0x3e, 0x30, 0x9b, 0x92, 0xbe, 0x6b, 0x89, 0x9b, 0x3e,
  0x85, 0xdf, 0x61, 0x3e, 0xad, 0xec, 0x02, 0x3b, 0x5c, 0x79, 0x56, 0x3e,
  0x4b, 0xaf, 0x1b, 0x3e, 0x8c, 0x0d, 0x7e, 0xbd, 0x79, 0x48, 0xdd, 0xbd,
  0x4d, 0x95, 0xea, 0xbd, 0x0e, 0x71, 0x4e, 0x3d, 0x77, 0x39, 0xa3, 0x3d,
  0xb6, 0x42, 0x8d, 0x3e, 0xbb, 0x14, 0x40, 0xbd, 0xcc, 0x14, 0x5e, 0xbe,
  0x98, 0xb2, 0x2d, 0xbd, 0xa5, 0xa4, 0xea, 0x3d, 0x06, 0xac, 0x78, 0xbd,
  0x32, 0x43, 0xd5, 0x3d, 0x03, 0xff, 0xfd, 0xbd, 0x4f, 0x79, 0x54, 0xbc,
  0x56, 0x01, 0x40, 0x3e, 0x09, 0x8d, 0x27, 0x3c, 0x38, 0xa1, 0x17, 0x3e,
  0x18, 0x48, 0xe4, 0xbd, 0xbc, 0xbf, 0x2f, 0x3d, 0x74, 0x06, 0x59, 0xbe,
  0xa3, 0x04, 0x33, 0xbe, 0xda, 0x5e, 0xd4, 0xbc, 0x5a, 0x00, 0x19, 0x3c,
  0xfc, 0x41, 0x81, 0xbe, 0x1b, 0xfd, 0x35, 0xbd, 0x6e, 0x10, 0x9d, 0x3d,
  0x18, 0x49, 0x7f, 0xbe, 0xec, 0x40, 0xea, 0x3d, 0xa3, 0x14, 0x21, 0xbd,
  0xab, 0xf4, 0xa4, 0x3c, 0x90, 0x94, 0x9b, 0x3d, 0xd8, 0xab, 0x4a, 0x3e,
  0xf0, 0x77, 0x9d, 0x3d, 0x4d, 0x37, 0xb3, 0xbd, 0xcc, 0x85, 0x94, 0xbc,
  0x1d, 0xb6, 0x57, 0x3e, 0xb3, 0xd1, 0x70, 0xbd, 0x9f, 0x8b, 0x8a, 0xbe,
  0xe0, 0x1d, 0x98, 0x3e, 0xa8, 0x06, 0xe9, 0xbd, 0x57, 0xf1, 0x17, 0x3d,
  0x23, 0x80, 0x19, 0xbe, 0xc6, 0xe4, 0x47, 0x3e, 0xa3, 0x38, 0x83, 0x3e,
  0x24, 0xaa, 0x6c, 0x3d, 0xfc, 0x5a, 0x3e, 0x3d, 0x9e, 0xf7, 0xb1, 0xbd,
  0x71, 0x09, 0x54, 0xbe, 0xd4, 0x44, 0xc9, 0x3d, 0xcf, 0x7c, 0x8e, 0xbe,
  0x11, 0xcd, 0x76, 0x3e, 0xb1, 0x9c, 0x9c, 0xbe, 0xae, 0x1d, 0x35, 0x3e,
  0x2c, 0x52, 0x84, 0x3e, 0xb7, 0x9f, 0x42, 0xbe, 0x36, 0x58, 0x41, 0xbe,
  0xf7, 0x07, 0x11, 0xbd, 0x99, 0x2e, 0x76, 0xbe, 0xa6, 0x7a, 0xfb, 0xbd,
  0x0b, 0x86, 0x16, 0x3d, 0xb9, 0x57, 0x5a, 0x3d, 0xc4, 0x51, 0x29, 0xbe,
  0x1a, 0x4c, 0xa9, 0xbd, 0xf6, 0x39, 0x1a, 0xbe, 0x26, 0xd5, 0x69, 0xbe,
  0xa8, 0xa3, 0xa5, 0x3d, 0x4a, 0xbe, 0x8c, 0xbe, 0xb9, 0xb2, 0x44, 0x3e,
  0x03, 0x4c, 0xb7, 0xbd, 0x5f, 0x47, 0xb2, 0x3d, 0xd6, 0xd6, 0xc7, 0x3e,
  0xfe, 0xe5, 0x1a, 0x3e, 0x91, 0x33, 0xbd, 0x3d, 0x22, 0x3a, 0x8b, 0x3d,
  0xad, 0x1b, 0xf5, 0xbd, 0x8e, 0x07, 0xfc, 0x3d, 0x8b, 0xa7, 0x0a, 0x3e,
  0xd1, 0x4f, 0x51, 0x3e, 0xcd, 0x5c, 0x4d, 0xbc, 0xa1, 0x76, 0x79, 0xbe,
  0x56, 0x55, 0x83, 0xbe, 0xff, 0x78, 0xef, 0x3d, 0x35, 0x4b, 0xc9, 0x3e,
  0xb3, 0x6a, 0xcc, 0xbd, 0xb8, 0xcc, 0xb6, 0x3e, 0xb9, 0xfc, 0x2d, 0x3d,
  0x63, 0xb9, 0x80, 0xbd, 0x49, 0x85, 0x56, 0x3e, 0xd0, 0x76, 0x7f, 0x3d,
  0xae, 0x8c, 0xdb, 0x3e, 0x6a, 0xe6, 0x2f, 0x3c, 0xe9, 0x61, 0xad, 0x3d,
  0x48, 0x47, 0x82, 0xbe, 0xaf, 0x0c, 0x4b, 0x3e, 0x8d, 0xbd, 0x9d, 0x3d,
  0xb8, 0xea, 0x28, 0x3e, 0x3c, 0x2b, 0x39, 0x3e, 0x0d, 0xcd, 0x41, 0x3e,
  0xf9, 0x43, 0x2a, 0xbe, 0x72, 0xa6, 0x47, 0xbd, 0x5d, 0x05, 0x8b, 0x3e,
  0x7d, 0x96, 0x86, 0xbe, 0xb1, 0x15, 0x95, 0xbc, 0x5a, 0xdd, 0xdd, 0x3d,
  0x53, 0xb1, 0x99, 0xbe, 0xd2, 0xb2, 0x96, 0x3e, 0x2a, 0xca, 0xa7, 0x3c,
  0xd4, 0xcc, 0xe2, 0x3d, 0x0c, 0x05, 0xa7, 0xbd, 0xa2, 0x0a, 0xa9, 0x3e,
  0x1e, 0x59, 0x1e, 0xbe, 0x12, 0x3d, 0x6e, 0x3e, 0xd0, 0x23, 0x8e, 0x3c,
  0xee, 0xa7, 0xab, 0xbe, 0xf2, 0x2f, 0x89, 0x3d, 0x74, 0xff, 0x31, 0xbe,
  0x28, 0x9e, 0x9c, 0x3b, 0x51, 0xde, 0x8e, 0x3e, 0x25, 0xcd, 0xb8, 0xbd,
  0x66, 0x40, 0xb8, 0xbd, 0x6c, 0x95, 0xa4, 0x3d, 0xf4, 0x4e, 0x1a, 0xbe,
  0x92, 0x7a, 0xf3, 0xbc, 0x36, 0x42, 0xbd, 0x3e, 0xb6, 0x6e, 0x65, 0x3e,
  0x28, 0x9c, 0x23, 0xbe, 0x76, 0x5e, 0x23, 0xbe, 0x46, 0x3f, 0x42, 0x3e,
  0xbe, 0x77, 0x78, 0xbe, 0xd3, 0x31, 0xa2, 0xbe, 0x81, 0x1e, 0x9e, 0xbe,
  0x32, 0x83, 0xc2, 0xbd, 0x8e, 0xa2, 0x4f, 0x3e, 0xe8, 0xa0, 0x3e, 0xbe,
  0xa3, 0xbb, 0x7d, 0xbe, 0x4d, 0x8e, 0x18, 0xbe, 0x44, 0x29, 0xdd, 0xbd,
  0x61, 0x0b, 0x0b, 0x3e, 0x4d, 0x69, 0xed, 0x3b, 0xc0, 0xd1, 0x5d, 0x3d,
  0x58, 0x04, 0xac, 0xbc, 0xf4, 0xb8, 0x91, 0x3e, 0x7f, 0xf5, 0x3f, 0x3e,
  0xb7, 0x5c, 0xc8, 0xbc, 0x44, 0x28, 0xc0, 0xbd, 0x50, 0x49, 0x5c, 0xbd,
  0x2e, 0xc6, 0x5d, 0xbd, 0x5d, 0xbe, 0x36, 0x3e, 0x9f, 0x59, 0x3b, 0x3e,
  0xc8, 0xff, 0x1a, 0x3e, 0xda, 0x32, 0xeb, 0xbc, 0xa0, 0xf5, 0x2f, 0x3e,
  0xc5, 0xec, 0xca, 0x3d, 0x7d, 0x53, 0x0d, 0x3e, 0x74, 0xec, 0xe7, 0xbd,
  0x76, 0xb2, 0x06, 0xbe, 0x02, 0x40, 0x59, 0x3e, 0x57, 0x9d, 0x81, 0xbe,
  0xf5, 0xf8, 0x9c, 0xbe, 0x88, 0x29, 0x2a, 0xbe, 0xca, 0x99, 0x48, 0x3e,
  0x7b, 0x38, 0x4f, 0x3e, 0x02, 0x41, 0x19, 0xbe, 0x81, 0x8a, 0xe1, 0x3d,
  0x37, 0xe2, 0x6e, 0x3e, 0x37, 0x20, 0x8b, 0xbe, 0x31, 0xcc, 0x5e, 0xbd,
  0x14, 0xec, 0xe5, 0xbd, 0xa9, 0x9d, 0x92, 0xbe, 0xc1, 0xef, 0x03, 0x3e,
  0x05, 0x87, 0xeb, 0x3d, 0x4f, 0x52, 0xa0, 0x3e, 0xc3, 0xd5, 0xac, 0xbe,
  0x75, 0x9e, 0x37, 0x3e, 0xe8, 0x06, 0x84, 0x3d, 0x30, 0x57, 0x94, 0xbe,
  0xe0, 0x32, 0x96, 0x3c, 0x12, 0x53, 0x86, 0xbd, 0xeb, 0x31, 0x4e, 0x3e,
  0x03, 0x7c, 0x5d, 0x3e, 0xf5, 0x9d, 0xcd, 0xbd, 0x7c, 0x64, 0x7e, 0x3e,
  0xe7, 0xce, 0x54, 0x3d, 0x04, 0xe6, 0x16, 0x3e, 0x08, 0x6a, 0x29, 0xbe,
  0x57, 0x02, 0x5f, 0x3e, 0x90, 0x71, 0xbd, 0xbc, 0x2c, 0x6b, 0xda, 0xbd,
  0x75, 0x5a, 0x20, 0x3e, 0x12, 0x3e, 0xab, 0xbe, 0x0b, 0x79, 0x0f, 0xbe,
  0xad, 0xfe, 0x23, 0x3e, 0x13, 0x4b, 0x93, 0x3e, 0x42, 0xd4, 0x61, 0x3e,
  0x7f, 0xbd, 0x38, 0x3e, 0x06, 0x1d, 0xa6, 0x3c, 0xf5, 0x30, 0xbc, 0x3e,
  0x7e, 0xa4, 0xe3, 0xbd, 0x53, 0x0f, 0xa0, 0xbd, 0xe1, 0xbe, 0x71, 0xbd,
  0x0f, 0x42, 0xdb, 0x3e, 0x7c, 0x5a, 0x87, 0xbe, 0x2d, 0x06, 0x4b, 0x3d,
  0x38, 0x73, 0x19, 0xbd, 0x9e, 0xd9, 0x3d, 0x3e, 0xf7, 0x7c, 0x88, 0x3d,
  0x70, 0xfd, 0x3b, 0xbe, 0x87, 0x03, 0x1a, 0x3e, 0x30, 0xad, 0xc8, 0xbd,
  0xf3, 0x90, 0xd4, 0xbc, 0x57, 0x31, 0xda, 0x3d, 0x95, 0x9c, 0x6c, 0x3e,
  0xae, 0xd0, 0x79, 0x3e, 0xe3, 0x9d, 0x07, 0xbe, 0xa8, 0xf8, 0xe1, 0xbe,
  0x72, 0xbd, 0xb2, 0xbd, 0xc8, 0xad, 0x25, 0xbe, 0xe0, 0xca, 0x8e, 0xbd,
  0x0d, 0xb2, 0x1d, 0xbe, 0x1b, 0x4d, 0x55, 0xbd, 0xcd, 0xb5, 0x0c, 0xbe,
  0x2b, 0x53, 0x9e, 0xbe, 0x2a, 0xf1, 0xb5, 0x3c, 0x27, 0xe4, 0xc7, 0xbd,
  0x01, 0xc3, 0x2f, 0xbe, 0x62, 0x29, 0xda, 0x3d, 0x69, 0x55, 0xf0, 0xbd,
  0xea, 0xbc, 0x3f, 0xbe, 0x7c, 0xe3, 0x90, 0xbc, 0xc3, 0x37, 0x10, 0x3e,
  0x73, 0x19, 0x12, 0xbe, 0x89, 0x06, 0x80, 0xbe, 0x92, 0x65, 0xdb, 0x3e,
  0x97, 0x3b, 0x86, 0x3e, 0xee, 0xa0, 0x27, 0xbd, 0xaf, 0xcb, 0x01, 0x3e,
  0xaa, 0xf9, 0x50, 0xbe, 0x8e, 0xc0, 0xad, 0xbe, 0x45, 0x82, 0x90, 0xbe,
  0xd8, 0x4b, 0x7c, 0x3e, 0x36, 0x2e, 0x57, 0x3e, 0x3b, 0xeb, 0x59, 0xbe,
  0xf4, 0xdc, 0x7e, 0x3e, 0xc8, 0x2a, 0x4c, 0x3e, 0x67, 0x8e, 0x90, 0x3e,
  0x97, 0x3f, 0x8c, 0xbe, 0x75, 0x7d, 0xf2, 0x3d, 0x87, 0x7b, 0x7a, 0xbe,
  0xe5, 0x54, 0x8e, 0x3e, 0xad, 0xca, 0xc0, 0x3d, 0x84, 0xac, 0x02, 0x3d,
  0x4b, 0x27, 0x04, 0xbe, 0xa6, 0x94, 0x98, 0x3e, 0x9c, 0x73, 0xc3, 0x3c,
  0x05, 0x2c, 0x40, 0x3e, 0x72, 0x5a, 0x74, 0x3e, 0xd2, 0xc0, 0x6c, 0xbe,
  0xdd, 0xcf, 0x36, 0xbe, 0xa2, 0x4f, 0x47, 0x3d, 0x8a, 0xb6, 0xfd, 0xbd,
  0x03, 0xd2, 0xba, 0xbd, 0x53, 0xc1, 0xb0, 0x3e, 0xea, 0x0d, 0x29, 0x3e,
  0x20, 0x4e, 0x8c, 0xbe, 0x75, 0xee, 0x1f, 0x3d, 0x23, 0x0e, 0x6e, 0xbe,
  0x84, 0xa5, 0x45, 0xbe, 0xdf, 0xec, 0xda, 0x3d, 0xd1, 0x4c, 0xa4, 0x3e,
  0xb2, 0x36, 0x2b, 0x3e, 0x5e, 0xd3, 0x67, 0x3e, 0xc1, 0x6a, 0x1a, 0x3d,
  0xe2, 0x32, 0x0a, 0xbe, 0xe5, 0xd6, 0x38, 0x3e, 0xbe, 0xf1, 0x1a, 0xbe,
  0xf7, 0x44, 0xfd, 0xbd, 0xaa, 0xe3, 0x8c, 0x3e, 0x5f, 0x81, 0x1b, 0xbe,
  0xca, 0x6c, 0x84, 0xbe, 0x01, 0x6d, 0xec, 0xbd, 0xbe, 0x7a, 0x55, 0xbe,
  0xd9, 0x21, 0x19, 0x3e, 0xb5, 0x36, 0xeb, 0xbd, 0xae, 0x14, 0xff, 0xbd,
  0xf9, 0x57, 0x9a, 0xbb, 0x71, 0x0d, 0x96, 0x3e, 0x56, 0xe9, 0xff, 0xff,
  0x10, 0x00, 0x00, 0x00, 0x09, 0x00, 0x00, 0x00, 0x14, 0x00, 0x00, 0x00,
  0x2c, 0x00, 0x00, 0x00, 0x02, 0x00, 0x00, 0x00, 0x10, 0x00, 0x00, 0x00,
  0x40, 0x00, 0x00, 0x00, 0x17, 0x00, 0x00, 0x00, 0x73, 0x65, 0x71, 0x75,
  0x65, 0x6e, 0x74, 0x69, 0x61, 0x6c, 0x2f, 0x64, 0x65, 0x6e, 0x73, 0x65,
  0x2f, 0x4d, 0x61, 0x74, 0x4d, 0x75, 0x6c, 0x00, 0x90, 0xe8, 0xff, 0xff,
  0xea, 0xe9, 0xff, 0xff, 0x04, 0x00, 0x00, 0x00, 0x08, 0x00, 0x00, 0x00,
  0xff, 0xff, 0xff, 0xff, 0x40, 0x00, 0x00, 0x00, 0x00, 0x00, 0x0e, 0x00,
  0x18, 0x00, 0x08, 0x00, 0x07, 0x00, 0x0c, 0x00, 0x10, 0x00, 0x14, 0x00,
  0x0e, 0x00, 0x00, 0x00, 0x00, 0x00, 0x00, 0x02, 0x10, 0x00, 0x00, 0x00,
  0x08, 0x00, 0x00, 0x00, 0x10, 0x00, 0x00, 0x00, 0x2c, 0x00, 0x00, 0x00,
  0x01, 0x00, 0x00, 0x00, 0x02, 0x00, 0x00, 0x00, 0x18, 0x00, 0x00, 0x00,
  0x73, 0x65, 0x71, 0x75, 0x65, 0x6e, 0x74, 0x69, 0x61, 0x6c, 0x2f, 0x66,
  0x6c, 0x61, 0x74, 0x74, 0x65, 0x6e, 0x2f, 0x43, 0x6f, 0x6e, 0x73, 0x74,
  0x00, 0x00, 0x00, 0x00, 0xf8, 0xe8, 0xff, 0xff, 0x52, 0xea, 0xff, 0xff,
  0x04, 0x00, 0x00, 0x00, 0x18, 0x00, 0x00, 0x00, 0x62, 0x3c, 0x46, 0x3e,
  0x82, 0x8c, 0xfe, 0xbd, 0xfd, 0xc6, 0xc5, 0xbc, 0xec, 0x81, 0xca, 0xbd,
  0xb1, 0x8b, 0x61, 0x3d, 0xe0, 0x8a, 0xaf, 0xba, 0x22, 0xea, 0xff, 0xff,
  0x10, 0x00, 0x00, 0x00, 0x07, 0x00, 0x00, 0x00, 0x10, 0x00, 0x00, 0x00,
  0x44, 0x00, 0x00, 0x00, 0x01, 0x00, 0x00, 0x00, 0x06, 0x00, 0x00, 0x00,
  0x32, 0x00, 0x00, 0x00, 0x73, 0x65, 0x71, 0x75, 0x65, 0x6e, 0x74, 0x69,
  0x61, 0x6c, 0x2f, 0x64, 0x65, 0x6e, 0x73, 0x65, 0x5f, 0x31, 0x2f, 0x42,
  0x69, 0x61, 0x73, 0x41, 0x64, 0x64, 0x2f, 0x52, 0x65, 0x61, 0x64, 0x56,
  0x61, 0x72, 0x69, 0x61, 0x62, 0x6c, 0x65, 0x4f, 0x70, 0x2f, 0x72, 0x65,
  0x73, 0x6f, 0x75, 0x72, 0x63, 0x65, 0x00, 0x00, 0x74, 0xe9, 0xff, 0xff,
  0xce, 0xea, 0xff, 0xff, 0x04, 0x00, 0x00, 0x00, 0x40, 0x00, 0x00, 0x00,
  0xa6, 0xac, 0xee, 0x3c, 0x61, 0xde, 0xb7, 0x3c, 0x60, 0x88, 0x01, 0x3d,
  0x53, 0x54, 0x9e, 0xb8, 0xd2, 0x26, 0x06, 0x3d, 0x82, 0xd0, 0x1a, 0x3c,
  0x12, 0xb3, 0x80, 0x3d, 0x5f, 0x1d, 0xd1, 0xbb, 0x5e, 0xbb, 0x1a, 0xbd,
  0xb0, 0x15, 0xc6, 0x3d, 0x34, 0x8c, 0xd4, 0xbc, 0x9d, 0x69, 0xa9, 0x3c,
  0x1e, 0x8f, 0x91, 0x3d, 0xcc, 0x7f, 0xc9, 0x3d, 0x31, 0xbc, 0x9c, 0xbd,
  0xd9, 0x23, 0xbc, 0xbd, 0xc6, 0xea, 0xff, 0xff, 0x10, 0x00, 0x00, 0x00,
  0x06, 0x00, 0x00, 0x00, 0x10, 0x00, 0x00, 0x00, 0x44, 0x00, 0x00, 0x00,
  0x01, 0x00, 0x00, 0x00, 0x10, 0x00, 0x00, 0x00, 0x30, 0x00, 0x00, 0x00,
  0x73, 0x65, 0x71, 0x75, 0x65, 0x6e, 0x74, 0x69, 0x61, 0x6c, 0x2f, 0x64,
  0x65, 0x6e, 0x73, 0x65, 0x2f, 0x42, 0x69, 0x61, 0x73, 0x41, 0x64, 0x64,
  0x2f, 0x52, 0x65, 0x61, 0x64, 0x56, 0x61, 0x72, 0x69, 0x61, 0x62, 0x6c,
  0x65, 0x4f, 0x70, 0x2f, 0x72, 0x65, 0x73, 0x6f, 0x75, 0x72, 0x63, 0x65,
  0x00, 0x00, 0x00, 0x00, 0x18, 0xea, 0xff, 0xff, 0x72, 0xeb, 0xff, 0xff,
  0x04, 0x00, 0x00, 0x00, 0x20, 0x01, 0x00, 0x00, 0x85, 0x36, 0x26, 0x3f,
  0xb0, 0x44, 0x10, 0x3f, 0x39, 0x9a, 0xf9, 0x3e, 0x95, 0x3d, 0x8a, 0x3f,
  0x1d, 0xa9, 0x59, 0x3f, 0x92, 0x21, 0x3f, 0x3f, 0xa2, 0xb0, 0xf9, 0x3e,
  0x9c, 0x66, 0x49, 0x3d, 0xd0, 0x9f, 0xf9, 0x3e, 0x7d, 0xc7, 0x2c, 0x3f,
  0xca, 0xc7, 0xf7, 0xbe, 0x4a, 0xe8, 0xd9, 0x3e, 0x94, 0xfc, 0x7d, 0xbe,
  0x97, 0xc7, 0xc1, 0x3e, 0x75, 0xef, 0x18, 0x3f, 0xd9, 0xcd, 0x49, 0x3f,
  0x3e, 0x40, 0x3f, 0x3f, 0xc8, 0x15, 0x21, 0x3f, 0xbe, 0x01, 0xd7, 0x3e,
  0x7c, 0xd9, 0x32, 0xbf, 0x56, 0xe9, 0xd9, 0xbe, 0xb0, 0x42, 0x96, 0x3d,
  0xb4, 0x36, 0x30, 0x3f, 0x04, 0xe0, 0x4e, 0x3f, 0x60, 0x1e, 0x96, 0x3e,
  0x70, 0xe8, 0x02, 0x3f, 0x3c, 0xe4, 0x74, 0x3f, 0x33, 0xa7, 0xfc, 0xbe,
  0x3a, 0x9e, 0x37, 0x3f, 0xe0, 0x5e, 0x2c, 0xbd, 0x35, 0x44, 0xf8, 0xbe,
  0xff, 0x59, 0x20, 0x3f, 0x9e, 0x58, 0xb7, 0xbe, 0x04, 0xef, 0x2e, 0x3d,
  0xc1, 0x80, 0x18, 0xbf, 0x9b, 0x34, 0x0a, 0x3f, 0xa3, 0x1b, 0x36, 0x3f,
  0x30, 0xc1, 0x27, 0xbf, 0x47, 0xe7, 0x21, 0x3f, 0x10, 0x6c, 0xf5, 0xbe,
  0x64, 0x43, 0xee, 0xbe, 0x49, 0xf5, 0x55, 0x3e, 0xac, 0x04, 0x9d, 0xbe,
  0xf8, 0x01, 0x2a, 0xbe, 0x57, 0x82, 0x5f, 0x3f, 0x3e, 0xf0, 0xa7, 0xbe,
  0x48, 0x25, 0x15, 0xbf, 0xe7, 0x4e, 0x4b, 0xbf, 0x19, 0x22, 0x0f, 0xbf,
  0x28, 0x46, 0x67, 0xbe, 0xa8, 0x93, 0xe5, 0xbd, 0xca, 0x4b, 0x8a, 0xbe,
  0x16, 0x36, 0x41, 0x3f, 0xba, 0x93, 0x02, 0x3f, 0x57, 0x9c, 0x26, 0x3f,
  0x3b, 0x2b, 0x1c, 0x3f, 0xa8, 0xfc, 0x5e, 0xbd, 0x8c, 0x17, 0x7f, 0xbe,
  0x30, 0xe1, 0x38, 0x3e, 0x2b, 0x2d, 0xfc, 0x3d, 0xa0, 0xc7, 0x2e, 0xbe,
  0x89, 0x20, 0x26, 0x3e, 0x2d, 0x2a, 0x9f, 0xbe, 0xed, 0x8c, 0x65, 0xbe,
  0xd6, 0x91, 0x3a, 0xbf, 0x28, 0x0b, 0x00, 0x3f, 0x05, 0x6f, 0x5a, 0x3f,
  0x87, 0xb4, 0x29, 0x3e, 0x3b, 0x07, 0x10, 0x3f, 0x40, 0xb3, 0x29, 0x3e,
  0xb5, 0xbc, 0x00, 0x3f, 0xdc, 0xf6, 0x35, 0x3f, 0x4a, 0xec, 0xff, 0xff,
  0x10, 0x00, 0x00, 0x00, 0x05, 0x00, 0x00, 0x00, 0x1c, 0x00, 0x00, 0x00,
  0x38, 0x00, 0x00, 0x00, 0x04, 0x00, 0x00, 0x00, 0x08, 0x00, 0x00, 0x00,
  0x03, 0x00, 0x00, 0x00, 0x03, 0x00, 0x00, 0x00, 0x01, 0x00, 0x00, 0x00,
  0x18, 0x00, 0x00, 0x00, 0x73, 0x65, 0x71, 0x75, 0x65, 0x6e, 0x74, 0x69,
  0x61, 0x6c, 0x2f, 0x63, 0x6f, 0x6e, 0x76, 0x32, 0x64, 0x2f, 0x43, 0x6f,
  0x6e, 0x76, 0x32, 0x44, 0x00, 0x00, 0x00, 0x00, 0x90, 0xeb, 0xff, 0xff,
  0xea, 0xec, 0xff, 0xff, 0x04, 0x00, 0x00, 0x00, 0x00, 0x12, 0x00, 0x00,
  0x85, 0x17, 0xb3, 0x3e, 0x31, 0x1d, 0x4d, 0x3e, 0x21, 0xa4, 0x13, 0x3e,
  0x06, 0x17, 0xab, 0x3c, 0x86, 0x83, 0x34, 0x3d, 0x4f, 0xab, 0x25, 0xbe,
  0x6e, 0x63, 0xaf, 0x3b, 0x4d, 0xd3, 0x46, 0xbe, 0x95, 0x3b, 0x83, 0xbe,
  0x4e, 0xe3, 0xb8, 0x3d, 0x02, 0xcc, 0x46, 0xbe, 0xc8, 0x9b, 0x66, 0xbe,
  0x74, 0x79, 0xb3, 0xbd, 0x00, 0x16, 0x04, 0xbe, 0x0a, 0x21, 0x5d, 0xbe,
  0x63, 0xf2, 0x8f, 0x3c, 0x77, 0xa7, 0x22, 0xbe, 0x93, 0x35, 0x60, 0xbd,
  0xba, 0x1b, 0x85, 0xbe, 0xbd, 0x4a, 0x7d, 0xbe, 0xba, 0x39, 0x0c, 0xbd,
  0x94, 0x6f, 0x8c, 0x3d, 0xa9, 0x0f, 0xf9, 0xbd, 0x82, 0x2b, 0xf4, 0xbd,
  0x84, 0xad, 0x1b, 0xbe, 0x85, 0xee, 0x06, 0xbd, 0x8e, 0x4d, 0x7a, 0x3e,
  0x91, 0x8e, 0x15, 0xbe, 0xfd, 0x5d, 0x35, 0xbe, 0x1d, 0xb4, 0x8c, 0x3e,
  0x51, 0x2b, 0xf8, 0xb9, 0xed, 0xf8, 0x82, 0xbd, 0x2e, 0x6a, 0x4d, 0x3e,
  0x9f, 0x78, 0x7e, 0xbd, 0x09, 0xfa, 0x0f, 0xbe, 0xb8, 0xcd, 0xbf, 0x3d,
  0x17, 0x8e, 0xb0, 0x3d, 0xa0, 0xf5, 0x30, 0xbe, 0x98, 0x08, 0x3c, 0x3e,
  0x26, 0xba, 0x6c, 0xbe, 0x76, 0xd7, 0x39, 0xbe, 0x4e, 0x91, 0x4b, 0x3d,
  0x92, 0x5c, 0x53, 0xbc, 0x6d, 0x90, 0x5b, 0x3e, 0x07, 0x39, 0x7d, 0x3e,
  0x82, 0xc3, 0x4c, 0xbe, 0x14, 0xec, 0x0e, 0x3e, 0xe0, 0x0e, 0x40, 0x3d,
  0x70, 0x74, 0x8a, 0xbe, 0x9f, 0x70, 0x47, 0x3b, 0x86, 0x9c, 0x86, 0xbe,
  0xb7, 0x64, 0x4a, 0xbe, 0x27, 0xb4, 0x3d, 0xbe, 0x2a, 0x62, 0x46, 0x3e,
  0x09, 0x69, 0x34, 0x3e, 0x43, 0x48, 0x10, 0x3e, 0x31, 0x67, 0x65, 0xbe,
  0x89, 0x17, 0xfc, 0xbd, 0x0e, 0xe4, 0x6a, 0xbe, 0xb6, 0xfb, 0xfa, 0xbc,
  0xbb, 0x55, 0x44, 0x3e, 0xb2, 0x87, 0xce, 0x3d, 0xe3, 0xb2, 0x4d, 0x3e,
  0x43, 0x80, 0x84, 0xbe, 0xc7, 0x25, 0x10, 0x3e, 0x34, 0xdc, 0x06, 0x3c,
  0xb7, 0xc6, 0x84, 0xbd, 0xe3, 0x04, 0x53, 0x3e, 0x6c, 0x24, 0x4c, 0x3e,
  0x58, 0x0c, 0x35, 0xbe, 0x82, 0x1b, 0xb9, 0xbd, 0x68, 0x83, 0x07, 0x3e,
  0xfc, 0x48, 0x10, 0x3e, 0x50, 0xee, 0x59, 0x3d, 0x2b, 0x1b, 0x80, 0xbe,
  0x9d, 0xa1, 0x8a, 0xbe, 0x1a, 0xd2, 0x4e, 0xbe, 0x7f, 0x83, 0x90, 0xbe,
  0xdc, 0xd9, 0x51, 0x3e, 0x14, 0x93, 0xb0, 0xbd, 0x1a, 0x49, 0x08, 0x3e,
  0xe2, 0x75, 0x4b, 0xbd, 0x44, 0xce, 0x53, 0xbe, 0xd2, 0x6c, 0x4e, 0xbe,
  0xf9, 0x94, 0x10, 0x3c, 0x1d, 0xcb, 0x21, 0x3e, 0xe6, 0x94, 0x8c, 0x3e,
  0x0f, 0xc8, 0x35, 0x3e, 0x06, 0x86, 0x3f, 0x3e, 0x4d, 0xc7, 0x20, 0xbe,
  0x1a, 0xa6, 0x38, 0x3e, 0x57, 0x9f, 0xa4, 0xbd, 0xd5, 0xf7, 0x78, 0xbe,
  0x2b, 0xda, 0x50, 0x3e, 0xbc, 0x05, 0x25, 0x3c, 0x8c, 0x4a, 0x5a, 0xbe,
  0x86, 0x67, 0x2e, 0xbe, 0xf0, 0xa9, 0x04, 0xbe, 0xf5, 0x4b, 0x01, 0xbe,
  0x42, 0x41, 0x05, 0x3d, 0xd8, 0x3c, 0x27, 0xbe, 0xf6, 0xac, 0x47, 0xbe,
  0xb1, 0xcd, 0x11, 0x3e, 0x3a, 0x14, 0x5e, 0xbe, 0x97, 0xf9, 0x38, 0x3e,
  0x39, 0x04, 0x25, 0x3e, 0x4a, 0x9f, 0x3e, 0x3e, 0x6d, 0xb4, 0x83, 0x3e,
  0xfa, 0x90, 0x59, 0xbe, 0x4a, 0x27, 0x43, 0x3e, 0x33, 0x2e, 0x6b, 0xbe,
  0x49, 0x46, 0x3f, 0xbe, 0x15, 0x10, 0x8a, 0xbe, 0x3a, 0x10, 0x7b, 0x3d,
  0x93, 0xa7, 0x3c, 0xbe, 0xee, 0x56, 0x14, 0xbd, 0xbb, 0x0d, 0x23, 0xbe,
  0x53, 0x48, 0xe9, 0xbd, 0xf5, 0x34, 0x01, 0x3d, 0xf8, 0xd1, 0xf2, 0x3d,
  0x12, 0x71, 0x39, 0x3e, 0x23, 0xa0, 0x96, 0xbe, 0x9f, 0x37, 0x2f, 0x3d,
  0xf9, 0x85, 0x83, 0x3e, 0x7c, 0x30, 0xa6, 0xbd, 0xc8, 0x9e, 0xd3, 0xbd,
  0x99, 0xa1, 0xaf, 0xbc, 0x66, 0x4e, 0x8c, 0x3d, 0x8d, 0x1e, 0xa9, 0xbe,
  0x41, 0xda, 0xa3, 0x3d, 0xf2, 0x06, 0xe8, 0xbd, 0x6e, 0x92, 0xe8, 0x3d,
  0x7f, 0x28, 0x7c, 0x3e, 0x2d, 0xc2, 0x19, 0x3e, 0xc6, 0x99, 0x4c, 0xbe,
  0x8b, 0x2e, 0x16, 0x3e, 0xc9, 0x40, 0x0b, 0xbe, 0x37, 0x1a, 0x99, 0x3e,
  0x4e, 0x2c, 0xea, 0xbc, 0xf4, 0x11, 0x20, 0xbe, 0x84, 0x02, 0x1d, 0x3e,
  0x0f, 0x21, 0x3f, 0x3e, 0x7b, 0x14, 0x7d, 0xbe, 0xe1, 0x3a, 0x99, 0x3d,
  0x0e, 0xa6, 0x43, 0xbe, 0xe0, 0xb3, 0x47, 0x3d, 0xa2, 0xdd, 0x34, 0xbe,
  0xc6, 0x7f, 0x13, 0x3e, 0x00, 0xf0, 0x27, 0x3a, 0x70, 0x69, 0x66, 0x3e,
  0x6c, 0xf9, 0x87, 0xbe, 0x22, 0x7f, 0xd2, 0xbd, 0xdc, 0x05, 0xda, 0xbd,
  0x68, 0xe5, 0x80, 0xbe, 0xb2, 0xc1, 0x92, 0xbe, 0xd0, 0x1f, 0xd5, 0x3d,
  0x60, 0x7f, 0x95, 0x3c, 0xce, 0xf9, 0x8a, 0x3e, 0xdc, 0x09, 0xc1, 0xbd,
  0x2c, 0xb7, 0x87, 0x3d, 0x0c, 0xe6, 0x57, 0xbe, 0x06, 0xdb, 0x0d, 0x3e,
  0x50, 0xb9, 0x7d, 0xbe, 0x8a, 0x88, 0x45, 0xbe, 0xc0, 0x93, 0xe4, 0xbd,
  0xb0, 0x42, 0xb3, 0x3d, 0x6d, 0xd6, 0x76, 0xbe, 0xb0, 0x3a, 0xef, 0x3d,
  0x18, 0xfb, 0x64, 0x3e, 0xda, 0x2f, 0x67, 0xbe, 0x95, 0x66, 0x90, 0xbe,
  0xa0, 0xa1, 0x1b, 0xbe, 0x5e, 0xce, 0x9e, 0xbd, 0x58, 0x25, 0x62, 0x3e,
  0x92, 0x62, 0x88, 0x3e, 0x00, 0xf5, 0x28, 0x3b, 0x94, 0xe5, 0x54, 0x3e,
  0x04, 0x12, 0xa2, 0xbd, 0x20, 0xc6, 0x66, 0xbe, 0x38, 0xfb, 0x13, 0x3e,
  0xc0, 0xc3, 0xc8, 0xbb, 0xcc, 0x81, 0xa9, 0x3d, 0x24, 0x03, 0x30, 0xbe,
  0x3c, 0xe3, 0xa4, 0x3d, 0xc0, 0x7d, 0xa6, 0x3b, 0xcf, 0x30, 0x93, 0xbe,
  0xd3, 0x3d, 0x42, 0xbe, 0x4c, 0x17, 0x88, 0x3d, 0xf4, 0x35, 0xbb, 0xbd,
  0xb5, 0xde, 0x28, 0xbe, 0xef, 0x59, 0x25, 0xbe, 0xa0, 0x60, 0xdf, 0x3d,
  0xf4, 0x33, 0x3f, 0xbe, 0x04, 0xb5, 0x31, 0xbe, 0x44, 0x61, 0x01, 0xbe,
  0xb0, 0x2a, 0x1c, 0xbd, 0xe8, 0xcc, 0xb4, 0xbd, 0x50, 0x33, 0xa7, 0x3d,
  0x64, 0x4b, 0x57, 0x3e, 0x04, 0xd1, 0x15, 0x3e, 0x8a, 0xd9, 0x8a, 0xbd,
  0x90, 0xa5, 0x84, 0x3c, 0x9b, 0x9c, 0x17, 0xbe, 0x0e, 0xf6, 0x46, 0xbe,
  0x9a, 0x57, 0x50, 0xbe, 0x4e, 0xee, 0x81, 0xbe, 0xe0, 0xa3, 0x18, 0xbc,
  0xa0, 0x40, 0xca, 0x3c, 0xbd, 0x25, 0x41, 0xbe, 0xd8, 0x71, 0xa9, 0x3d,
  0x5c, 0x8c, 0xf4, 0xbd, 0x85, 0x59, 0x8e, 0xbe, 0xa6, 0xaf, 0x8b, 0xbe,
  0x3c, 0x01, 0x65, 0x3e, 0x56, 0x72, 0xfd, 0xbd, 0x38, 0xf5, 0x5d, 0x3e,
  0x2f, 0xf5, 0x21, 0x3b, 0x46, 0xff, 0x12, 0xbe, 0xfa, 0xf1, 0xfa, 0x3d,
  0x6b, 0x0e, 0x85, 0xbe, 0x13, 0xf4, 0x90, 0x3d, 0x49, 0x10, 0xf1, 0xbb,
  0x86, 0xab, 0x20, 0x3d, 0x8c, 0xc4, 0x64, 0xbd, 0xf7, 0x6f, 0x91, 0xbe,
  0xd4, 0xeb, 0x8e, 0xbe, 0xa0, 0x40, 0x12, 0x3e, 0xc7, 0x30, 0x56, 0xbe,
  0xeb, 0x33, 0x8d, 0x3d, 0xa7, 0x0f, 0xfd, 0xbd, 0x5b, 0x08, 0x3e, 0xbd,
  0xc7, 0x38, 0x06, 0x3d, 0xba, 0xc8, 0x8a, 0xbe, 0x1e, 0xe3, 0x52, 0x3e,
  0x17, 0x90, 0x36, 0x3d, 0x16, 0x35, 0x3b, 0xbe, 0x7e, 0xd4, 0x68, 0xbd,
  0x5b, 0x35, 0xc7, 0x3d, 0xa0, 0x4b, 0x80, 0xbe, 0x52, 0xed, 0x5e, 0xbe,
  0x7e, 0xf7, 0xa2, 0x3e, 0x1c, 0x18, 0x83, 0x3e, 0xaa, 0xe2, 0x74, 0xbe,
  0x7f, 0xf9, 0x5b, 0x3d, 0x7e, 0x80, 0x9d, 0xbd, 0x4a, 0xbd, 0x5f, 0xbe,
  0xed, 0x4c, 0x81, 0xbe, 0xee, 0xd5, 0xe6, 0x3d, 0x4a, 0x47, 0x54, 0x3d,
  0x5d, 0x08, 0xbb, 0x3e, 0x45, 0xd1, 0x8a, 0x3d, 0x2a, 0x06, 0xaf, 0xbd,
  0x0f, 0xe2, 0xd9, 0x3c, 0x51, 0xef, 0x3c, 0x3e, 0xfa, 0x4b, 0xd3, 0x3d,
  0x00, 0xab, 0xfb, 0x3d, 0xf8, 0xe1, 0xd3, 0x3e, 0x38, 0xb2, 0xbc, 0x3e,
  0x07, 0x48, 0xf3, 0x3e, 0x06, 0xea, 0xf9, 0xbd, 0x31, 0xd6, 0x6b, 0xbe,
  0x0a, 0x26, 0xc0, 0x3e, 0xe8, 0x4b, 0x6f, 0xbe, 0xc9, 0x1a, 0x91, 0x3d,
  0x6d, 0x5a, 0x78, 0x3e, 0x5a, 0x13, 0x62, 0xbe, 0xd8, 0x25, 0xf9, 0xbd,
  0x8b, 0x13, 0x4c, 0x3e, 0x0b, 0xa8, 0xab, 0xbd, 0xde, 0x34, 0x9c, 0x3d,
  0x36, 0x57, 0xdb, 0xbd, 0x9c, 0x10, 0x1b, 0xbd, 0x8f, 0x6d, 0xed, 0xbd,
  0xd6, 0x20, 0x94, 0x3e, 0xc4, 0x68, 0x87, 0x3e, 0x58, 0x56, 0xa4, 0xbd,
  0xa3, 0xb9, 0x77, 0x3e, 0x7b, 0x43, 0xef, 0x3d, 0x86, 0x90, 0x8f, 0xbd,
  0x28, 0x90, 0xfb, 0x3d, 0x98, 0x78, 0xf7, 0x3e, 0xdd, 0x07, 0xf3, 0x3d,
  0x38, 0x76, 0x8c, 0x3e, 0x0d, 0x09, 0x75, 0x3e, 0x22, 0x73, 0xa5, 0x3e,
  0x77, 0xe4, 0x17, 0xbe, 0x77, 0x4d, 0x72, 0x3d, 0xb6, 0x66, 0xe5, 0xbd,
  0x6c, 0x3a, 0x7a, 0xbd, 0x7c, 0x6f, 0x03, 0x3e, 0x25, 0x04, 0x45, 0x3e,
  0x76, 0x41, 0x33, 0x3e, 0xa1, 0x8f, 0x12, 0xbe, 0xbb, 0x76, 0x68, 0x3d,
  0x72, 0x82, 0x25, 0xbe, 0x04, 0xb9, 0x3f, 0xbe, 0x9b, 0x51, 0x55, 0xbc,
  0x7e, 0x78, 0x83, 0xbe, 0x4e, 0xc0, 0x09, 0xbe, 0x07, 0xfd, 0x49, 0x3e,
  0x9c, 0x09, 0xd9, 0xbd, 0xd7, 0x5b, 0xce, 0x3d, 0x6b, 0x62, 0xe1, 0xbd,
  0x83, 0x6c, 0x60, 0x3e, 0xa7, 0x9d, 0xd4, 0x3c, 0x90, 0x0d, 0x9a, 0x3c,
  0x18, 0x71, 0x7d, 0x3e, 0x50, 0xac, 0x54, 0xbe, 0x26, 0xb9, 0x23, 0xbe,
  0xbb, 0x07, 0x8f, 0xbe, 0x0a, 0x1f, 0x11, 0xbe, 0x79, 0x54, 0xd9, 0x3c,
  0xfc, 0x2f, 0xc6, 0x3e, 0xee, 0x1e, 0x81, 0x3e, 0xb3, 0xdc, 0x0f, 0xbc,
  0xb6, 0x68, 0x7e, 0xbd, 0x7d, 0x9f, 0x96, 0x3e, 0xd6, 0x83, 0x65, 0xbe,
  0xff, 0xb6, 0x13, 0x3d, 0x1e, 0x6c, 0xb9, 0xbd, 0x1f, 0xd7, 0x64, 0x3d,
  0xa9, 0x7c, 0x19, 0xbd, 0x1c, 0xc5, 0xb3, 0x3d, 0xe8, 0x48, 0x8b, 0xbd,
  0x2b, 0x96, 0x8e, 0xbc, 0xcb, 0x42, 0x75, 0xbd, 0x6b, 0x6b, 0x45, 0xbe,
  0x2f, 0xe5, 0x93, 0xbe, 0x19, 0x81, 0x18, 0x3e, 0xb7, 0xbe, 0x75, 0x3e,
  0x38, 0x94, 0x81, 0xbc, 0x51, 0xd3, 0x02, 0xbe, 0x6c, 0x7e, 0x0b, 0xbe,
  0xe6, 0xb7, 0x92, 0x3e, 0xbe, 0x8a, 0x64, 0x3d, 0x86, 0x48, 0xa8, 0xbb,
  0x55, 0x41, 0x7b, 0x3e, 0x76, 0x8f, 0x43, 0x3e, 0x39, 0xf3, 0x40, 0x3e,
  0xfa, 0x08, 0xd3, 0xbd, 0x61, 0xe9, 0x8b, 0x3e, 0x15, 0x7a, 0x19, 0xbe,
  0x73, 0xcf, 0x3a, 0xbd, 0xbd, 0x24, 0xa2, 0x3e, 0xbf, 0xc8, 0x84, 0x3e,
  0x6d, 0x71, 0x44, 0xbe, 0xfe, 0xfc, 0x3a, 0xbe, 0x92, 0xb2, 0xa1, 0x3d,
  0xb7, 0xb6, 0x2b, 0xbe, 0x8a, 0x1e, 0x2a, 0x3e, 0x23, 0xa8, 0x71, 0xbe,
  0x27, 0xb6, 0x49, 0x3e, 0x73, 0xf6, 0x6a, 0xbe, 0x74, 0x5b, 0x3a, 0x3d,
  0xeb, 0x16, 0x7b, 0xbe, 0xe4, 0xfb, 0x95, 0xbd, 0x84, 0x40, 0x81, 0x3e,
  0xb0, 0x53, 0x02, 0xbe, 0x43, 0x0a, 0xf4, 0x3d, 0x6f, 0xab, 0x19, 0x3e,
  0x64, 0x72, 0xfa, 0x3d, 0x2f, 0x53, 0x3e, 0xbe, 0xb7, 0xa8, 0x92, 0xbe,
  0x1e, 0x5a, 0x8a, 0xbe, 0x0b, 0x9b, 0xdb, 0x3d, 0xec, 0x90, 0xf2, 0xbd,
  0x96, 0xab, 0x85, 0x3e, 0x6e, 0x2e, 0x7c, 0xbe, 0x3b, 0x30, 0x08, 0xbe,
  0xa0, 0x5f, 0x05, 0x3e, 0xc9, 0x4e, 0x8e, 0x3e, 0xf9, 0x43, 0x41, 0xbe,
  0x6b, 0xca, 0xf5, 0xbd, 0x32, 0x34, 0x5d, 0x3e, 0xf9, 0x81, 0x5e, 0x3e,
  0xde, 0xed, 0x58, 0x3d, 0xb2, 0xe7, 0x37, 0xbe, 0xee, 0x94, 0x8b, 0x3e,
  0x2b, 0xd2, 0x34, 0xbe, 0x28, 0x82, 0x17, 0xbe, 0x71, 0xdc, 0x8e, 0xbe,
  0x4c, 0x16, 0x79, 0xbd, 0x41, 0x04, 0x2b, 0x3e, 0x14, 0x8d, 0x16, 0x3d,
  0xbd, 0x45, 0xc1, 0xbd, 0x75, 0xa5, 0x2e, 0x3d, 0x2d, 0x6c, 0xca, 0x3d,
  0xc3, 0xc0, 0x84, 0xbd, 0x44, 0x96, 0x29, 0x3e, 0x09, 0xbd, 0x07, 0x3d,
  0xc0, 0x02, 0x4e, 0xbd, 0x50, 0x90, 0x07, 0x3e, 0xad, 0x39, 0x6d, 0xbe,
  0x88, 0xe0, 0xb6, 0xbd, 0x80, 0x4d, 0x2a, 0x3d, 0x08, 0xdf, 0x94, 0x3e,
  0xcb, 0x73, 0x94, 0xbd, 0xf8, 0x40, 0xc4, 0xb9, 0x5f, 0x4e, 0xd4, 0xbd,
  0xc0, 0xad, 0x2e, 0xbe, 0x5f, 0xfe, 0x3e, 0x3d, 0x24, 0x0a, 0x9a, 0x3e,
  0x31, 0x59, 0x8c, 0x3e, 0xe5, 0xa2, 0x94, 0xbd, 0x88, 0x30, 0x88, 0xbe,
  0x11, 0xcf, 0x39, 0xbe, 0xe6, 0xb5, 0x43, 0x3e, 0x4e, 0x42, 0x3f, 0x3e,
  0xcb, 0x28, 0x8f, 0x3c, 0x94, 0x17, 0x98, 0xbe, 0x19, 0xa1, 0x55, 0x3e,
  0x11, 0x8b, 0x3a, 0xbe, 0x8d, 0x73, 0x58, 0xbe, 0xc4, 0x1e, 0xac, 0xbe,
  0xaa, 0x8d, 0x30, 0x3e, 0xe4, 0xa2, 0x1d, 0xbe, 0x88, 0x1c, 0x7b, 0x3e,
  0x78, 0x0d, 0x58, 0x3e, 0x77, 0x94, 0x43, 0x3e, 0x6e, 0x63, 0x6e, 0xbe,
  0x7e, 0xfe, 0xa2, 0x3d, 0x22, 0x83, 0xcf, 0xbd, 0xb6, 0x7a, 0x83, 0x3e,
  0xbe, 0x5f, 0x8e, 0x3e, 0xc3, 0x33, 0x4e, 0xbd, 0xcd, 0x7f, 0x65, 0x3d,
  0x98, 0x03, 0xaa, 0x3e, 0xb8, 0x7b, 0xaa, 0x3e, 0x06, 0xc9, 0x32, 0xbe,
  0x37, 0xdd, 0x12, 0x3e, 0xf0, 0xcd, 0x5c, 0xbe, 0xb8, 0xe8, 0x29, 0x3e,
  0xa4, 0xc7, 0xf9, 0x3e, 0xbc, 0x35, 0xdd, 0x3e, 0x29, 0xb1, 0xca, 0xbd,
  0x3e, 0x91, 0x4c, 0x3e, 0x12, 0xe5, 0xa3, 0x3d, 0xd3, 0x70, 0x3c, 0xbe,
  0x7f, 0x02, 0x1c, 0xbe, 0xc9, 0xad, 0x44, 0x3e, 0x91, 0xc0, 0xa2, 0x3d,
  0x8c, 0xe2, 0xe4, 0xbc, 0x8d, 0xee, 0xc3, 0x3d, 0xca, 0xbf, 0x3f, 0xbe,
  0xee, 0x81, 0xae, 0x3a, 0x3c, 0x6f, 0x96, 0xbe, 0x26, 0xe5, 0x4c, 0x3e,
  0xdd, 0x3d, 0x41, 0xbc, 0xce, 0x52, 0xf0, 0x3d, 0x06, 0x13, 0xa1, 0xbd,
  0x5b, 0xb2, 0x8f, 0xbe, 0xfa, 0xaa, 0x88, 0x3e, 0x15, 0x26, 0x3c, 0x3e,
  0x88, 0x1a, 0x63, 0x3d, 0xa1, 0x0d, 0x9b, 0xbe, 0x92, 0xe5, 0x89, 0xbe,
  0x8d, 0x6a, 0x9e, 0xbd, 0x34, 0x8e, 0x2a, 0x3e, 0x18, 0xfe, 0x9f, 0x3d,
  0xb1, 0x6f, 0xce, 0x3d, 0x8e, 0x50, 0x02, 0xbe, 0x7a, 0x2c, 0x7d, 0x3d,
  0x8e, 0x39, 0x5a, 0x3e, 0xc6, 0x15, 0x62, 0x3e, 0x33, 0x19, 0x38, 0x3e,
  0x52, 0x52, 0x50, 0x3e, 0x66, 0x85, 0x5c, 0x3e, 0xd2, 0x0c, 0xce, 0x3d,
  0xe3, 0xdb, 0x28, 0xbe, 0x48, 0x68, 0x3c, 0xbe, 0x6e, 0x1c, 0x88, 0xbd,
  0xa7, 0x06, 0x10, 0xbd, 0xa4, 0xa4, 0xd1, 0xbc, 0x28, 0xd5, 0x8f, 0xbe,
  0xbf, 0xcb, 0xda, 0xbc, 0x70, 0x88, 0x81, 0xbe, 0x0f, 0x41, 0x2a, 0xbe,
  0x24, 0xf7, 0x26, 0x3e, 0x5e, 0x67, 0x6c, 0x3e, 0x0e, 0x5b, 0xfa, 0x3d,
  0xc4, 0xbe, 0xb0, 0xbd, 0x9e, 0x17, 0x51, 0x3e, 0x63, 0x0b, 0x12, 0xbe,
  0x0d, 0xc9, 0x22, 0xbe, 0x2c, 0xaf, 0x9e, 0x3d, 0x9d, 0x12, 0x8c, 0x3e,
  0xf2, 0x3a, 0x61, 0xbe, 0x4c, 0x2a, 0xa0, 0xbd, 0x72, 0xe2, 0x96, 0x3e,
  0xcd, 0x47, 0x82, 0x3e, 0x06, 0x32, 0x61, 0xbd, 0x4f, 0x4b, 0x03, 0xbe,
  0x5e, 0x7a, 0x18, 0x3e, 0xe6, 0xf9, 0x25, 0xbe, 0x26, 0x9f, 0x15, 0x3e,
  0xbe, 0x87, 0x0f, 0xba, 0x0d, 0x38, 0x48, 0x3e, 0x39, 0x2e, 0x5e, 0xbe,
  0x12, 0xc8, 0xbd, 0xbd, 0x03, 0x61, 0x49, 0xbe, 0x45, 0xe6, 0x95, 0xbc,
  0x66, 0x9e, 0xd4, 0x3d, 0x96, 0x0a, 0x94, 0xbe, 0x8e, 0x28, 0x8e, 0x3e,
  0xc6, 0xb7, 0x51, 0xbe, 0x07, 0xa1, 0x46, 0x3e, 0x0e, 0x8a, 0xc0, 0xbd,
  0xf3, 0x1f, 0x8a, 0x3d, 0xfd, 0x26, 0x23, 0x3e, 0x9b, 0xe6, 0x09, 0x3a,
  0x0a, 0xda, 0xaf, 0xbd, 0xb5, 0xe1, 0x05, 0xbe, 0x31, 0xf3, 0x17, 0x3e,
  0x9f, 0x69, 0x7b, 0x3e, 0x43, 0xc6, 0x4e, 0x3d, 0xd7, 0xf4, 0x3f, 0xbe,
  0x43, 0xc9, 0x48, 0x3e, 0xe6, 0x38, 0x23, 0x3e, 0x75, 0xfb, 0xac, 0xba,
  0x8e, 0x84, 0x1f, 0xbe, 0xf4, 0xb1, 0x52, 0x3c, 0xf0, 0xb0, 0x41, 0x3d,
  0xad, 0xf0, 0x71, 0x3e, 0x4b, 0xb6, 0x0c, 0xbe, 0x96, 0xe9, 0x99, 0x3e,
  0x4f, 0x07, 0x7c, 0xbe, 0x88, 0xae, 0x77, 0x3e, 0xd2, 0xea, 0x00, 0x3e,
  0xd7, 0x26, 0xe0, 0x3d, 0x4d, 0x9f, 0x20, 0x3e, 0x62, 0x4d, 0x3d, 0xbd,
  0x9a, 0xcb, 0x06, 0x3c, 0x4c, 0x16, 0x94, 0xbe, 0x98, 0x70, 0xdf, 0xbd,
  0x31, 0xa6, 0xfc, 0x3d, 0xb0, 0xe5, 0xbd, 0x3d, 0x22, 0x06, 0xfe, 0x3d,
  0x41, 0x3a, 0x8e, 0x3e, 0x03, 0x3b, 0x92, 0x3d, 0xa8, 0x35, 0x8f, 0x3e,
  0x56, 0x56, 0x2c, 0xbc, 0x4c, 0xb8, 0xb9, 0x3b, 0x7a, 0xdb, 0xd9, 0x3d,
  0x30, 0xbf, 0x3c, 0xbe, 0x36, 0x02, 0xe6, 0x3c, 0x68, 0x5d, 0x73, 0xbe,
  0xc0, 0x48, 0x91, 0xbe, 0x6b, 0x11, 0x20, 0xbd, 0xa4, 0xad, 0x80, 0xbe,
  0x93, 0xe2, 0x24, 0x3e, 0xd1, 0x7f, 0x1c, 0x3c, 0x57, 0x37, 0xbd, 0x3c,
  0x59, 0x93, 0x8c, 0x3e, 0x59, 0x58, 0x13, 0xbe, 0x52, 0x22, 0x18, 0xbe,
  0x95, 0xe4, 0x5f, 0x3e, 0x15, 0xa4, 0xd4, 0xbd, 0x0c, 0x58, 0x09, 0xbc,
  0x4c, 0x21, 0x0c, 0xbe, 0xd2, 0xda, 0x64, 0x3b, 0xca, 0x0a, 0x75, 0xbe,
  0xaa, 0x05, 0x07, 0xbe, 0x6b, 0xbb, 0x74, 0x3d, 0xc2, 0xe6, 0x4b, 0xbd,
  0x25, 0x57, 0x57, 0xbe, 0x45, 0x8c, 0xb5, 0x3d, 0x2c, 0x1f, 0xa4, 0xbd,
  0xa8, 0x0e, 0xfd, 0x3d, 0x4a, 0x65, 0x81, 0xbe, 0x29, 0x40, 0x82, 0x3c,
  0xad, 0x4e, 0x80, 0xbe, 0xf7, 0xd2, 0x4c, 0xbe, 0x9a, 0x58, 0x0e, 0xbe,
  0x3d, 0x1f, 0xae, 0x3d, 0xd1, 0xcb, 0x30, 0xbc, 0xf5, 0xb5, 0x42, 0xbe,
  0xee, 0x33, 0x08, 0x3c, 0xe8, 0x54, 0x81, 0x3e, 0x29, 0x23, 0x57, 0x3e,
  0x93, 0xde, 0x4f, 0xbd, 0x61, 0x06, 0xf1, 0x3d, 0x7f, 0x04, 0x31, 0x3e,
  0xc1, 0x67, 0xe4, 0x3d, 0xd4, 0x06, 0x14, 0xbc, 0xc8, 0x23, 0xd3, 0xbd,
  0x89, 0xb6, 0xd3, 0xbc, 0x8f, 0xff, 0xe0, 0x3d, 0x92, 0xf7, 0x52, 0xbe,
  0x7b, 0x25, 0x71, 0xbe, 0x92, 0xad, 0x26, 0xbe, 0x8f, 0xc9, 0xea, 0xbc,
  0xcb, 0x5f, 0x7b, 0x3d, 0x40, 0x56, 0x03, 0xbd, 0xbf, 0xf3, 0x08, 0x3e,
  0x15, 0x85, 0x66, 0xbe, 0x97, 0x56, 0x2a, 0xbd, 0xf1, 0x23, 0x2a, 0x3e,
  0xf1, 0x54, 0x05, 0xbe, 0x4b, 0x13, 0x59, 0x3c, 0xb7, 0xf6, 0x04, 0x3d,
  0x6f, 0x11, 0x0a, 0x3d, 0x0b, 0xc4, 0x3f, 0xbc, 0x97, 0x0c, 0x47, 0xbd,
  0x01, 0xa9, 0x90, 0x3e, 0x8a, 0x24, 0x11, 0x3e, 0x0d, 0x23, 0xd1, 0xbd,
  0x2a, 0x9c, 0x13, 0x3e, 0x9c, 0xa2, 0x1c, 0xbe, 0xc7, 0x43, 0x64, 0x3e,
  0xeb, 0xec, 0x59, 0x3d, 0xe9, 0x0d, 0xda, 0x3c, 0x24, 0x4c, 0xc3, 0xbd,
  0x37, 0xac, 0xb2, 0x3e, 0x70, 0x72, 0x6a, 0x3e, 0xf0, 0x55, 0xeb, 0xbd,
  0xc7, 0x54, 0x57, 0x3e, 0x75, 0x51, 0x7d, 0x3e, 0x18, 0x44, 0x3b, 0x3e,
  0x25, 0x53, 0x17, 0x3e, 0x72, 0x08, 0x0a, 0x3e, 0x7f, 0x64, 0x47, 0x3d,
  0x76, 0x04, 0x8e, 0xbe, 0x04, 0x0e, 0x1c, 0x3e, 0x76, 0x9b, 0x2d, 0x3e,
  0x38, 0x31, 0xdb, 0xbd, 0x8f, 0xdf, 0x3e, 0xbe, 0x9a, 0xa4, 0x15, 0xbe,
  0xe9, 0x12, 0x14, 0xbe, 0x8b, 0x6b, 0xe8, 0xbd, 0x1f, 0x68, 0x07, 0xbe,
  0x74, 0x6f, 0x92, 0xbe, 0xb1, 0x9c, 0x66, 0xbe, 0xe1, 0x87, 0xa1, 0xbe,
  0xa6, 0x98, 0x2f, 0x3e, 0x31, 0xb4, 0x4e, 0xbe, 0xfd, 0x7c, 0x62, 0x3d,
  0x31, 0x90, 0x0e, 0xbe, 0x33, 0x14, 0x84, 0x3e, 0xc1, 0x2d, 0x3c, 0x3e,
  0xfa, 0xa3, 0x2f, 0xbe, 0x81, 0xc1, 0xa9, 0x3d, 0x5c, 0xe3, 0x51, 0x3e,
  0x80, 0x10, 0x81, 0x3e, 0xeb, 0xfa, 0x84, 0xbd, 0x91, 0x93, 0x42, 0x3e,
  0x59, 0x24, 0xab, 0x3d, 0x12, 0x6e, 0x0e, 0x3e, 0xef, 0x24, 0x43, 0x3e,
  0x61, 0x63, 0x21, 0xbe, 0x3f, 0x9e, 0xc8, 0x3d, 0x83, 0xf8, 0x16, 0x3e,
  0x9a, 0xb4, 0x3f, 0xbe, 0x89, 0x77, 0x46, 0xbe, 0xb8, 0x6e, 0x29, 0xbe,
  0x7e, 0x68, 0xe5, 0xbd, 0xee, 0x44, 0x6e, 0x3e, 0xda, 0xcb, 0xa2, 0xbe,
  0xd4, 0x77, 0x95, 0xbe, 0x58, 0x1b, 0xbe, 0x39, 0xeb, 0xc5, 0xed, 0xbc,
  0x35, 0x1e, 0x15, 0xbe, 0xad, 0x16, 0x32, 0xbe, 0x56, 0x93, 0x47, 0x3e,
  0xb6, 0x47, 0x77, 0x3e, 0x20, 0x04, 0x67, 0xbd, 0x02, 0xae, 0xf9, 0x3d,
  0xfc, 0xbf, 0x17, 0xbe, 0x90, 0xd4, 0x86, 0xbe, 0xcb, 0x25, 0x37, 0xbd,
  0x92, 0xd1, 0x23, 0xbc, 0x94, 0xb0, 0x6c, 0x3e, 0xc3, 0xae, 0x1f, 0xbe,
  0xa3, 0xc2, 0x02, 0x3e, 0x76, 0xdd, 0x65, 0xbe, 0x83, 0x14, 0x27, 0xbe,
  0x80, 0xc2, 0x8c, 0x3e, 0xb8, 0xf6, 0xfa, 0x3d, 0xb1, 0x8c, 0xd2, 0xbc,
  0x15, 0x26, 0x91, 0x3e, 0xd0, 0xc3, 0x51, 0xbe, 0x36, 0x4e, 0x35, 0xbe,
  0xd3, 0x42, 0xd0, 0x3d, 0x1f, 0x52, 0xcf, 0x3c, 0x32, 0x02, 0x00, 0xbe,
  0xc3, 0xd7, 0x5e, 0xbe, 0x8e, 0xfd, 0x8e, 0xbd, 0xab, 0xba, 0xb6, 0xbb,
  0xc5, 0x46, 0x16, 0xbd, 0x69, 0x8b, 0x9a, 0xbe, 0x6b, 0xf4, 0x2e, 0x3e,
  0xba, 0xf9, 0x80, 0x3e, 0xe4, 0xb4, 0xc9, 0x3d, 0x1e, 0x98, 0x78, 0xbe,
  0x19, 0x80, 0x39, 0xbe, 0xe6, 0x56, 0x88, 0xbe, 0x22, 0xe8, 0x86, 0xbd,
  0x12, 0xba, 0xb7, 0xbb, 0xf9, 0x9c, 0xbe, 0xbc, 0x19, 0x78, 0x58, 0xbe,
  0xf2, 0x23, 0x1d, 0x3e, 0xe5, 0xc7, 0x70, 0x3d, 0x40, 0xe1, 0x8d, 0x3e,
  0xe1, 0x94, 0x90, 0x3d, 0xd5, 0x7f, 0x7e, 0x3e, 0xc4, 0x86, 0x0d, 0x3d,
  0x5d, 0x63, 0xd6, 0xbd, 0xff, 0xd7, 0x32, 0x3d, 0xec, 0x30, 0x82, 0xbe,
  0xf7, 0xf2, 0x14, 0xbe, 0xa9, 0xfb, 0x0b, 0x3e, 0x2f, 0x79, 0x34, 0x3e,
  0x03, 0x32, 0x74, 0x3e, 0xa7, 0x0b, 0xe2, 0xbc, 0xb8, 0x0e, 0x9e, 0x3d,
  0xd4, 0x7b, 0x65, 0xbd, 0x82, 0x5a, 0x68, 0xbe, 0x9f, 0x91, 0xf5, 0xbd,
  0x2b, 0x19, 0x91, 0x3e, 0xd9, 0x7b, 0x62, 0xbd, 0x05, 0xd5, 0x1f, 0x3e,
  0xd8, 0x16, 0xe5, 0x3e, 0xed, 0xc9, 0xb5, 0x3e, 0xb8, 0xec, 0xa1, 0xbd,
  0x97, 0xb6, 0xb2, 0x3e, 0xf3, 0x55, 0xbd, 0x3e, 0xe8, 0x41, 0xbb, 0x3d,
  0xe2, 0xd2, 0xa3, 0xbb, 0x5d, 0xe1, 0x3b, 0x3e, 0x86, 0x31, 0xf0, 0x3e,
  0xd8, 0xa0, 0x83, 0x3e, 0x0e, 0x00, 0xb2, 0x3e, 0xfb, 0xa1, 0x7e, 0xbe,
  0xa5, 0xa1, 0x07, 0x3e, 0x62, 0x83, 0x8c, 0xbe, 0x2f, 0x70, 0x83, 0x3d,
  0x96, 0xf9, 0x8a, 0x3e, 0x46, 0x40, 0x61, 0x3e, 0x29, 0x4a, 0x0a, 0x3e,
  0x84, 0x94, 0x46, 0x3e, 0xa9, 0xe8, 0x08, 0xbe, 0x09, 0x52, 0x72, 0xbe,
  0x89, 0xfd, 0x72, 0x3e, 0x4e, 0xaa, 0xa1, 0x3e, 0x6e, 0x8d, 0x79, 0x3e,
  0x52, 0xe4, 0x1e, 0xbe, 0x76, 0xa1, 0x2e, 0x3e, 0x53, 0x97, 0xb1, 0x3d,
  0x3a, 0x78, 0x33, 0x3e, 0xa3, 0x4f, 0xa2, 0x3e, 0xea, 0x6c, 0xa4, 0xbe,
  0x16, 0x06, 0x49, 0xbe, 0x04, 0x30, 0x7c, 0x3c, 0x4e, 0xe6, 0xe5, 0x3c,
  0x23, 0x8f, 0x54, 0x3e, 0x53, 0xa6, 0x78, 0x3e, 0xc1, 0x5f, 0xc4, 0x3d,
  0xb6, 0xcd, 0x0c, 0x3e, 0x30, 0xbf, 0xd9, 0xbd, 0x87, 0xf3, 0x2f, 0x3e,
  0xed, 0x8a, 0x63, 0x3d, 0xb6, 0x05, 0xf9, 0x3d, 0x53, 0xda, 0x63, 0x3d,
  0xf1, 0x72, 0x90, 0x3d, 0x51, 0xc6, 0x13, 0xbe, 0x6c, 0xc8, 0x4f, 0xbe,
  0xb7, 0x33, 0x92, 0xbe, 0x8c, 0xb8, 0xbe, 0x3d, 0xa0, 0x93, 0x3a, 0xbe,
  0x57, 0xc2, 0x78, 0x3d, 0xf5, 0xbc, 0xe1, 0x3d, 0xeb, 0x63, 0x51, 0xbd,
  0xb8, 0x4c, 0x9e, 0x3e, 0xf1, 0x4c, 0x28, 0x3e, 0x05, 0x5e, 0x94, 0x3e,
  0xf3, 0xa7, 0x5a, 0xbc, 0x0a, 0x8f, 0x1a, 0xbe, 0x49, 0xc9, 0xbb, 0xbd,
  0x9d, 0x6c, 0x8f, 0x3c, 0x3b, 0xcf, 0xb3, 0x3e, 0x65, 0x42, 0xcd, 0xbd,
  0x5a, 0x3d, 0x87, 0xbe, 0xbf, 0xb2, 0x29, 0x3e, 0x71, 0x6f, 0x0d, 0xbe,
  0x5f, 0x5e, 0xb2, 0x3d, 0x3f, 0x24, 0xef, 0x3d, 0xa3, 0x31, 0xa0, 0x3c,
  0x5e, 0xde, 0x63, 0xbe, 0xc6, 0x3e, 0x91, 0x3e, 0x31, 0x7b, 0x13, 0x3e,
  0xd7, 0x4b, 0xb3, 0x3d, 0xb4, 0x51, 0x4a, 0xbe, 0x81, 0xa7, 0x24, 0x3d,
  0x18, 0x1a, 0xc7, 0x3e, 0xcc, 0x22, 0xc0, 0x3e, 0xa7, 0x44, 0x2d, 0xbe,
  0x8e, 0x2f, 0x5b, 0x3e, 0xbe, 0x36, 0xf1, 0x3c, 0x14, 0x0a, 0x8f, 0x3e,
  0x0e, 0x44, 0x52, 0x3e, 0xb9, 0x0e, 0x08, 0x3e, 0x12, 0xf6, 0x6c, 0xbe,
  0xfc, 0x67, 0xc9, 0xbd, 0x27, 0xbf, 0x8f, 0xbe, 0xf9, 0x1a, 0x89, 0x3d,
  0xe4, 0xe6, 0x86, 0x3e, 0x82, 0xeb, 0x55, 0xbe, 0xe1, 0xef, 0xf1, 0xbd,
  0x9d, 0x89, 0x86, 0xbe, 0xac, 0x26, 0x7e, 0xbe, 0x55, 0x5f, 0x1b, 0xbd,
  0x2c, 0xa8, 0xac, 0xbd, 0x0e, 0xd3, 0x9d, 0x3e, 0x76, 0x94, 0x60, 0xbe,
  0x9f, 0x48, 0x3b, 0xbe, 0xf7, 0x2c, 0x71, 0x3e, 0x37, 0xe1, 0x80, 0x3c,
  0xd8, 0xce, 0xc5, 0x3e, 0x5e, 0x79, 0x89, 0x3e, 0x22, 0x38, 0xde, 0x3d,
  0xcc, 0x2d, 0x4a, 0x3e, 0x26, 0xc3, 0xcf, 0x3d, 0x13, 0xcf, 0x66, 0xbe,
  0x3e, 0xee, 0x15, 0x3d, 0x07, 0xcc, 0x5e, 0xbe, 0x92, 0x2f, 0xdc, 0x3d,
  0xbb, 0xeb, 0x73, 0x3e, 0xc3, 0x79, 0x82, 0x3e, 0x3e, 0xa6, 0x75, 0x3e,
  0x81, 0x76, 0x40, 0x3e, 0xa7, 0x7e, 0xd8, 0x3d, 0x9a, 0x86, 0xeb, 0xbd,
  0x85, 0x92, 0x10, 0x3e, 0x09, 0x75, 0x2e, 0x3e, 0x85, 0xc5, 0xe7, 0x3d,
  0x2b, 0xd2, 0xd5, 0xbd, 0x69, 0x79, 0x5e, 0x3e, 0xbc, 0xff, 0x55, 0xbe,
  0x70, 0xf8, 0x8a, 0xbe, 0xa2, 0xc5, 0x68, 0xbd, 0x4f, 0x95, 0x22, 0xbe,
  0x72, 0xf8, 0x02, 0x3d, 0x3a, 0x08, 0x38, 0x3e, 0x4f, 0xfa, 0x14, 0xbe,
  0xba, 0x58, 0x7a, 0x3e, 0x6c, 0xe0, 0xf9, 0xbc, 0x42, 0x22, 0x33, 0x3d,
  0x7e, 0xfa, 0x14, 0x3e, 0x74, 0xd4, 0x53, 0xbd, 0xd9, 0x00, 0xb1, 0xbd,
  0xde, 0x10, 0x11, 0x3e, 0x3e, 0x2f, 0x1b, 0x3e, 0xb7, 0x97, 0x88, 0xbe,
  0x90, 0x37, 0x8c, 0xbe, 0xfb, 0x9c, 0x1e, 0xbe, 0xe6, 0xba, 0x49, 0xbe,
  0xf4, 0xba, 0xc7, 0xbd, 0x74, 0xeb, 0x9f, 0xbe, 0x33, 0x80, 0x12, 0xbd,
  0x0f, 0xf8, 0x11, 0xbe, 0x99, 0x6d, 0x12, 0xbe, 0xba, 0x33, 0xab, 0x3c,
  0x99, 0x4a, 0x04, 0x3e, 0x88, 0x15, 0x24, 0xbe, 0x9e, 0xaf, 0x79, 0xbd,
  0x3d, 0x10, 0xda, 0x3c, 0x37, 0xf5, 0x87, 0x3d, 0x30, 0x84, 0x44, 0xbd,
  0x97, 0xec, 0xea, 0xbd, 0x34, 0x34, 0x42, 0xbe, 0x7b, 0xdc, 0x53, 0x3e,
  0xd9, 0x6f, 0x50, 0xbe, 0x71, 0x46, 0x77, 0x3e, 0x59, 0xc8, 0x4c, 0xbe,
  0xc9, 0xe3, 0x85, 0xbe, 0x07, 0x2d, 0xd5, 0x3d, 0xc6, 0x30, 0x1c, 0x3e,
  0x10, 0x53, 0x5d, 0xbe, 0x2b, 0x46, 0xc5, 0xbd, 0xa3, 0xde, 0x04, 0xbe,
  0xf9, 0xd6, 0x42, 0xbe, 0x2c, 0x56, 0x45, 0xbe, 0x49, 0x98, 0x19, 0xbe,
  0xa5, 0x03, 0xd8, 0x3c, 0x97, 0x18, 0x93, 0xbe, 0xeb, 0x6d, 0x5d, 0xbe,
  0xef, 0xf8, 0x0e, 0xbd, 0x11, 0x27, 0xae, 0xbd, 0xda, 0xd2, 0x21, 0xbe,
  0x08, 0xf4, 0x19, 0xbe, 0x1b, 0x9c, 0x14, 0x3e, 0x32, 0x74, 0x12, 0xbd,
  0x6a, 0x6a, 0x0b, 0xbe, 0xbd, 0x40, 0x8a, 0x3c, 0x05, 0x4f, 0xaa, 0x3d,
  0xca, 0xcb, 0x90, 0x3e, 0xa2, 0x9b, 0x2c, 0xbe, 0x35, 0xfa, 0xf6, 0xbc,
  0x5f, 0xba, 0x53, 0x3e, 0x29, 0x3e, 0xbe, 0x3c, 0xab, 0xcf, 0xb2, 0xbd,
  0x38, 0x56, 0x37, 0x3e, 0xed, 0x16, 0x82, 0x3e, 0x03, 0x29, 0x00, 0xbd,
  0x2e, 0x93, 0x49, 0x3e, 0x9f, 0x30, 0xca, 0xbc, 0x7b, 0xb3, 0x50, 0x3d,
  0x1d, 0x5f, 0x2b, 0x3e, 0xca, 0xe9, 0x08, 0xbe, 0x85, 0xeb, 0x5d, 0xbe,
  0xe1, 0xd6, 0xd2, 0xbd, 0x03, 0xaa, 0x21, 0x3e, 0x74, 0x04, 0xd0, 0xbd,
  0x97, 0x75, 0x12, 0xbe, 0x6b, 0x2d, 0x46, 0x3e, 0xb2, 0x45, 0x1b, 0x3c,
  0x5f, 0x9d, 0x3f, 0xbd, 0xf3, 0x1f, 0x06, 0xbe, 0x08, 0x43, 0x4d, 0x3e,
  0xf5, 0xcb, 0xc9, 0xbd, 0xc6, 0xd6, 0x0d, 0xbe, 0xf5, 0x99, 0x39, 0xbe,
  0xef, 0x1f, 0x02, 0x3e, 0xca, 0xc0, 0x68, 0x3e, 0x39, 0x32, 0x00, 0x3d,
  0x09, 0xd6, 0x69, 0xbe, 0xd5, 0x0f, 0x18, 0x3d, 0x8a, 0x5f, 0x31, 0xbd,
  0x5a, 0x9c, 0x2c, 0xbd, 0xc6, 0xc8, 0x09, 0x3e, 0x76, 0x54, 0xac, 0xbd,
  0x98, 0xe1, 0x2f, 0x3d, 0xb3, 0x5a, 0x06, 0x3e, 0xfb, 0x5c, 0x61, 0xbe,
  0xb4, 0x4c, 0x13, 0x3d, 0x06, 0xee, 0x67, 0xbe, 0x5f, 0x0b, 0xe0, 0xbd,
  0xee, 0x33, 0x1f, 0xbe, 0x91, 0xb7, 0x73, 0x3e, 0x19, 0x93, 0xae, 0xbd,
  0xce, 0x23, 0x80, 0xbe, 0xae, 0xf8, 0x75, 0xbe, 0x5d, 0x3a, 0x86, 0x3c,
  0x56, 0x9d, 0xec, 0x3b, 0x43, 0xe2, 0x69, 0x3e, 0xdc, 0x1b, 0x68, 0xbe,
  0xd2, 0x52, 0x6b, 0xbe, 0x24, 0xcf, 0x00, 0xbe, 0x86, 0xf9, 0x0b, 0xbe,
  0x3c, 0x65, 0x76, 0xbe, 0x77, 0x79, 0x61, 0xbe, 0xa2, 0x3a, 0x99, 0x3d,
  0x99, 0x59, 0x02, 0xbe, 0x56, 0xe9, 0x89, 0x3d, 0x7c, 0x0b, 0xce, 0x3d,
  0x8d, 0x2f, 0x08, 0xbe, 0xb9, 0xa7, 0x6c, 0xbe, 0x7a, 0xb6, 0xa6, 0x3e,
  0x0f, 0xb3, 0x19, 0xbe, 0xf6, 0xb7, 0xf7, 0xbd, 0x88, 0xc3, 0x23, 0x3e,
  0x39, 0xd9, 0x3f, 0x3e, 0xf4, 0xfb, 0xf7, 0xbd, 0x1c, 0xef, 0x66, 0xbe,
  0xac, 0xdf, 0x60, 0x3e, 0x6c, 0x44, 0xef, 0x3d, 0x57, 0x5a, 0x39, 0x3d,
  0x2f, 0x67, 0x6e, 0xbe, 0x00, 0x4c, 0x40, 0xbe, 0xf1, 0xa2, 0x08, 0x3d,
  0xb2, 0x3b, 0x8d, 0xbe, 0xfc, 0x91, 0x1a, 0xbc, 0x8d, 0xef, 0x23, 0xbd,
  0x0a, 0x03, 0x6c, 0x3e, 0xdf, 0xb2, 0x71, 0x3e, 0xc1, 0xf7, 0xf1, 0xbd,
  0x0b, 0x07, 0xd7, 0x3d, 0x5e, 0x33, 0x61, 0xbe, 0x0f, 0x06, 0x8f, 0x3e,
  0x1a, 0x36, 0x4a, 0x3d, 0xfe, 0x72, 0x1b, 0x3e, 0x7c, 0x5c, 0x2b, 0xbe,
  0xe7, 0xb2, 0x42, 0xbd, 0xd0, 0x8c, 0xb4, 0x3c, 0xa3, 0xc6, 0x4f, 0xbe,
  0xed, 0x80, 0x0a, 0xbd, 0x31, 0xce, 0x24, 0xbe, 0xce, 0xea, 0x87, 0x3e,
  0x9f, 0x24, 0xa3, 0x3d, 0x52, 0x98, 0x30, 0x3e, 0xed, 0x58, 0xa6, 0x3e,
  0x23, 0x04, 0x66, 0x3e, 0x27, 0x71, 0xbd, 0x3d, 0x2f, 0x93, 0x8c, 0x3e,
  0xa0, 0xe1, 0xf0, 0x3d, 0x5d, 0x9c, 0x8c, 0x3e, 0x2f, 0x3a, 0x5f, 0xbe,
  0x0d, 0xa7, 0x4a, 0xbe, 0xa0, 0x0c, 0x38, 0x3d, 0xa3, 0xff, 0x9e, 0xbd,
  0xef, 0x93, 0xaf, 0x3e, 0x75, 0x46, 0x9c, 0x3c, 0x7d, 0xd2, 0x31, 0x3e,
  0x37, 0x01, 0xa1, 0xbe, 0xf9, 0xfc, 0x46, 0xbe, 0x16, 0x00, 0x92, 0x39,
  0x8f, 0xa3, 0x9b, 0xbe, 0x26, 0x58, 0x8e, 0xbe, 0x76, 0x98, 0x8d, 0xbe,
  0xd1, 0x8e, 0xb8, 0x3d, 0x9a, 0x56, 0x0e, 0x3e, 0x85, 0x73, 0x98, 0x3e,
  0x76, 0xe7, 0x69, 0x3e, 0x5b, 0x68, 0xd6, 0x3d, 0x60, 0x3e, 0x85, 0x3d,
  0xb7, 0x13, 0x6c, 0x3d, 0x25, 0x23, 0x1e, 0x3e, 0xd9, 0x05, 0xed, 0xbb,
  0xae, 0xfc, 0x42, 0x3d, 0x93, 0xa8, 0x58, 0x3e, 0x1f, 0xd8, 0x37, 0xbd,
  0xa3, 0x67, 0x64, 0x3c, 0x48, 0x09, 0x31, 0x3e, 0x89, 0x41, 0x29, 0x3d,
  0xa6, 0xa8, 0xfd, 0xbc, 0x1f, 0x10, 0x0d, 0x3e, 0x80, 0x27, 0x9b, 0x3d,
  0xe2, 0xd3, 0x7e, 0xbe, 0xba, 0xe6, 0x57, 0x3e, 0x85, 0x7f, 0x05, 0xbe,
  0x6f, 0x8a, 0x2e, 0x3d, 0xa3, 0x89, 0xb5, 0x3d, 0x2b, 0x53, 0x6e, 0x3c,
  0x6c, 0x7b, 0xad, 0x3d, 0xc6, 0x39, 0xae, 0xbe, 0xfc, 0x34, 0x86, 0xbe,
  0xb7, 0x1c, 0x55, 0xbe, 0x9c, 0xa2, 0x48, 0x3e, 0xfd, 0x53, 0xad, 0x3d,
  0x0e, 0x16, 0xed, 0xbd, 0xb6, 0x1e, 0x0e, 0x3e, 0xff, 0x80, 0x9b, 0xbd,
  0xdf, 0xaf, 0x4a, 0x3c, 0x55, 0xb9, 0x4f, 0xbd, 0x98, 0x2b, 0x0e, 0xbe,
  0xa0, 0xb8, 0x56, 0x3e, 0x79, 0xd6, 0x78, 0x3e, 0x93, 0x3d, 0xfb, 0xbb,
  0x40, 0xcb, 0x92, 0xbd, 0x5b, 0x44, 0x68, 0xbe, 0xb3, 0x12, 0x73, 0x3e,
  0x6b, 0x08, 0xca, 0x3d, 0x97, 0x54, 0x41, 0x3e, 0x4d, 0xb1, 0x99, 0x3b,
  0xcb, 0x7e, 0xf7, 0xbd, 0xcb, 0xe4, 0x64, 0x3e, 0x5c, 0x51, 0x44, 0x3d,
  0x9d, 0x6d, 0xa5, 0xbe, 0x9e, 0xdd, 0x54, 0xbe, 0xe6, 0x38, 0x2b, 0x3e,
  0xc7, 0x6a, 0x20, 0xbe, 0xc4, 0x84, 0xb6, 0xbe, 0x15, 0xf7, 0x80, 0xbe,
  0x02, 0xea, 0x5b, 0x3e, 0x94, 0x8a, 0x21, 0x3e, 0xc8, 0xad, 0xd6, 0xbd,
  0xdb, 0x1a, 0x8c, 0xbe, 0xee, 0x55, 0x5e, 0x3e, 0x92, 0xdb, 0x07, 0x3e,
  0x11, 0x68, 0x6e, 0x3e, 0x41, 0x20, 0x30, 0x3e, 0xb1, 0xa7, 0x71, 0xbe,
  0xd8, 0x16, 0x29, 0x3e, 0xc8, 0x37, 0xab, 0x3d, 0x51, 0x76, 0x65, 0x3e,
  0xcc, 0xe8, 0xed, 0x3d, 0xc0, 0xa2, 0x0f, 0x3e, 0x28, 0xeb, 0x93, 0xbc,
  0x02, 0xbc, 0x8d, 0xbd, 0x67, 0x22, 0x96, 0xbd, 0xca, 0xf1, 0xf3, 0xbd,
  0xb5, 0xa3, 0x30, 0xbe, 0xf9, 0x45, 0x24, 0x3e, 0xb0, 0xb3, 0x62, 0xbe,
  0x92, 0x57, 0x05, 0x3e, 0x2b, 0x6e, 0x81, 0xbd, 0x97, 0x74, 0x77, 0xbe,
  0x5b, 0x64, 0xe8, 0xbd, 0x46, 0x97, 0x57, 0xbe, 0x1c, 0x04, 0x83, 0xbe,
  0xa5, 0xa0, 0x15, 0xbd, 0xea, 0x7f, 0x52, 0xbe, 0x1c, 0xf6, 0xd9, 0x3d,
  0xae, 0x12, 0x37, 0xbe, 0x17, 0xd7, 0x65, 0x3e, 0xdd, 0x8b, 0x91, 0xbe,
  0x4f, 0x14, 0xdd, 0x3c, 0x74, 0x23, 0x51, 0x3e, 0xe2, 0xdd, 0x96, 0x3e,
  0x27, 0x8a, 0xd1, 0xbc, 0xca, 0xae, 0x5e, 0x3e, 0x9c, 0xef, 0x63, 0x3e,
  0x2c, 0xe0, 0x3e, 0x3d, 0xb1, 0xf6, 0x83, 0x3e, 0x8d, 0x77, 0xb0, 0xbd,
  0xe6, 0x9f, 0xb5, 0xbc, 0x14, 0xc8, 0x79, 0xbe, 0x04, 0xbe, 0x00, 0x3a,
  0xa1, 0x48, 0x79, 0x3e, 0xbc, 0x94, 0x57, 0x3d, 0x37, 0x87, 0x59, 0xbe,
  0xb5, 0x0a, 0x4e, 0x3e, 0x13, 0x7c, 0x09, 0x3e, 0x13, 0xbf, 0x67, 0x3e,
  0xf2, 0x2e, 0xbf, 0xbd, 0x0e, 0xc9, 0xe3, 0x3c, 0x37, 0x84, 0x87, 0xbe,
  0x24, 0xae, 0x46, 0x3e, 0x7b, 0x3a, 0x50, 0xbe, 0xb6, 0x5f, 0x5d, 0x3e,
  0xb9, 0xe5, 0x47, 0xbe, 0x3a, 0x93, 0x4f, 0x3e, 0x07, 0x42, 0xfb, 0xbd,
  0x2d, 0x23, 0x82, 0xbe, 0xf2, 0x6d, 0x8f, 0x3e, 0x25, 0xd9, 0x41, 0x3e,
  0x43, 0x54, 0x1a, 0x3d, 0x89, 0x32, 0x61, 0xbc, 0xcc, 0xcd, 0xd5, 0x3d,
  0x9e, 0x1c, 0xb4, 0xbe, 0x2e, 0xf6, 0x86, 0xbe, 0xdf, 0x9f, 0x87, 0xbe,
  0xde, 0x72, 0x5a, 0x3e, 0xb6, 0xf6, 0x81, 0x3e, 0x2d, 0x03, 0x92, 0x3d,
  0xf2, 0x8d, 0x4c, 0x3c, 0xc6, 0x7f, 0x9a, 0xbe, 0xa5, 0xd2, 0x77, 0x3e,
  0xd9, 0x2f, 0x65, 0x3e, 0xe0, 0x03, 0x81, 0x3e, 0x51, 0x70, 0x03, 0x3e,
  0x8e, 0xf5, 0x9b, 0x3e, 0x53, 0x70, 0x87, 0xbe, 0xca, 0xe2, 0xbe, 0xbd,
  0xe2, 0x07, 0x05, 0xbe, 0xad, 0x8f, 0x8c, 0xbd, 0x90, 0x16, 0x23, 0x3e,
  0x9b, 0xaa, 0x33, 0x3e, 0xfb, 0xdc, 0x83, 0xbe, 0x67, 0x89, 0x01, 0x3e,
  0xfe, 0xe9, 0x79, 0x3d, 0xdb, 0x7c, 0x1f, 0xbe, 0x1f, 0x27, 0x71, 0x3e,
  0xa2, 0xfe, 0xff, 0xff, 0x10, 0x00, 0x00, 0x00, 0x04, 0x00, 0x00, 0x00,
  0x1c, 0x00, 0x00, 0x00, 0x38, 0x00, 0x00, 0x00, 0x04, 0x00, 0x00, 0x00,
  0x10, 0x00, 0x00, 0x00, 0x03, 0x00, 0x00, 0x00, 0x03, 0x00, 0x00, 0x00,
  0x08, 0x00, 0x00, 0x00, 0x1a, 0x00, 0x00, 0x00, 0x73, 0x65, 0x71, 0x75,
  0x65, 0x6e, 0x74, 0x69, 0x61, 0x6c, 0x2f, 0x63, 0x6f, 0x6e, 0x76, 0x32,
  0x64, 0x5f, 0x31, 0x2f, 0x43, 0x6f, 0x6e, 0x76, 0x32, 0x44, 0x00, 0x00,
  0xe8, 0xfd, 0xff, 0xff, 0x42, 0xff, 0xff, 0xff, 0x04, 0x00, 0x00, 0x00,
  0x20, 0x00, 0x00, 0x00, 0x86, 0x44, 0x96, 0x39, 0x3d, 0x3e, 0xe4, 0x3d,
  0x7a, 0x71, 0xc7, 0xb7, 0x73, 0x36, 0x88, 0xbb, 0xef, 0xe2, 0x4f, 0x3d,
  0x0d, 0xfc, 0x51, 0x3a, 0xef, 0xde, 0xb0, 0x3b, 0xe3, 0x8a, 0x14, 0x39,
  0x1a, 0xff, 0xff, 0xff, 0x10, 0x00, 0x00, 0x00, 0x03, 0x00, 0x00, 0x00,
  0x10, 0x00, 0x00, 0x00, 0x7c, 0x00, 0x00, 0x00, 0x01, 0x00, 0x00, 0x00,
  0x08, 0x00, 0x00, 0x00, 0x64, 0x00, 0x00, 0x00, 0x73, 0x65, 0x71, 0x75,
  0x65, 0x6e, 0x74, 0x69, 0x61, 0x6c, 0x2f, 0x63, 0x6f, 0x6e, 0x76, 0x32,
  0x64, 0x2f, 0x42, 0x69, 0x61, 0x73, 0x41, 0x64, 0x64, 0x3b, 0x73, 0x65,
  0x71, 0x75, 0x65, 0x6e, 0x74, 0x69, 0x61, 0x6c, 0x2f, 0x63, 0x6f, 0x6e,
  0x76, 0x32, 0x64, 0x2f, 0x43, 0x6f, 0x6e, 0x76, 0x32, 0x44, 0x3b, 0x73,
  0x65, 0x71, 0x75, 0x65, 0x6e, 0x74, 0x69, 0x61, 0x6c, 0x2f, 0x63, 0x6f,
  0x6e, 0x76, 0x32, 0x64, 0x2f, 0x42, 0x69, 0x61, 0x73, 0x41, 0x64, 0x64,
  0x2f, 0x52, 0x65, 0x61, 0x64, 0x56, 0x61, 0x72, 0x69, 0x61, 0x62, 0x6c,
  0x65, 0x4f, 0x70, 0x2f, 0x72, 0x65, 0x73, 0x6f, 0x75, 0x72, 0x63, 0x65,
  0x00, 0x00, 0x00, 0x00, 0x04, 0x00, 0x06, 0x00, 0x04, 0x00, 0x00, 0x00,
  0x00, 0x00, 0x06, 0x00, 0x08, 0x00, 0x04, 0x00, 0x06, 0x00, 0x00, 0x00,
  0x04, 0x00, 0x00, 0x00, 0x40, 0x00, 0x00, 0x00, 0x33, 0x8f, 0xd1, 0x3d,
  0x7e, 0x56, 0x52, 0x3b, 0x00, 0x00, 0x00, 0x00, 0xc5, 0x7a, 0x8e, 0xbc,
  0xbd, 0x4d, 0xee, 0x3c, 0x90, 0xea, 0xbc, 0xbd, 0xdd, 0x57, 0x84, 0x3c,
  0x6b, 0xb8, 0x0b, 0x3e, 0xe9, 0xa6, 0xc8, 0x3d, 0xc2, 0xb5, 0x9a, 0x3d,
  0x30, 0x5c, 0xfd, 0xbd, 0xa4, 0xbb, 0x07, 0x3e, 0xe7, 0xb9, 0x38, 0x3b,
  0x27, 0xe2, 0x46, 0x3e, 0x97, 0x86, 0x91, 0x3d, 0xdd, 0x93, 0xb8, 0x3d,
  0x00, 0x00, 0x0e, 0x00, 0x14, 0x00, 0x04, 0x00, 0x00, 0x00, 0x08, 0x00,
  0x0c, 0x00, 0x10, 0x00, 0x0e, 0x00, 0x00, 0x00, 0x10, 0x00, 0x00, 0x00,
  0x02, 0x00, 0x00, 0x00, 0x10, 0x00, 0x00, 0x00, 0x7c, 0x00, 0x00, 0x00,
  0x01, 0x00, 0x00, 0x00, 0x10, 0x00, 0x00, 0x00, 0x6a, 0x00, 0x00, 0x00,
  0x73, 0x65, 0x71, 0x75, 0x65, 0x6e, 0x74, 0x69, 0x61, 0x6c, 0x2f, 0x63,
  0x6f, 0x6e, 0x76, 0x32, 0x64, 0x5f, 0x31, 0x2f, 0x42, 0x69, 0x61, 0x73,
  0x41, 0x64, 0x64, 0x3b, 0x73, 0x65, 0x71, 0x75, 0x65, 0x6e, 0x74, 0x69,
  0x61, 0x6c, 0x2f, 0x63, 0x6f, 0x6e, 0x76, 0x32, 0x64, 0x5f, 0x31, 0x2f,
  0x43, 0x6f, 0x6e, 0x76, 0x32, 0x44, 0x3b, 0x73, 0x65, 0x71, 0x75, 0x65,
  0x6e, 0x74, 0x69, 0x61, 0x6c, 0x2f, 0x63, 0x6f, 0x6e, 0x76, 0x32, 0x64,
  0x5f, 0x31, 0x2f, 0x42, 0x69, 0x61, 0x73, 0x41, 0x64, 0x64, 0x2f, 0x52,
  0x65, 0x61, 0x64, 0x56, 0x61, 0x72, 0x69, 0x61, 0x62, 0x6c, 0x65, 0x4f,
  0x70, 0x2f, 0x72, 0x65, 0x73, 0x6f, 0x75, 0x72, 0x63, 0x65, 0x00, 0x00,
  0x98, 0xff, 0xff, 0xff, 0x14, 0x00, 0x18, 0x00, 0x04, 0x00, 0x00, 0x00,
  0x08, 0x00, 0x0c, 0x00, 0x10, 0x00, 0x00, 0x00, 0x00, 0x00, 0x14, 0x00,
  0x14, 0x00, 0x00, 0x00, 0x14, 0x00, 0x00, 0x00, 0x01, 0x00, 0x00, 0x00,
  0x34, 0x00, 0x00, 0x00, 0x3c, 0x00, 0x00, 0x00, 0x18, 0x00, 0x00, 0x00,
  0x04, 0x00, 0x00, 0x00, 0x01, 0x00, 0x00, 0x00, 0x10, 0x00, 0x00, 0x00,
  0x10, 0x00, 0x00, 0x00, 0x01, 0x00, 0x00, 0x00, 0x04, 0x00, 0x00, 0x00,
  0xff, 0xff, 0xff, 0xff, 0x10, 0x00, 0x00, 0x00, 0x10, 0x00, 0x00, 0x00,
  0x01, 0x00, 0x00, 0x00, 0x07, 0x00, 0x00, 0x00, 0x69, 0x6e, 0x70, 0x75,
  0x74, 0x5f, 0x31, 0x00, 0xfc, 0xff, 0xff, 0xff, 0x04, 0x00, 0x04, 0x00,
  0x04, 0x00, 0x00, 0x00
};
unsigned int _mnt_e_sandbox_esp32_funchuk_training_output_gesture_model_tflite_len = 12736;
