#include "gesture_model_tflite.h"
unsigned char gesture_model_tflite_data[] = {
  0x1c, 0x00, 0x00, 0x00, 0x54, 0x46, 0x4c, 0x33, 0x14, 0x00, 0x20, 0x00,
  0x04, 0x00, 0x08, 0x00, 0x0c, 0x00, 0x10, 0x00, 0x14, 0x00, 0x00, 0x00,
  0x18, 0x00, 0x1c, 0x00, 0x14, 0x00, 0x00, 0x00, 0x03, 0x00, 0x00, 0x00,
  0x18, 0x00, 0x00, 0x00, 0x2c, 0x00, 0x00, 0x00, 0xd8, 0x00, 0x00, 0x00,
  0x2c, 0x00, 0x00, 0x00, 0x80, 0x00, 0x00, 0x00, 0x78, 0x00, 0x00, 0x00,
  0x05, 0x00, 0x00, 0x00, 0x1c, 0x07, 0x00, 0x00, 0x38, 0x06, 0x00, 0x00,
  0xac, 0x03, 0x00, 0x00, 0xe8, 0x02, 0x00, 0x00, 0xac, 0x01, 0x00, 0x00,
  0x01, 0x00, 0x00, 0x00, 0xd0, 0x00, 0x00, 0x00, 0x14, 0x00, 0x00, 0x00,
  0x5c, 0x31, 0x00, 0x00, 0x58, 0x31, 0x00, 0x00, 0x00, 0x30, 0x00, 0x00,
  0x38, 0x2f, 0x00, 0x00, 0xdc, 0x1c, 0x00, 0x00, 0x60, 0x1b, 0x00, 0x00,
  0xb8, 0x1a, 0x00, 0x00, 0x38, 0x1a, 0x00, 0x00, 0xcc, 0x19, 0x00, 0x00,
  0x7c, 0x09, 0x00, 0x00, 0xa8, 0x07, 0x00, 0x00, 0x30, 0x31, 0x00, 0x00,
  0x2c, 0x31, 0x00, 0x00, 0x28, 0x31, 0x00, 0x00, 0x24, 0x31, 0x00, 0x00,
  0x20, 0x31, 0x00, 0x00, 0x1c, 0x31, 0x00, 0x00, 0x18, 0x31, 0x00, 0x00,
  0x14, 0x31, 0x00, 0x00, 0x3c, 0x00, 0x00, 0x00, 0x00, 0x00, 0x00, 0x00,
  0x01, 0x00, 0x00, 0x00, 0x0c, 0x00, 0x00, 0x00, 0x08, 0x00, 0x0c, 0x00,
  0x04, 0x00, 0x08, 0x00, 0x08, 0x00, 0x00, 0x00, 0x08, 0x00, 0x00, 0x00,
  0x13, 0x00, 0x00, 0x00, 0x13, 0x00, 0x00, 0x00, 0x6d, 0x69, 0x6e, 0x5f,
  0x72, 0x75, 0x6e, 0x74, 0x69, 0x6d, 0x65, 0x5f, 0x76, 0x65, 0x72, 0x73,
  0x69, 0x6f, 0x6e, 0x00, 0x86, 0xd0, 0xff, 0xff, 0x04, 0x00, 0x00, 0x00,
  0x10, 0x00, 0x00, 0x00, 0x31, 0x2e, 0x35, 0x2e, 0x30, 0x00, 0x00, 0x00,
  0x00, 0x00, 0x00, 0x00, 0x00, 0x00, 0x00, 0x00, 0x0f, 0x00, 0x00, 0x00,
  0x4d, 0x4c, 0x49, 0x52, 0x20, 0x43, 0x6f, 0x6e, 0x76, 0x65, 0x72, 0x74,
  0x65, 0x64, 0x2e, 0x00, 0x00, 0x00, 0x0e, 0x00, 0x18, 0x00, 0x04, 0x00,
  0x08, 0x00, 0x0c, 0x00, 0x10, 0x00, 0x14, 0x00, 0x0e, 0x00, 0x00, 0x00,
  0x14, 0x00, 0x00, 0x00, 0x5c, 0x00, 0x00, 0x00, 0x60, 0x00, 0x00, 0x00,
  0x64, 0x00, 0x00, 0x00, 0x84, 0x00, 0x00, 0x00, 0x12, 0x00, 0x00, 0x00,
  0x24, 0x30, 0x00, 0x00, 0x7c, 0x2f, 0x00, 0x00, 0x84, 0x2e, 0x00, 0x00,
  0x08, 0x2e, 0x00, 0x00, 0xac, 0x1b, 0x00, 0x00, 0x24, 0x1a, 0x00, 0x00,
  0x7c, 0x19, 0x00, 0x00, 0x10, 0x19, 0x00, 0x00, 0xa8, 0x18, 0x00, 0x00,
  0x54, 0x08, 0x00, 0x00, 0x00, 0x06, 0x00, 0x00, 0x1c, 0x05, 0x00, 0x00,
  0xdc, 0x03, 0x00, 0x00, 0x30, 0x03, 0x00, 0x00, 0x88, 0x02, 0x00, 0x00,
  0xc4, 0x01, 0x00, 0x00, 0x00, 0x01, 0x00, 0x00, 0x84, 0x00, 0x00, 0x00,
  0x01, 0x00, 0x00, 0x00, 0x00, 0x00, 0x00, 0x00, 0x01, 0x00, 0x00, 0x00,
  0x11, 0x00, 0x00, 0x00, 0x08, 0x00, 0x00, 0x00, 0x68, 0x05, 0x00, 0x00,
  0x88, 0x04, 0x00, 0x00, 0x6c, 0x03, 0x00, 0x00, 0xbc, 0x02, 0x00, 0x00,
  0x20, 0x02, 0x00, 0x00, 0x40, 0x01, 0x00, 0x00, 0x98, 0x00, 0x00, 0x00,
  0x10, 0x00, 0x00, 0x00, 0x04, 0x00, 0x00, 0x00, 0x6d, 0x61, 0x69, 0x6e,
  0x00, 0x00, 0x00, 0x00, 0x72, 0xfd, 0xff, 0xff, 0x00, 0x00, 0x00, 0x09,
  0x04, 0x00, 0x00, 0x00, 0x1c, 0x00, 0x00, 0x00, 0x10, 0x00, 0x00, 0x00,
  0x04, 0x00, 0x00, 0x00, 0x82, 0xd1, 0xff, 0xff, 0x00, 0x00, 0x80, 0x3f,
  0x01, 0x00, 0x00, 0x00, 0x11, 0x00, 0x00, 0x00, 0x01, 0x00, 0x00, 0x00,
  0x10, 0x00, 0x00, 0x00, 0xac, 0xfa, 0xff, 0xff, 0x19, 0x00, 0x00, 0x00,
  0x00, 0x00, 0x00, 0x19, 0x01, 0x00, 0x00, 0x00, 0xb8, 0xd0, 0xff, 0xff,
  0x14, 0x00, 0x00, 0x00, 0x12, 0x00, 0x00, 0x00, 0x18, 0x00, 0x00, 0x00,
  0x30, 0x00, 0x00, 0x00, 0x20, 0x00, 0x00, 0x00, 0x02, 0x00, 0x00, 0x00,
  0x01, 0x00, 0x00, 0x00, 0x06, 0x00, 0x00, 0x00, 0x08, 0x00, 0x00, 0x00,
  0x49, 0x64, 0x65, 0x6e, 0x74, 0x69, 0x74, 0x79, 0x00, 0x00, 0x00, 0x00,
  0x02, 0x00, 0x00, 0x00, 0xff, 0xff, 0xff, 0xff, 0x06, 0x00, 0x00, 0x00,
  0x94, 0xd0, 0xff, 0xff, 0xf6, 0xfd, 0xff, 0xff, 0x00, 0x00, 0x00, 0x08,
  0x03, 0x00, 0x00, 0x00, 0x18, 0x00, 0x00, 0x00, 0x0c, 0x00, 0x00, 0x00,
  0x04, 0x00, 0x00, 0x00, 0xb0, 0xd0, 0xff, 0xff, 0x01, 0x00, 0x00, 0x00,
  0x10, 0x00, 0x00, 0x00, 0x03, 0x00, 0x00, 0x00, 0x0f, 0x00, 0x00, 0x00,
  0x09, 0x00, 0x00, 0x00, 0x06, 0x00, 0x00, 0x00, 0x30, 0xd1, 0xff, 0xff,
  0x14, 0x00, 0x00, 0x00, 0x11, 0x00, 0x00, 0x00, 0x18, 0x00, 0x00, 0x00,
  0x5c, 0x00, 0x00, 0x00, 0x4c, 0x00, 0x00, 0x00, 0x02, 0x00, 0x00, 0x00,
  0x01, 0x00, 0x00, 0x00, 0x06, 0x00, 0x00, 0x00, 0x34, 0x00, 0x00, 0x00,
  0x73, 0x65, 0x71, 0x75, 0x65, 0x6e, 0x74, 0x69, 0x61, 0x6c, 0x2f, 0x64,
  0x65, 0x6e, 0x73, 0x65, 0x5f, 0x31, 0x2f, 0x4d, 0x61, 0x74, 0x4d, 0x75,
  0x6c, 0x3b, 0x73, 0x65, 0x71, 0x75, 0x65, 0x6e, 0x74, 0x69, 0x61, 0x6c,
  0x2f, 0x64, 0x65, 0x6e, 0x73, 0x65, 0x5f, 0x31, 0x2f, 0x42, 0x69, 0x61,
  0x73, 0x41, 0x64, 0x64, 0x00, 0x00, 0x00, 0x00, 0x02, 0x00, 0x00, 0x00,
  0xff, 0xff, 0xff, 0xff, 0x06, 0x00, 0x00, 0x00, 0x38, 0xd1, 0xff, 0xff,
  0xd6, 0xfc, 0xff, 0xff, 0x00, 0x00, 0x00, 0x08, 0x03, 0x00, 0x00, 0x00,
  0x24, 0x00, 0x00, 0x00, 0x18, 0x00, 0x00, 0x00, 0x0c, 0x00, 0x00, 0x00,
  0x00, 0x00, 0x06, 0x00, 0x08, 0x00, 0x07, 0x00, 0x06, 0x00, 0x00, 0x00,
  0x00, 0x00, 0x00, 0x01, 0x01, 0x00, 0x00, 0x00, 0x0f, 0x00, 0x00, 0x00,
  0x03, 0x00, 0x00, 0x00, 0x0e, 0x00, 0x00, 0x00, 0x08, 0x00, 0x00, 0x00,
  0x05, 0x00, 0x00, 0x00, 0xe4, 0xfb, 0xff, 0xff, 0x09, 0x00, 0x00, 0x00,
  0x00, 0x00, 0x00, 0x09, 0x01, 0x00, 0x00, 0x00, 0xf0, 0xd1, 0xff, 0xff,
  0x14, 0x00, 0x00, 0x00, 0x10, 0x00, 0x00, 0x00, 0x18, 0x00, 0x00, 0x00,
  0x6c, 0x00, 0x00, 0x00, 0x5c, 0x00, 0x00, 0x00, 0x02, 0x00, 0x00, 0x00,
  0x01, 0x00, 0x00, 0x00, 0x10, 0x00, 0x00, 0x00, 0x46, 0x00, 0x00, 0x00,
  0x73, 0x65, 0x71, 0x75, 0x65, 0x6e, 0x74, 0x69, 0x61, 0x6c, 0x2f, 0x64,
  0x65, 0x6e, 0x73, 0x65, 0x2f, 0x4d, 0x61, 0x74, 0x4d, 0x75, 0x6c, 0x3b,
  0x73, 0x65, 0x71, 0x75, 0x65, 0x6e, 0x74, 0x69, 0x61, 0x6c, 0x2f, 0x64,
  0x65, 0x6e, 0x73, 0x65, 0x2f, 0x42, 0x69, 0x61, 0x73, 0x41, 0x64, 0x64,
  0x3b, 0x73, 0x65, 0x71, 0x75, 0x65, 0x6e, 0x74, 0x69, 0x61, 0x6c, 0x2f,
  0x64, 0x65, 0x6e, 0x73, 0x65, 0x2f, 0x52, 0x65, 0x6c, 0x75, 0x00, 0x00,
  0x02, 0x00, 0x00, 0x00, 0xff, 0xff, 0xff, 0xff, 0x10, 0x00, 0x00, 0x00,
  0x68, 0xd3, 0xff, 0xff, 0x00, 0x00, 0x0a, 0x00, 0x10, 0x00, 0x04, 0x00,
  0x08, 0x00, 0x0c, 0x00, 0x0a, 0x00, 0x00, 0x00, 0x02, 0x00, 0x00, 0x00,
  0x10, 0x00, 0x00, 0x00, 0x04, 0x00, 0x00, 0x00, 0x01, 0x00, 0x00, 0x00,
  0x0e, 0x00, 0x00, 0x00, 0x02, 0x00, 0x00, 0x00, 0x0d, 0x00, 0x00, 0x00,
  0x07, 0x00, 0x00, 0x00, 0xa4, 0xfc, 0xff, 0xff, 0x16, 0x00, 0x00, 0x00,
  0x00, 0x00, 0x00, 0x16, 0x01, 0x00, 0x00, 0x00, 0xb0, 0xd2, 0xff, 0xff,
  0x14, 0x00, 0x00, 0x00, 0x0f, 0x00, 0x00, 0x00, 0x18, 0x00, 0x00, 0x00,
  0x40, 0x00, 0x00, 0x00, 0x30, 0x00, 0x00, 0x00, 0x02, 0x00, 0x00, 0x00,
  0x01, 0x00, 0x00, 0x00, 0x40, 0x00, 0x00, 0x00, 0x1a, 0x00, 0x00, 0x00,
  0x73, 0x65, 0x71, 0x75, 0x65, 0x6e, 0x74, 0x69, 0x61, 0x6c, 0x2f, 0x66,
  0x6c, 0x61, 0x74, 0x74, 0x65, 0x6e, 0x2f, 0x52, 0x65, 0x73, 0x68, 0x61,
  0x70, 0x65, 0x00, 0x00, 0x02, 0x00, 0x00, 0x00, 0xff, 0xff, 0xff, 0xff,
  0x40, 0x00, 0x00, 0x00, 0xfc, 0xd3, 0xff, 0xff, 0x00, 0x00, 0x0e, 0x00,
  0x18, 0x00, 0x08, 0x00, 0x0c, 0x00, 0x10, 0x00, 0x07, 0x00, 0x14, 0x00,
  0x0e, 0x00, 0x00, 0x00, 0x00, 0x00, 0x00, 0x05, 0x01, 0x00, 0x00, 0x00,
  0x2c, 0x00, 0x00, 0x00, 0x20, 0x00, 0x00, 0x00, 0x04, 0x00, 0x00, 0x00,
  0x3a, 0xfe, 0xff, 0xff, 0x02, 0x00, 0x00, 0x00, 0x02, 0x00, 0x00, 0x00,
  0x02, 0x00, 0x00, 0x00, 0x02, 0x00, 0x00, 0x00, 0x00, 0x00, 0x00, 0x01,
  0x01, 0x00, 0x00, 0x00, 0x0d, 0x00, 0x00, 0x00, 0x01, 0x00, 0x00, 0x00,
  0x0c, 0x00, 0x00, 0x00, 0x54, 0xd3, 0xff, 0xff, 0x14, 0x00, 0x00, 0x00,
  0x0e, 0x00, 0x00, 0x00, 0x20, 0x00, 0x00, 0x00, 0x58, 0x00, 0x00, 0x00,
  0x40, 0x00, 0x00, 0x00, 0x04, 0x00, 0x00, 0x00, 0x01, 0x00, 0x00, 0x00,
  0x02, 0x00, 0x00, 0x00, 0x02, 0x00, 0x00, 0x00, 0x10, 0x00, 0x00, 0x00,
  0x22, 0x00, 0x00, 0x00, 0x73, 0x65, 0x71, 0x75, 0x65, 0x6e, 0x74, 0x69,
  0x61, 0x6c, 0x2f, 0x6d, 0x61, 0x78, 0x5f, 0x70, 0x6f, 0x6f, 0x6c, 0x69,
  0x6e, 0x67, 0x32, 0x64, 0x5f, 0x31, 0x2f, 0x4d, 0x61, 0x78, 0x50, 0x6f,
  0x6f, 0x6c, 0x00, 0x00, 0x04, 0x00, 0x00, 0x00, 0xff, 0xff, 0xff, 0xff,
  0x02, 0x00, 0x00, 0x00, 0x02, 0x00, 0x00, 0x00, 0x10, 0x00, 0x00, 0x00,
  0x58, 0xd3, 0xff, 0xff, 0x1a, 0xfe, 0xff, 0xff, 0x00, 0x00, 0x00, 0x01,
  0x24, 0x00, 0x00, 0x00, 0x18, 0x00, 0x00, 0x00, 0x04, 0x00, 0x00, 0x00,
  0x0c, 0xfe, 0xff, 0xff, 0x01, 0x00, 0x00, 0x00, 0x01, 0x00, 0x00, 0x00,
  0x00, 0x00, 0x01, 0x01, 0x01, 0x00, 0x00, 0x00, 0x0c, 0x00, 0x00, 0x00,
  0x03, 0x00, 0x00, 0x00, 0x0b, 0x00, 0x00, 0x00, 0x03, 0x00, 0x00, 0x00,
  0x01, 0x00, 0x00, 0x00, 0xfc, 0xd3, 0xff, 0xff, 0x14, 0x00, 0x00, 0x00,
  0x0d, 0x00, 0x00, 0x00, 0x20, 0x00, 0x00, 0x00, 0xb8, 0x00, 0x00, 0x00,
  0xa0, 0x00, 0x00, 0x00, 0x04, 0x00, 0x00, 0x00, 0x01, 0x00, 0x00, 0x00,
  0x05, 0x00, 0x00, 0x00, 0x05, 0x00, 0x00, 0x00, 0x10, 0x00, 0x00, 0x00,
  0x83, 0x00, 0x00, 0x00, 0x73, 0x65, 0x71, 0x75, 0x65, 0x6e, 0x74, 0x69,
  0x61, 0x6c, 0x2f, 0x63, 0x6f, 0x6e, 0x76, 0x32, 0x64, 0x5f, 0x31, 0x2f,
  0x52, 0x65, 0x6c, 0x75, 0x3b, 0x73, 0x65, 0x71, 0x75, 0x65, 0x6e, 0x74,
  0x69, 0x61, 0x6c, 0x2f, 0x63, 0x6f, 0x6e, 0x76, 0x32, 0x64, 0x5f, 0x31,
  0x2f, 0x42, 0x69, 0x61, 0x73, 0x41, 0x64, 0x64, 0x3b, 0x73, 0x65, 0x71,
  0x75, 0x65, 0x6e, 0x74, 0x69, 0x61, 0x6c, 0x2f, 0x63, 0x6f, 0x6e, 0x76,
  0x32, 0x64, 0x5f, 0x31, 0x2f, 0x43, 0x6f, 0x6e, 0x76, 0x32, 0x44, 0x3b,
  0x73, 0x65, 0x71, 0x75, 0x65, 0x6e, 0x74, 0x69, 0x61, 0x6c, 0x2f, 0x63,
  0x6f, 0x6e, 0x76, 0x32, 0x64, 0x5f, 0x31, 0x2f, 0x42, 0x69, 0x61, 0x73,
  0x41, 0x64, 0x64, 0x2f, 0x52, 0x65, 0x61, 0x64, 0x56, 0x61, 0x72, 0x69,
  0x61, 0x62, 0x6c, 0x65, 0x4f, 0x70, 0x2f, 0x72, 0x65, 0x73, 0x6f, 0x75,
  0x72, 0x63, 0x65, 0x00, 0x04, 0x00, 0x00, 0x00, 0xff, 0xff, 0xff, 0xff,
  0x05, 0x00, 0x00, 0x00, 0x05, 0x00, 0x00, 0x00, 0x10, 0x00, 0x00, 0x00,
  0xc0, 0xd5, 0xff, 0xff, 0x00, 0x00, 0x0e, 0x00, 0x1a, 0x00, 0x08, 0x00,
  0x0c, 0x00, 0x10, 0x00, 0x07, 0x00, 0x14, 0x00, 0x0e, 0x00, 0x00, 0x00,
  0x00, 0x00, 0x00, 0x05, 0x01, 0x00, 0x00, 0x00, 0x3c, 0x00, 0x00, 0x00,
  0x30, 0x00, 0x00, 0x00, 0x14, 0x00, 0x00, 0x00, 0x00, 0x00, 0x0e, 0x00,
  0x18, 0x00, 0x17, 0x00, 0x10, 0x00, 0x0c, 0x00, 0x08, 0x00, 0x04, 0x00,
  0x0e, 0x00, 0x00, 0x00, 0x02, 0x00, 0x00, 0x00, 0x02, 0x00, 0x00, 0x00,
  0x02, 0x00, 0x00, 0x00, 0x02, 0x00, 0x00, 0x00, 0x00, 0x00, 0x00, 0x01,
  0x01, 0x00, 0x00, 0x00, 0x0b, 0x00, 0x00, 0x00, 0x01, 0x00, 0x00, 0x00,
  0x0a, 0x00, 0x00, 0x00, 0x2c, 0xff, 0xff, 0xff, 0x11, 0x00, 0x00, 0x00,
  0x00, 0x00, 0x00, 0x11, 0x01, 0x00, 0x00, 0x00, 0x38, 0xd5, 0xff, 0xff,
  0x14, 0x00, 0x00, 0x00, 0x0c, 0x00, 0x00, 0x00, 0x20, 0x00, 0x00, 0x00,
  0x58, 0x00, 0x00, 0x00, 0x40, 0x00, 0x00, 0x00, 0x04, 0x00, 0x00, 0x00,
  0x01, 0x00, 0x00, 0x00, 0x07, 0x00, 0x00, 0x00, 0x07, 0x00, 0x00, 0x00,
  0x08, 0x00, 0x00, 0x00, 0x20, 0x00, 0x00, 0x00, 0x73, 0x65, 0x71, 0x75,
  0x65, 0x6e, 0x74, 0x69, 0x61, 0x6c, 0x2f, 0x6d, 0x61, 0x78, 0x5f, 0x70,
  0x6f, 0x6f, 0x6c, 0x69, 0x6e, 0x67, 0x32, 0x64, 0x2f, 0x4d, 0x61, 0x78,
  0x50, 0x6f, 0x6f, 0x6c, 0x00, 0x00, 0x00, 0x00, 0x04, 0x00, 0x00, 0x00,
  0xff, 0xff, 0xff, 0xff, 0x07, 0x00, 0x00, 0x00, 0x07, 0x00, 0x00, 0x00,
  0x08, 0x00, 0x00, 0x00, 0x9c, 0xd6, 0xff, 0xff, 0x00, 0x00, 0x0e, 0x00,
  0x14, 0x00, 0x00, 0x00, 0x08, 0x00, 0x0c, 0x00, 0x07, 0x00, 0x10, 0x00,
  0x0e, 0x00, 0x00, 0x00, 0x00, 0x00, 0x00, 0x01, 0x30, 0x00, 0x00, 0x00,
  0x24, 0x00, 0x00, 0x00, 0x10, 0x00, 0x00, 0x00, 0x0c, 0x00, 0x10, 0x00,
  0x0e, 0x00, 0x04, 0x00, 0x08, 0x00, 0x0f, 0x00, 0x0c, 0x00, 0x00, 0x00,
  0x01, 0x00, 0x00, 0x00, 0x01, 0x00, 0x00, 0x00, 0x00, 0x00, 0x01, 0x01,
  0x01, 0x00, 0x00, 0x00, 0x0a, 0x00, 0x00, 0x00, 0x03, 0x00, 0x00, 0x00,
  0x00, 0x00, 0x00, 0x00, 0x04, 0x00, 0x00, 0x00, 0x02, 0x00, 0x00, 0x00,
  0x0c, 0x00, 0x10, 0x00, 0x0b, 0x00, 0x00, 0x00, 0x0c, 0x00, 0x04, 0x00,
  0x0c, 0x00, 0x00, 0x00, 0x03, 0x00, 0x00, 0x00, 0x00, 0x00, 0x00, 0x03,
  0x01, 0x00, 0x00, 0x00, 0x18, 0xd6, 0xff, 0xff, 0x14, 0x00, 0x00, 0x00,
  0x0b, 0x00, 0x00, 0x00, 0x20, 0x00, 0x00, 0x00, 0xb0, 0x00, 0x00, 0x00,
  0x98, 0x00, 0x00, 0x00, 0x04, 0x00, 0x00, 0x00, 0x01, 0x00, 0x00, 0x00,
  0x0e, 0x00, 0x00, 0x00, 0x0e, 0x00, 0x00, 0x00, 0x08, 0x00, 0x00, 0x00,
  0x7b, 0x00, 0x00, 0x00, 0x73, 0x65, 0x71, 0x75, 0x65, 0x6e, 0x74, 0x69,
  0x61, 0x6c, 0x2f, 0x63, 0x6f, 0x6e, 0x76, 0x32, 0x64, 0x2f, 0x52, 0x65,
  0x6c, 0x75, 0x3b, 0x73, 0x65, 0x71, 0x75, 0x65, 0x6e, 0x74, 0x69, 0x61,
  0x6c, 0x2f, 0x63, 0x6f, 0x6e, 0x76, 0x32, 0x64, 0x2f, 0x42, 0x69, 0x61,
  0x73, 0x41, 0x64, 0x64, 0x3b, 0x73, 0x65, 0x71, 0x75, 0x65, 0x6e, 0x74,
  0x69, 0x61, 0x6c, 0x2f, 0x63, 0x6f, 0x6e, 0x76, 0x32, 0x64, 0x2f, 0x43,
  0x6f, 0x6e, 0x76, 0x32, 0x44, 0x3b, 0x73, 0x65, 0x71, 0x75, 0x65, 0x6e,
  0x74, 0x69, 0x61, 0x6c, 0x2f, 0x63, 0x6f, 0x6e, 0x76, 0x32, 0x64, 0x2f,
  0x42, 0x69, 0x61, 0x73, 0x41, 0x64, 0x64, 0x2f, 0x52, 0x65, 0x61, 0x64,
  0x56, 0x61, 0x72, 0x69, 0x61, 0x62, 0x6c, 0x65, 0x4f, 0x70, 0x2f, 0x72,
  0x65, 0x73, 0x6f, 0x75, 0x72, 0x63, 0x65, 0x00, 0x04, 0x00, 0x00, 0x00,
  0xff, 0xff, 0xff, 0xff, 0x0e, 0x00, 0x00, 0x00, 0x0e, 0x00, 0x00, 0x00,
  0x08, 0x00, 0x00, 0x00, 0x74, 0xd6, 0xff, 0xff, 0xce, 0xd7, 0xff, 0xff,
  0x04, 0x00, 0x00, 0x00, 0x80, 0x01, 0x00, 0x00, 0xd0, 0xf2, 0x85, 0xbe,
  0x23, 0x3b, 0x02, 0xbf, 0x20, 0x2c, 0x5a, 0x3e, 0xb6, 0x10, 0x13, 0x3f,
  0x1a, 0xb6, 0x57, 0xbe, 0x3b, 0x57, 0x86, 0x3e, 0x00, 0x93, 0x2e, 0x3e,
  0x54, 0x54, 0xdf, 0x3d, 0x09, 0x5e, 0x82, 0xbe, 0xb5, 0x33, 0xd0, 0xbe,
  0x55, 0x1d, 0xf8, 0xbe, 0xa9, 0xff, 0xd4, 0xbe, 0x7e, 0x34, 0xbe, 0x3d,
  0x74, 0x6e, 0x68, 0xbe, 0xfd, 0x08, 0x48, 0x3e, 0x5a, 0xd3, 0x8e, 0xbe,
  0xf5, 0xa6, 0x24, 0xbf, 0xa8, 0x8a, 0x57, 0x3e, 0xdd, 0x15, 0xe9, 0xbe,
  0x72, 0x59, 0xcb, 0xbe, 0x08, 0x94, 0x29, 0x3f, 0x2f, 0x77, 0x92, 0xbe,
  0x3b, 0x23, 0x20, 0x3e, 0xda, 0xd7, 0x11, 0xbe, 0x2e, 0x7a, 0x38, 0xbe,
  0x05, 0xa3, 0x27, 0xbf, 0xd8, 0x6f, 0x01, 0x3e, 0x1d, 0x3d, 0xcb, 0xbe,
  0x22, 0x3e, 0x49, 0xbe, 0x94, 0x9a, 0x52, 0x3b, 0xfb, 0xf3, 0xfa, 0xbe,
  0xac, 0xfa, 0x3e, 0xbd, 0xc4, 0x3b, 0x14, 0x3e, 0x05, 0x33, 0xbb, 0x3c,
  0x19, 0xaa, 0x74, 0xbe, 0x30, 0x17, 0x22, 0xbf, 0xb5, 0x32, 0x21, 0xbe,
  0x7b, 0x91, 0x43, 0xbe, 0x2c, 0xac, 0xcc, 0xbe, 0xf0, 0xe6, 0x26, 0xbf,
  0xc5, 0xb8, 0xca, 0xbe, 0xf7, 0xad, 0x6b, 0x3f, 0x92, 0xc5, 0x72, 0xbe,
  0xa1, 0xf2, 0x8e, 0xbe, 0xf5, 0x74, 0x38, 0xbe, 0x13, 0xee, 0x0e, 0xbf,
  0x73, 0xca, 0x65, 0x3b, 0xa7, 0x16, 0x35, 0xbd, 0x7e, 0x6c, 0x2b, 0x3f,
  0x6a, 0x27, 0xa4, 0xbe, 0x50, 0x51, 0x07, 0xbf, 0x23, 0x18, 0xf1, 0xbe,
  0xcf, 0xc7, 0xbc, 0xbe, 0x55, 0x4b, 0x24, 0x3e, 0x7c, 0x52, 0xa2, 0xbe,
  0xf3, 0x31, 0xab, 0xbe, 0x40, 0x4c, 0xe5, 0xbd, 0x30, 0xa8, 0xa3, 0xbe,
  0xb5, 0x3b, 0x01, 0x3f, 0xe1, 0xb6, 0x3e, 0x3e, 0x56, 0x47, 0x87, 0x3c,
  0x3d, 0x58, 0x5f, 0x3f, 0x39, 0x12, 0x6b, 0x3b, 0xa5, 0x20, 0x05, 0x3e,
  0x01, 0x4a, 0x32, 0x3d, 0x85, 0x55, 0xb1, 0x3b, 0x3f, 0xf7, 0xa9, 0xbc,
  0x62, 0x9b, 0x75, 0xbe, 0xa8, 0xe6, 0x1a, 0x3b, 0x07, 0x76, 0x22, 0x3f,
  0x64, 0xf8, 0x12, 0xbf, 0xef, 0x8c, 0x14, 0x3f, 0x7c, 0x99, 0xe9, 0x3e,
  0x53, 0x98, 0x84, 0xbd, 0x2c, 0x2f, 0x13, 0x3e, 0x35, 0x1d, 0xb5, 0x3e,
  0x88, 0xc1, 0x0d, 0xbf, 0x34, 0x5c, 0x69, 0xbe, 0xd4, 0x2d, 0x7f, 0xbb,
  0xa0, 0xdc, 0x42, 0x3e, 0x3e, 0x19, 0x72, 0x3e, 0x81, 0x41, 0x5e, 0x3e,
  0x91, 0xa7, 0x4f, 0x3e, 0xf0, 0x1f, 0xbd, 0x3e, 0x9c, 0x1e, 0xba, 0xbe,
  0x6d, 0x04, 0x29, 0x3f, 0xed, 0x86, 0xdd, 0x3e, 0x35, 0x07, 0xb2, 0xbe,
  0x4b, 0x69, 0xfd, 0x3e, 0x13, 0xec, 0x0b, 0x3f, 0xb0, 0xb3, 0xdd, 0x3d,
  0x72, 0x87, 0x64, 0xbe, 0x49, 0x8c, 0x32, 0xbf, 0xd7, 0xa6, 0x8c, 0x3e,
  0xaf, 0x5f, 0x66, 0xbe, 0xb1, 0x61, 0x6c, 0xbf, 0x06, 0xd9, 0xff, 0xff,
  0x10, 0x00, 0x00, 0x00, 0x0a, 0x00, 0x00, 0x00, 0x14, 0x00, 0x00, 0x00,
  0x30, 0x00, 0x00, 0x00, 0x02, 0x00, 0x00, 0x00, 0x06, 0x00, 0x00, 0x00,
  0x10, 0x00, 0x00, 0x00, 0x19, 0x00, 0x00, 0x00, 0x73, 0x65, 0x71, 0x75,
  0x65, 0x6e, 0x74, 0x69, 0x61, 0x6c, 0x2f, 0x64, 0x65, 0x6e, 0x73, 0x65,
  0x5f, 0x31, 0x2f, 0x4d, 0x61, 0x74, 0x4d, 0x75, 0x6c, 0x00, 0x00, 0x00,
  0x44, 0xd8, 0xff, 0xff, 0x9e, 0xd9, 0xff, 0xff, 0x04, 0x00, 0x00, 0x00,
  0x00, 0x10, 0x00, 0x00, 0xa7, 0xac, 0x3e, 0xbe, 0x35, 0x70, 0xb6, 0x3d,
  0x23, 0x74, 0x58, 0x3e, 0x3f, 0xcb, 0x27, 0xbe, 0x49, 0x9b, 0x7c, 0xbe,
  0x55, 0xa7, 0x29, 0x3e, 0x24, 0xe3, 0x74, 0xbc, 0xfd, 0xca, 0x5c, 0x3e,
  0x69, 0xa8, 0xaf, 0x3e, 0x70, 0x50, 0x96, 0x3e, 0x78, 0xe7, 0xee, 0x3d,
  0x9b, 0x4b, 0x6b, 0xbe, 0x7e, 0xd0, 0xa0, 0x3e, 0xa5, 0xc6, 0x74, 0x3e,
  0x49, 0xd9, 0xe8, 0x3c, 0xab, 0x44, 0x50, 0x3e, 0x9c, 0x08, 0x93, 0x3d,
  0x74, 0x20, 0x9e, 0xbe, 0xb5, 0xa7, 0x67, 0x3d, 0x26, 0x7c, 0xda, 0xbd,
  0x50, 0xc1, 0x3f, 0x3d, 0xd6, 0xf6, 0x99, 0xbe, 0x58, 0xaf, 0x71, 0xbc,
  0xd6, 0xcb, 0xda, 0xbd, 0xf5, 0xb1, 0x80, 0xbd, 0x5f, 0x20, 0x38, 0x3e,
  0xd6, 0x2b, 0xfa, 0xbd, 0xbc, 0x3a, 0x19, 0x3d, 0x21, 0x90, 0x0b, 0xbb,
  0xbb, 0x35, 0xa5, 0x3d, 0x87, 0x46, 0x65, 0x3e, 0xa7, 0x8d, 0x6a, 0x3e,
  0xc6, 0xc3, 0x81, 0x3d, 0xc7, 0x1c, 0x28, 0x3e, 0xce, 0x0e, 0xb0, 0xbc,
  0x36, 0x6b, 0x12, 0x3e, 0xe8, 0x7f, 0x1e, 0x3e, 0xf7, 0x9a, 0xda, 0xbc,
  0xe4, 0xd6, 0xc7, 0x3e, 0x4f, 0x5c, 0xbc, 0xbd, 0x84, 0x19, 0xe0, 0x3d,
  0xdf, 0xc7, 0x76, 0xbe, 0xcf, 0x15, 0x62, 0xbd, 0x83, 0x86, 0x3b, 0x3c,
  0x98, 0x84, 0x72, 0x3e, 0x46, 0xec, 0x66, 0xbe, 0x38, 0xbc, 0x59, 0xbe,
  0xab, 0x59, 0x42, 0x3e, 0x91, 0xaf, 0x47, 0x3e, 0x56, 0xd2, 0x86, 0xbe,
  0x0e, 0xa1, 0x01, 0xbe, 0x12, 0x03, 0xb3, 0x3e, 0xca, 0x4a, 0x29, 0xbd,
  0x82, 0x63, 0xfa, 0x3d, 0x0a, 0x58, 0x53, 0x3e, 0x1a, 0x47, 0x75, 0x3e,
  0x73, 0x6b, 0xe4, 0xbe, 0x0c, 0xa9, 0x11, 0xbe, 0xe5, 0xc8, 0x03, 0x3e,
  0x93, 0xee, 0x2d, 0x3e, 0x74, 0x71, 0x56, 0x3d, 0xae, 0xc2, 0x8d, 0xbe,
  0x4d, 0xb0, 0x76, 0xbe, 0x0e, 0x0a, 0x6f, 0x3e, 0x11, 0xd2, 0x2d, 0xbe,
  0xba, 0xbb, 0x0e, 0xbd, 0x8a, 0x82, 0x84, 0xbe, 0x95, 0x9d, 0x1f, 0xbe,
  0x3f, 0x07, 0x96, 0xbc, 0x64, 0xd8, 0x92, 0x3e, 0x23, 0x7c, 0x99, 0xbe,
  0xb0, 0x88, 0x95, 0x3d, 0x91, 0x0e, 0x57, 0xbe, 0xed, 0x3b, 0x19, 0x3c,
  0x62, 0xc6, 0x23, 0xbe, 0x5d, 0xe1, 0x49, 0x3d, 0xf4, 0x4c, 0xc3, 0x3d,
  0xcd, 0xec, 0x4f, 0xbe, 0x2f, 0x4f, 0x25, 0xbd, 0xe1, 0x63, 0x90, 0x3e,
  0x80, 0xb8, 0x98, 0xbe, 0xbc, 0xe8, 0x25, 0x3e, 0x23, 0x57, 0xfb, 0xbd,
  0x71, 0x14, 0xaf, 0x3c, 0x87, 0x21, 0x94, 0x3e, 0xf5, 0xc5, 0x65, 0x3e,
  0x67, 0x79, 0xb6, 0x3d, 0x80, 0x18, 0x5e, 0xbb, 0xa0, 0x37, 0xfa, 0x3b,
  0x0f, 0xfb, 0x2f, 0xbd, 0xb8, 0x71, 0x0f, 0x3b, 0x13, 0x03, 0x97, 0x3e,
  0x05, 0x00, 0x38, 0xbd, 0x14, 0xbd, 0x4e, 0xbd, 0x39, 0xae, 0x41, 0xbc,
  0xf9, 0x1e, 0x55, 0xbe, 0x90, 0xdc, 0x86, 0xbe, 0x77, 0x3e, 0xa4, 0x3d,
  0xb6, 0x3d, 0x7a, 0x3d, 0x9a, 0xf6, 0x96, 0xbe, 0x1d, 0x04, 0x97, 0x3e,
  0xfc, 0xfb, 0x74, 0xbe, 0x9a, 0x83, 0x47, 0x3e, 0x60, 0xcf, 0x24, 0xbe,
  0x5b, 0xfa, 0x4e, 0xbe, 0x77, 0x44, 0x86, 0xbe, 0xf1, 0x85, 0x13, 0x3e,
  0xd3, 0x96, 0x63, 0xbd, 0xca, 0x87, 0x4f, 0x3e, 0xf5, 0xe7, 0x2a, 0x3e,
  0x36, 0x9b, 0x95, 0xbe, 0x02, 0xac, 0x98, 0x3e, 0x3b, 0x75, 0xf0, 0xbd,
  0x94, 0x1d, 0x21, 0xbe, 0x5c, 0xe0, 0x85, 0x3e, 0x5d, 0x3f, 0x96, 0xbe,
  0x40, 0xf1, 0xc9, 0x3d, 0xe8, 0x8d, 0x20, 0xbe, 0x84, 0xb7, 0x6a, 0x3e,
  0x7d, 0xc0, 0x6d, 0xbe, 0xf9, 0x9f, 0x72, 0xbe, 0xd2, 0x9b, 0x79, 0x3e,
  0x4c, 0x24, 0x98, 0xbe, 0xf5, 0x91, 0x88, 0x3e, 0x1f, 0x63, 0xf1, 0xbd,
  0x13, 0x1d, 0x3b, 0xbe, 0x9c, 0xdb, 0x16, 0xbe, 0x89, 0x32, 0x97, 0x3e,
  0x3d, 0x11, 0xc5, 0x3d, 0xe8, 0x56, 0x17, 0x3e, 0x3e, 0x07, 0x67, 0x3e,
  0xbe, 0x4f, 0x43, 0x3e, 0x7c, 0xbe, 0x8b, 0x3d, 0x92, 0xd6, 0x1d, 0x3d,
  0x3b, 0xd8, 0xbb, 0xbc, 0x07, 0x8b, 0xbf, 0xbd, 0x47, 0x8d, 0xd7, 0x3d,
  0xac, 0x5e, 0xf9, 0x3d, 0xed, 0x5f, 0xcd, 0x3d, 0xe4, 0x3f, 0x15, 0x3e,
  0x3d, 0x3f, 0x8d, 0x3e, 0x1e, 0x64, 0x6e, 0xbe, 0xd8, 0x93, 0xb8, 0x3d,
  0x79, 0x5d, 0x92, 0x3e, 0xc0, 0xe9, 0x0c, 0xbe, 0x3f, 0xa0, 0x58, 0x3e,
  0x32, 0xbc, 0xb8, 0x3c, 0xd0, 0xc9, 0x7b, 0xbd, 0xbf, 0x0c, 0xf9, 0xb8,
  0xe6, 0x50, 0x40, 0xbe, 0x22, 0xa7, 0xea, 0xbd, 0xe2, 0x62, 0x96, 0xbe,
  0x7d, 0x29, 0x18, 0xbe, 0xa0, 0x16, 0xce, 0xbd, 0x37, 0xc5, 0x52, 0x3e,
  0x66, 0xb5, 0x0b, 0xbe, 0x83, 0xbe, 0x96, 0xbe, 0x49, 0x5d, 0x8b, 0xbe,
  0x41, 0x58, 0xbe, 0x3d, 0xbc, 0x2f, 0xa2, 0x3e, 0x85, 0x71, 0x84, 0xbe,
  0x9a, 0xac, 0x03, 0x3e, 0x3c, 0x7d, 0xd1, 0xbd, 0x45, 0x00, 0x86, 0xbe,
  0xe8, 0xbb, 0x00, 0x3b, 0x27, 0xd3, 0x67, 0xbd, 0x86, 0xf3, 0x31, 0xbe,
  0x30, 0x5d, 0x77, 0xbd, 0x70, 0x53, 0x25, 0xbe, 0xe2, 0xa5, 0xb2, 0xbd,
  0xc2, 0xa6, 0x3b, 0x3e, 0x21, 0xdf, 0xda, 0xbd, 0x0d, 0xbb, 0x8a, 0xbd,
  0xd0, 0xd9, 0x84, 0xbe, 0x4f, 0xc3, 0x21, 0x3e, 0x06, 0xc5, 0x83, 0x3e,
  0x3b, 0x3d, 0x30, 0x3b, 0xf0, 0x5c, 0xb4, 0xbd, 0xa4, 0x80, 0x1a, 0x3e,
  0xbb, 0xcf, 0xa3, 0x3e, 0x2f, 0xc7, 0xdd, 0xbd, 0x33, 0x43, 0xca, 0xba,
  0x37, 0x92, 0x00, 0xbe, 0xff, 0x2d, 0x92, 0xbe, 0x76, 0xe7, 0x87, 0x3e,
  0x3c, 0x96, 0x8e, 0x3e, 0xf6, 0x26, 0x81, 0xbe, 0x82, 0x29, 0x64, 0x3e,
  0xcc, 0xf4, 0xa9, 0xbe, 0x6b, 0xfa, 0x82, 0xbe, 0x74, 0xaa, 0x5e, 0x3d,
  0xef, 0xea, 0x57, 0x3e, 0xb3, 0xa2, 0x2d, 0x3e, 0xb6, 0xef, 0x41, 0xbe,
  0xe7, 0x07, 0x36, 0x3e, 0xdd, 0x60, 0xaa, 0x3e, 0xc0, 0x76, 0xd8, 0xbd,
  0x0d, 0x55, 0x75, 0xbe, 0x7f, 0xf1, 0x67, 0x3e, 0xf1, 0xf8, 0x68, 0x3e,
  0x59, 0xfc, 0x76, 0xbd, 0x8a, 0xb5, 0x8d, 0x3e, 0xdb, 0x3d, 0x53, 0x3e,
  0xe9, 0x52, 0xbe, 0x3d, 0xd3, 0xab, 0x74, 0x3e, 0x1c, 0x44, 0xd7, 0x3d,
  0x74, 0x1d, 0xee, 0xbc, 0x6a, 0x3b, 0x0e, 0x3e, 0xbb, 0xf9, 0x7d, 0x3e,
  0x91, 0xc4, 0xa0, 0xbe, 0x3c, 0xf4, 0x5c, 0x3e, 0xc7, 0xdc, 0x86, 0x3e,
  0x10, 0x0a, 0x6c, 0x3e, 0xba, 0xbe, 0xe9, 0x3d, 0x15, 0x5e, 0xb2, 0xbd,
  0xe0, 0x34, 0x9e, 0xbe, 0x02, 0x55, 0x85, 0x3e, 0x9f, 0x8d, 0x9f, 0x3e,
  0xa8, 0x40, 0xea, 0xbd, 0xe6, 0xbc, 0x57, 0xbd, 0x79, 0x2d, 0x8c, 0x3e,
  0x42, 0x94, 0xc6, 0xbe, 0xff, 0xf1, 0xba, 0xbe, 0x93, 0x07, 0x8c, 0x3e,
  0x50, 0xda, 0x1e, 0xbe, 0x0c, 0xb7, 0x90, 0xbd, 0xfd, 0x4c, 0x6e, 0xbe,
  0xe5, 0xe8, 0x45, 0xbd, 0x6d, 0xcd, 0xbb, 0xbd, 0x5a, 0xc9, 0x92, 0x3e,
  0xb6, 0x0e, 0xa1, 0xbe, 0xee, 0xd6, 0x52, 0x3e, 0x01, 0x92, 0x9f, 0x3e,
  0xd4, 0x4b, 0x82, 0xbb, 0x4c, 0x3f, 0x77, 0xbe, 0xa8, 0xd5, 0x54, 0xbd,
  0xef, 0x9b, 0x8d, 0x3e, 0xdb, 0xee, 0x98, 0xbc, 0x99, 0xc9, 0xec, 0x3c,
  0x66, 0xf3, 0x61, 0xbe, 0x9e, 0xe5, 0x26, 0xbe, 0xe4, 0x28, 0x56, 0xbe,
  0xf9, 0xa2, 0x96, 0x3e, 0x87, 0x62, 0xff, 0xbc, 0x91, 0x31, 0x2e, 0x3e,
  0x3c, 0x30, 0x34, 0x3d, 0x08, 0x04, 0x9f, 0xbe, 0x6b, 0xcd, 0x43, 0xbe,
  0xdc, 0x41, 0xf0, 0x3d, 0xc1, 0x86, 0x40, 0x3d, 0x93, 0x6f, 0x2e, 0xbe,
  0x24, 0x87, 0xc0, 0xbc, 0x7f, 0xa7, 0x31, 0x3b, 0xd6, 0x64, 0xb0, 0xbe,
  0x61, 0xc1, 0x15, 0x3e, 0x01, 0xd9, 0x9d, 0x3e, 0xf3, 0x96, 0xad, 0xbe,
  0x15, 0x5c, 0x57, 0x3d, 0x95, 0x23, 0x31, 0xbd, 0xc8, 0x4c, 0xa1, 0x3e,
  0x07, 0xec, 0x87, 0x3e, 0x28, 0xdf, 0x35, 0xbe, 0xbe, 0xb7, 0x50, 0xbe,
  0x02, 0x1e, 0x9b, 0xbe, 0x8b, 0x61, 0x90, 0x3e, 0x58, 0xc3, 0x27, 0x3e,
  0x63, 0xff, 0x46, 0xbe, 0x84, 0xde, 0x7c, 0xbe, 0x86, 0x7d, 0x8f, 0x3e,
  0x92, 0x32, 0xec, 0x3d, 0x91, 0x67, 0x5b, 0x3c, 0xa8, 0xf5, 0x39, 0xbe,
  0x54, 0x2e, 0x1e, 0x3d, 0x68, 0x9f, 0x18, 0x3e, 0x28, 0x2e, 0xa3, 0x3e,
  0x32, 0x7b, 0xb1, 0xbd, 0xa8, 0x7a, 0x64, 0xbe, 0x79, 0x70, 0xac, 0x3e,
  0x46, 0x7b, 0xab, 0xbd, 0xac, 0x4a, 0xa1, 0x3e, 0x18, 0x58, 0x68, 0x3e,
  0x8e, 0xe1, 0x84, 0xbe, 0x5c, 0xb7, 0xa3, 0xbd, 0xff, 0x91, 0x67, 0x3e,
  0x5c, 0x74, 0x25, 0x3e, 0x62, 0xd4, 0x65, 0x3e, 0xae, 0x15, 0x71, 0x3e,
  0xa6, 0xda, 0xc7, 0xbd, 0x4a, 0x91, 0x9a, 0x3d, 0x58, 0xc1, 0x8e, 0x3e,
  0xba, 0xfc, 0xa5, 0x3e, 0x6c, 0xea, 0x96, 0xbe, 0x8b, 0xb6, 0x8f, 0x3e,
  0xbc, 0x63, 0x8e, 0xbe, 0x7c, 0xad, 0x2e, 0xbd, 0x32, 0x49, 0xa8, 0x3c,
  0xb8, 0xad, 0xcb, 0x3e, 0x58, 0x05, 0x7d, 0xbe, 0x5c, 0x6c, 0x9a, 0xbe,
  0xbe, 0x66, 0x76, 0x3e, 0x04, 0x94, 0x80, 0x3e, 0xa4, 0xe0, 0x5e, 0x3e,
  0x8a, 0xf1, 0x76, 0x3e, 0x8c, 0x55, 0x96, 0x3e, 0x15, 0xe8, 0xc0, 0x3d,
  0x58, 0x7e, 0x2f, 0x3d, 0xb5, 0x47, 0x2a, 0xbe, 0x7d, 0xa5, 0x36, 0x3e,
  0x71, 0xe0, 0x5d, 0xbe, 0x76, 0xf0, 0x86, 0x3e, 0x57, 0xf9, 0x11, 0x3e,
  0x5e, 0xc6, 0x2e, 0xbe, 0x4a, 0xd8, 0x9b, 0x3e, 0x8e, 0x13, 0x29, 0x3e,
  0x8c, 0xe9, 0x2a, 0xbe, 0xfd, 0xc9, 0x45, 0xbd, 0xa7, 0xfb, 0x03, 0x3e,
  0x2c, 0x77, 0x49, 0x3e, 0x8c, 0x41, 0x31, 0x3e, 0xd7, 0x44, 0x6c, 0xbe,
  0xf7, 0x63, 0x6e, 0xbd, 0xcf, 0x57, 0x37, 0xbd, 0x58, 0xab, 0x39, 0x3e,
  0x98, 0xf1, 0x4c, 0x3b, 0xd6, 0x11, 0x54, 0x3e, 0x82, 0xee, 0xd2, 0x3d,
  0xb2, 0xfb, 0xa1, 0x3b, 0x4f, 0x79, 0x56, 0x3e, 0xe8, 0x66, 0x95, 0xbe,
  0x25, 0x65, 0xdf, 0xbd, 0x2f, 0xbc, 0x5d, 0xbe, 0x21, 0xaf, 0xd9, 0xbd,
  0x06, 0x41, 0x98, 0x3d, 0xd1, 0xd7, 0x81, 0x3d, 0xb8, 0xfa, 0x82, 0x3e,
  0x48, 0x67, 0xaf, 0x3e, 0x46, 0xcb, 0xa8, 0x3e, 0x98, 0xb6, 0xd3, 0xbb,
  0x72, 0xa6, 0xa2, 0x3e, 0xbb, 0x25, 0x91, 0x3c, 0x24, 0x2d, 0xa7, 0xbb,
  0xd1, 0xbb, 0x79, 0x3d, 0xc2, 0x50, 0x13, 0xbe, 0x61, 0x1b, 0x8c, 0xbd,
  0xab, 0xd9, 0x9e, 0x3e, 0x8b, 0x4d, 0x8a, 0xbd, 0x8c, 0xfa, 0xc6, 0x3e,
  0x84, 0xf8, 0x2f, 0x3e, 0x4d, 0x40, 0x2e, 0xbe, 0x9d, 0x6c, 0x6d, 0x3e,
  0x05, 0x33, 0x9e, 0xbe, 0xb1, 0xa8, 0xe4, 0xbd, 0xbb, 0xb7, 0xff, 0x3d,
  0x8b, 0x99, 0x78, 0xbe, 0x05, 0xc6, 0x22, 0xbe, 0x81, 0xcf, 0xa4, 0x3d,
  0xea, 0x8c, 0xd3, 0x3c, 0xa2, 0x45, 0xab, 0xbe, 0x8e, 0xf9, 0x66, 0xbe,
  0x31, 0x11, 0x81, 0x3e, 0x05, 0x0d, 0x37, 0xbd, 0xb9, 0x68, 0x4e, 0x3e,
  0x6e, 0xcb, 0xf1, 0xbd, 0xdf, 0x7b, 0xdf, 0xbd, 0xe8, 0x46, 0xa7, 0xbc,
  0xb6, 0x41, 0xbc, 0xbd, 0x7a, 0x0b, 0x83, 0xbd, 0x8c, 0x81, 0x9b, 0xbc,
  0x14, 0x7e, 0x17, 0xbd, 0x63, 0x81, 0xaf, 0xbd, 0x33, 0x4c, 0x76, 0xbe,
  0x74, 0x3b, 0x40, 0x3e, 0x5c, 0x44, 0x52, 0xbe, 0x9c, 0xeb, 0x86, 0x3e,
  0x24, 0x34, 0x46, 0xbe, 0xfe, 0x93, 0x8c, 0x3e, 0x89, 0xe5, 0xcf, 0xbc,
  0x69, 0x5b, 0x96, 0x3d, 0xd0, 0x80, 0x59, 0x3d, 0xe9, 0x28, 0x69, 0x3c,
  0x3b, 0xa5, 0xbe, 0x3c, 0x9f, 0xe0, 0x1c, 0xbe, 0xeb, 0xfc, 0xb5, 0xbe,
  0x15, 0x6b, 0x0c, 0xbc, 0xf8, 0xec, 0x03, 0x3e, 0x9f, 0x02, 0x45, 0x3e,
  0x13, 0x83, 0x36, 0xbe, 0x48, 0x1b, 0x73, 0xbe, 0x36, 0x7e, 0x8c, 0xbe,
  0xd5, 0xfa, 0x9b, 0xbe, 0x9f, 0x2f, 0x87, 0x3d, 0x39, 0x8b, 0x48, 0xbe,
  0x30, 0xbc, 0x1a, 0xbd, 0xca, 0xf5, 0x9d, 0xbe, 0xfe, 0xcc, 0x37, 0x3e,
  0x47, 0xed, 0x5d, 0xbd, 0xf7, 0xbe, 0x16, 0x3e, 0xbf, 0x42, 0x5c, 0xbe,
  0x2b, 0xda, 0x83, 0x3e, 0x03, 0x45, 0xee, 0xb9, 0xf8, 0xa9, 0x33, 0xbe,
  0x94, 0x44, 0x7c, 0xbe, 0xb0, 0x72, 0x9b, 0xbc, 0x8b, 0x79, 0xf8, 0x3d,
  0xde, 0x00, 0x65, 0x3e, 0x10, 0x8e, 0x0e, 0xbe, 0xf4, 0x46, 0xe8, 0x3d,
  0xfb, 0x3f, 0x4f, 0x3e, 0xc4, 0x6f, 0x03, 0xbe, 0xaf, 0xf9, 0x9a, 0xbd,
  0x85, 0x82, 0x93, 0x3e, 0xe4, 0x8d, 0x3f, 0x3c, 0xe7, 0x19, 0x99, 0x3e,
  0x16, 0xb9, 0x48, 0x3c, 0x59, 0x28, 0x62, 0xbd, 0xe6, 0x7b, 0x8c, 0x3e,
  0x53, 0x5d, 0xa3, 0x3e, 0x62, 0x2d, 0x50, 0xbe, 0x15, 0x36, 0x9d, 0x3e,
  0x29, 0xd8, 0x65, 0x3c, 0xad, 0x5a, 0xb6, 0xbd, 0x5a, 0xab, 0x2f, 0x3e,
  0x16, 0xc9, 0x63, 0xbe, 0xa7, 0x51, 0x33, 0x3d, 0x79, 0x73, 0x90, 0x3e,
  0x0e, 0x92, 0x68, 0xbe, 0x17, 0x69, 0x6a, 0x3e, 0x95, 0xe2, 0xdb, 0xbc,
  0xa9, 0x8c, 0x51, 0xbe, 0x05, 0x82, 0x85, 0xbe, 0x19, 0xc7, 0x66, 0xbe,
  0x99, 0xf9, 0x59, 0xbe, 0x5b, 0xe5, 0x6c, 0xbd, 0xf1, 0x6e, 0x8a, 0xbd,
  0xe4, 0x24, 0x97, 0x3c, 0xa7, 0xd5, 0x06, 0x3e, 0x24, 0x25, 0x91, 0xbc,
  0x86, 0x75, 0xa6, 0x3e, 0xe8, 0xc9, 0x1e, 0x3d, 0x6b, 0x28, 0x59, 0xbe,
  0x67, 0xa3, 0xc1, 0x3e, 0x7c, 0xce, 0xea, 0xbd, 0x27, 0x6f, 0x7c, 0x3c,
  0x31, 0x05, 0x64, 0x3e, 0xa0, 0x78, 0x36, 0x3e, 0xb0, 0x0d, 0xa3, 0xbd,
  0x88, 0x32, 0x93, 0x3e, 0x2b, 0x84, 0x3b, 0x3e, 0x13, 0xdf, 0xdc, 0xbc,
  0xca, 0x0a, 0x06, 0xbd, 0xa9, 0x2f, 0xb4, 0xba, 0x15, 0x96, 0xdb, 0x3e,
  0x41, 0x6a, 0x8b, 0x3b, 0x85, 0xbd, 0xbf, 0xbd, 0x4a, 0x7b, 0x65, 0xbe,
  0x1a, 0xc9, 0xe9, 0xbd, 0x6a, 0x37, 0xb0, 0x3e, 0x1d, 0xf7, 0xe5, 0x3e,
  0x8f, 0xd4, 0x13, 0xbe, 0x7a, 0x4b, 0x93, 0xbc, 0x92, 0x3e, 0xac, 0xbc,
  0x0a, 0x88, 0xe0, 0x3c, 0x6c, 0xc7, 0x98, 0xbe, 0x3e, 0x59, 0xd3, 0x3e,
  0x71, 0xf0, 0xf8, 0xbd, 0x19, 0x54, 0x0b, 0x3e, 0xe9, 0x65, 0xc1, 0x3e,
  0xda, 0x57, 0x0d, 0x3e, 0x27, 0x61, 0x98, 0xbb, 0x95, 0x31, 0xcf, 0x3e,
  0x68, 0xeb, 0x5c, 0xbc, 0xdd, 0x6b, 0x2e, 0x3c, 0x44, 0x67, 0x3e, 0x3d,
  0x39, 0x6b, 0xe4, 0x3d, 0xc2, 0x9d, 0x21, 0xbd, 0xda, 0xe1, 0xac, 0x3e,
  0x71, 0xb8, 0xca, 0x3d, 0xc0, 0x8e, 0x85, 0x3d, 0xa0, 0x53, 0x8f, 0xbe,
  0xc5, 0x44, 0x31, 0x3e, 0xb0, 0x14, 0x0e, 0x3e, 0x37, 0x99, 0xa5, 0xbe,
  0xb5, 0x31, 0xbf, 0xbe, 0x68, 0x72, 0x0a, 0xbe, 0x61, 0x16, 0xb3, 0xbd,
  0x14, 0xa1, 0xef, 0xbd, 0x2b, 0x6e, 0x4e, 0xbe, 0x28, 0x20, 0x99, 0xbd,
  0xb1, 0xa0, 0xd0, 0xbb, 0x43, 0x17, 0x3d, 0xbe, 0x5e, 0xbc, 0x82, 0x3d,
  0x45, 0xbd, 0x02, 0x3e, 0x24, 0x2d, 0xcf, 0xbd, 0x42, 0xc7, 0xc2, 0xbd,
  0x94, 0xf2, 0x90, 0xbe, 0x6b, 0x13, 0x90, 0xbe, 0x1a, 0x60, 0xad, 0x3a,
  0x39, 0xbe, 0xf1, 0xbc, 0x9a, 0xb8, 0x31, 0xbe, 0xa3, 0x9f, 0x6e, 0xbe,
  0xb2, 0x59, 0xde, 0x3d, 0xb1, 0x14, 0x2c, 0x3e, 0xc3, 0x78, 0x2f, 0xbe,
  0x9c, 0x45, 0x25, 0xbe, 0x8f, 0x49, 0x0b, 0xbe, 0xc6, 0xfb, 0x76, 0x3c,
  0x75, 0xae, 0x43, 0x3e, 0xa8, 0xfc, 0x1f, 0x3d, 0x98, 0xb8, 0x22, 0x3e,
  0x14, 0x6c, 0x8d, 0x3e, 0xc6, 0x23, 0xe6, 0x3d, 0xd1, 0x7a, 0x33, 0x3e,
  0xb1, 0xd2, 0x55, 0xbe, 0x6a, 0x30, 0xff, 0x3b, 0x80, 0x58, 0x9d, 0xbe,
  0xa9, 0xab, 0xa8, 0xbd, 0x66, 0x85, 0x6f, 0x3e, 0x07, 0xd4, 0x1d, 0x3e,
  0xd9, 0x23, 0x5b, 0x3d, 0xe2, 0xa6, 0x3e, 0x3e, 0xcb, 0x1b, 0x90, 0xbe,
  0x38, 0x9c, 0x42, 0x3e, 0xd6, 0x9f, 0x51, 0x3e, 0x2b, 0x50, 0x35, 0x3c,
  0xe6, 0xb2, 0x39, 0x3d, 0x3e, 0x84, 0x88, 0x3e, 0x13, 0x81, 0x6f, 0x3e,
  0x45, 0x9a, 0xe6, 0x3d, 0x0b, 0x5e, 0xa4, 0xbd, 0xfd, 0x92, 0x34, 0xbe,
  0x4e, 0x01, 0xa0, 0xbd, 0xc4, 0xfc, 0x55, 0x3e, 0xad, 0x25, 0x2f, 0x3d,
  0x1b, 0xe3, 0x5a, 0x3d, 0xe7, 0x08, 0x18, 0xbe, 0x7d, 0x93, 0x00, 0x3e,
  0xda, 0xac, 0x87, 0x3e, 0x68, 0x30, 0x62, 0xbd, 0xdd, 0x01, 0xb9, 0xbd,
  0x26, 0x7b, 0x0b, 0xbe, 0x18, 0x58, 0x95, 0x3e, 0x6e, 0x04, 0xc5, 0x3d,
  0x2b, 0x99, 0x1e, 0xbe, 0x1a, 0xbd, 0x9a, 0x3e, 0x53, 0x43, 0xf1, 0x3c,
  0xee, 0x75, 0x43, 0x3d, 0xeb, 0x65, 0x3e, 0x3e, 0x21, 0x44, 0x90, 0xbc,
  0xe6, 0x61, 0xd6, 0x3d, 0xb1, 0x21, 0x13, 0xbe, 0x91, 0x07, 0x44, 0xbe,
  0x42, 0xc9, 0x86, 0xbe, 0x04, 0xa2, 0xf9, 0xbd, 0xee, 0xb0, 0x65, 0x3e,
  0xff, 0xb4, 0xb2, 0xbd, 0x8d, 0xa1, 0x82, 0x3e, 0xe0, 0xec, 0xc4, 0xbd,
  0x50, 0x05, 0xca, 0x3d, 0x11, 0xe8, 0x32, 0xbe, 0x19, 0xc6, 0x06, 0xbe,
  0xac, 0xea, 0x29, 0xbe, 0xd9, 0x07, 0xfe, 0x3d, 0x13, 0x88, 0xe6, 0xbc,
  0x16, 0x63, 0x89, 0x3d, 0xd6, 0x34, 0x41, 0x3e, 0x35, 0xd6, 0x4d, 0x3e,
  0xda, 0xfa, 0x88, 0x3e, 0xbf, 0xc3, 0xb8, 0x3d, 0x20, 0x7d, 0x45, 0xbe,
  0xc3, 0x9a, 0x5e, 0xbe, 0xbb, 0x02, 0x74, 0x3e, 0xf2, 0x45, 0x92, 0xbe,
  0x29, 0x5d, 0x52, 0xbe, 0x33, 0x57, 0x7c, 0x3d, 0x3d, 0xbf, 0xcd, 0x3d,
  0xad, 0x47, 0x44, 0x3e, 0xa6, 0x79, 0xbb, 0x3c, 0xad, 0xf4, 0x8b, 0xbe,
  0xff, 0x0c, 0xf7, 0x3d, 0x7f, 0x99, 0xa1, 0x3c, 0x57, 0x04, 0x92, 0x3e,
  0xda, 0x54, 0xc7, 0xbd, 0x66, 0x80, 0x8c, 0xbd, 0xe3, 0x3e, 0x06, 0xbe,
  0x99, 0x5f, 0x7d, 0xbd, 0xde, 0x0e, 0x83, 0x3e, 0x88, 0x96, 0xda, 0x3e,
  0xe9, 0x11, 0x82, 0x3e, 0xc9, 0x8c, 0x48, 0xbe, 0x6f, 0x5f, 0x6a, 0x3e,
  0x66, 0x95, 0x86, 0xbe, 0x11, 0xa3, 0x2e, 0x3e, 0x8c, 0xde, 0x2c, 0xbe,
  0x3b, 0x3a, 0x2d, 0x3e, 0x2b, 0xd1, 0xd3, 0x3e, 0x00, 0x13, 0x6f, 0xbe,
  0xe2, 0xb4, 0xea, 0xbd, 0x0e, 0xe7, 0x8b, 0x3c, 0x17, 0x87, 0x4c, 0xbc,
  0x38, 0xc3, 0x6a, 0x3d, 0xba, 0x53, 0x1d, 0x3e, 0x68, 0x68, 0xab, 0x3e,
  0xa5, 0x0a, 0x39, 0xbd, 0x1f, 0xf2, 0x55, 0x3e, 0x56, 0xda, 0x24, 0x3e,
  0xef, 0xb4, 0x09, 0x3d, 0xb9, 0xa5, 0x00, 0x3e, 0xa5, 0xd8, 0x91, 0x3d,
  0x31, 0xa4, 0xa4, 0xbe, 0xa9, 0x5d, 0x85, 0xbc, 0xd3, 0x9b, 0x1f, 0x3e,
  0x12, 0x16, 0x95, 0x3e, 0x1e, 0x36, 0x8b, 0xbe, 0x84, 0xb5, 0x37, 0xbe,
  0x4a, 0xa9, 0x2e, 0x3e, 0x4d, 0x22, 0x90, 0x3e, 0x73, 0x74, 0xbd, 0xbe,
  0xab, 0xc3, 0x4d, 0x3e, 0xae, 0x91, 0x10, 0xbe, 0x7b, 0xab, 0x95, 0xbd,
  0xb9, 0xbb, 0xa3, 0xbd, 0x59, 0x5d, 0x89, 0x3e, 0x4e, 0xfa, 0xdd, 0xbd,
  0x81, 0x2a, 0x28, 0xbc, 0xe8, 0xce, 0x92, 0xbd, 0x88, 0x30, 0x7b, 0x3e,
  0x0b, 0xac, 0x17, 0xbe, 0x17, 0x5c, 0x00, 0x3f, 0x10, 0xe3, 0x57, 0x3e,
  0x9b, 0xc1, 0x04, 0xbe, 0xeb, 0x59, 0x44, 0x3e, 0x60, 0x9f, 0xcb, 0xbc,
  0x32, 0xca, 0xbe, 0xbe, 0x62, 0x2c, 0xf0, 0x3e, 0xe9, 0x23, 0x26, 0xbd,
  0xa8, 0x4c, 0x04, 0x3f, 0x97, 0x41, 0xac, 0xbe, 0x4d, 0x42, 0x8c, 0xbe,
  0x9c, 0x02, 0x97, 0x3e, 0xf5, 0xa0, 0x07, 0xbe, 0xb8, 0xb8, 0x2c, 0xbe,
  0x9c, 0x4c, 0x09, 0xbe, 0x48, 0xf4, 0xf0, 0x3d, 0x18, 0xe5, 0x43, 0xbe,
  0x84, 0x66, 0xfb, 0x3d, 0x04, 0xfd, 0xf9, 0x3d, 0x96, 0x15, 0x76, 0x3e,
  0xf8, 0x68, 0x9c, 0xbd, 0xf7, 0xca, 0x93, 0xbe, 0x30, 0xe1, 0xfe, 0xbc,
  0xe6, 0xfe, 0x27, 0xbe, 0x50, 0xdf, 0x09, 0xbd, 0xea, 0xbc, 0x64, 0x3e,
  0x24, 0x9c, 0x3b, 0xbe, 0xc0, 0x69, 0x10, 0xbe, 0xd8, 0x1a, 0xa7, 0xbd,
  0xce, 0x15, 0x0f, 0xbe, 0x80, 0xde, 0x98, 0x3d, 0x96, 0xa2, 0x61, 0xbe,
  0x88, 0xf7, 0x10, 0xbe, 0xd8, 0xd3, 0x48, 0xbe, 0x7f, 0x27, 0x90, 0xbe,
  0xd0, 0x12, 0xdf, 0x3c, 0xdb, 0xbc, 0x83, 0x3e, 0x80, 0x95, 0x60, 0xbc,
  0x02, 0xf2, 0x43, 0x3e, 0x14, 0x5e, 0x94, 0xbe, 0x02, 0x36, 0xeb, 0xbd,
  0x08, 0xf5, 0x27, 0xbd, 0x80, 0x92, 0x08, 0xbc, 0xee, 0x39, 0x46, 0xbe,
  0x3c, 0xc3, 0xf6, 0xbd, 0x88, 0x91, 0x5b, 0xbe, 0x66, 0x97, 0x0b, 0xbe,
  0x41, 0xae, 0x36, 0xbe, 0xf0, 0xa4, 0x44, 0x3e, 0x09, 0xd1, 0x35, 0xbe,
  0x69, 0x24, 0x84, 0x3e, 0x60, 0x17, 0x88, 0x3c, 0x00, 0x27, 0xdb, 0xbd,
  0x34, 0xc8, 0x3e, 0xbe, 0x18, 0x9f, 0x34, 0x3d, 0x9a, 0x19, 0xe2, 0xbd,
  0xe4, 0x14, 0x36, 0x3e, 0x0a, 0x8e, 0x37, 0x3e, 0x50, 0x99, 0x18, 0xbd,
  0x41, 0xf9, 0x12, 0xbe, 0xdb, 0x84, 0x58, 0xbe, 0x80, 0x72, 0x6e, 0x3d,
  0xf6, 0xc0, 0x56, 0xbe, 0x06, 0x8b, 0x7d, 0xbe, 0x18, 0x90, 0x39, 0xbd,
  0xb0, 0x11, 0x48, 0xbd, 0x00, 0x67, 0x4a, 0xbc, 0xf6, 0xcd, 0x64, 0x3e,
  0xe5, 0x37, 0x8e, 0x3e, 0xf0, 0xb6, 0x86, 0x3d, 0x3d, 0x61, 0x85, 0xbe,
  0x75, 0x60, 0x0d, 0xbe, 0x59, 0x6a, 0x88, 0xbe, 0xeb, 0x47, 0x86, 0x3e,
  0x0a, 0x12, 0x9a, 0xbe, 0x89, 0x5e, 0x9b, 0x3e, 0xf3, 0x31, 0x95, 0x3e,
  0x3f, 0x59, 0x66, 0x3e, 0xb6, 0x38, 0x4a, 0xbe, 0xc1, 0xbd, 0x84, 0xbe,
  0x40, 0xf9, 0xa5, 0x3e, 0xc0, 0x8f, 0xb7, 0xbd, 0x0e, 0x66, 0x8b, 0x3e,
  0x23, 0xa7, 0x85, 0x3e, 0x14, 0x06, 0x9e, 0xbd, 0xde, 0xaa, 0xb7, 0xbc,
  0xa7, 0x9d, 0x0b, 0xbd, 0xed, 0x22, 0xa4, 0x3d, 0x0f, 0x72, 0x25, 0xbe,
  0xfd, 0x99, 0x98, 0x3e, 0x11, 0xe7, 0x5e, 0xbe, 0xaf, 0x87, 0xbe, 0x3c,
  0x6d, 0x7d, 0xa5, 0x3e, 0x61, 0x7b, 0x80, 0x3e, 0x3f, 0x44, 0x79, 0x3e,
  0x6d, 0x51, 0x22, 0x3e, 0x89, 0x7a, 0x6b, 0x3e, 0x22, 0x7a, 0x8c, 0x3e,
  0x11, 0xf4, 0x57, 0xbe, 0x27, 0x67, 0x53, 0x3d, 0xa2, 0x2b, 0x74, 0x3e,
  0x1f, 0x08, 0x10, 0x3e, 0x74, 0x23, 0x88, 0x3e, 0x2b, 0xad, 0x1d, 0x3e,
  0x2f, 0x03, 0x20, 0xbc, 0x12, 0x61, 0x1b, 0xbe, 0x2d, 0xd5, 0xe7, 0x3c,
  0xe1, 0xc0, 0x19, 0xbe, 0xe8, 0x44, 0x70, 0x3e, 0x3d, 0x6b, 0x19, 0x3c,
  0xb7, 0x78, 0x1d, 0x3e, 0x96, 0x8f, 0x4f, 0x3c, 0x01, 0x63, 0x81, 0x3e,
  0xde, 0xce, 0x76, 0xbd, 0xc2, 0xba, 0x4f, 0xbe, 0x8e, 0xc2, 0x50, 0xbe,
  0xb0, 0xde, 0xf9, 0x3d, 0xc0, 0xb5, 0x9b, 0xbd, 0x53, 0x5e, 0x83, 0x3d,
  0x58, 0x1c, 0x9d, 0xbd, 0x3f, 0x08, 0x85, 0x3c, 0x45, 0x17, 0xc4, 0x3d,
  0x71, 0x2b, 0x91, 0x3e, 0x8f, 0xa7, 0x3f, 0xbe, 0xc8, 0x79, 0xc0, 0xbc,
  0xd7, 0x1b, 0x19, 0xbe, 0x62, 0x27, 0x88, 0xbe, 0xd3, 0x1f, 0x2d, 0xbe,
  0x8b, 0xef, 0x6e, 0xbe, 0xec, 0x8f, 0x97, 0xbd, 0xa5, 0x21, 0x8f, 0x3e,
  0x29, 0xd7, 0x55, 0xbd, 0x07, 0xb1, 0x96, 0xbe, 0x9f, 0x9f, 0xde, 0x3c,
  0x43, 0xa4, 0x8a, 0xbd, 0x4a, 0x74, 0x24, 0xbe, 0x98, 0x32, 0x33, 0xbe,
  0x54, 0xfb, 0x21, 0xbe, 0x2f, 0xc2, 0x9c, 0x3e, 0x0f, 0x1b, 0xc7, 0xbd,
  0x03, 0x0d, 0x96, 0xbe, 0xde, 0x2b, 0x80, 0x3e, 0x6a, 0x71, 0xd0, 0xbd,
  0xf2, 0x5a, 0x90, 0x3e, 0xe6, 0xf4, 0x4b, 0xbe, 0x36, 0xaf, 0x56, 0x3e,
  0xb5, 0xc2, 0x9e, 0x3e, 0x18, 0xdc, 0x89, 0x3e, 0x8e, 0x51, 0x09, 0xbe,
  0x1a, 0x26, 0xc8, 0x3e, 0x69, 0xde, 0x80, 0xbe, 0xfc, 0x48, 0xc2, 0x3e,
  0x09, 0x6d, 0x35, 0xbe, 0xd2, 0xe0, 0x4f, 0x3e, 0xbe, 0xfc, 0x0e, 0xbe,
  0x0f, 0x23, 0xd3, 0xbd, 0x0b, 0x07, 0x1c, 0xbe, 0xa5, 0x55, 0x9a, 0x3e,
  0x7c, 0x78, 0x70, 0xbd, 0x46, 0x20, 0xe7, 0xbd, 0x5b, 0xb6, 0x49, 0x3e,
  0x31, 0xf1, 0x25, 0xbe, 0x62, 0x4c, 0x1b, 0x3e, 0xc2, 0xa5, 0x4f, 0xbe,
  0xa8, 0xd6, 0x8a, 0xbd, 0x9e, 0x0f, 0x92, 0xbe, 0x48, 0x90, 0x3e, 0x3e,
  0x0b, 0xca, 0xb9, 0x3d, 0x3d, 0x7a, 0x8c, 0x3e, 0x19, 0x4e, 0x25, 0xbe,
  0x9a, 0x83, 0x58, 0x3e, 0x2c, 0x49, 0x16, 0x3e, 0xef, 0x7e, 0xac, 0x3c,
  0x2e, 0x6e, 0xbb, 0x3d, 0x68, 0x3e, 0x9e, 0x3e, 0xe8, 0xcc, 0x15, 0xbb,
  0x36, 0x54, 0x5a, 0xbd, 0x32, 0xf0, 0x22, 0x3e, 0xdb, 0xeb, 0x94, 0x3e,
  0x97, 0x32, 0x8d, 0x3d, 0x9c, 0xcc, 0xe8, 0xbd, 0x92, 0xbf, 0x94, 0x3e,
  0x3c, 0x09, 0xce, 0x3d, 0x02, 0xd4, 0xa2, 0xbc, 0x27, 0xdc, 0xcd, 0x3e,
  0xd9, 0x19, 0x90, 0xbe, 0x90, 0x3b, 0x84, 0x3e, 0xc1, 0x50, 0x70, 0xbe,
  0xba, 0x7d, 0xe1, 0xbd, 0xb8, 0xa8, 0x0d, 0x3d, 0x99, 0xd7, 0x53, 0xbd,
  0x60, 0xf4, 0x37, 0x3e, 0x65, 0x0a, 0x58, 0xbe, 0x54, 0x1a, 0x80, 0xbc,
  0x24, 0xb3, 0xcc, 0xbd, 0x30, 0xaa, 0xc2, 0xbd, 0xa8, 0xe6, 0x0e, 0x3e,
  0x28, 0x8d, 0x56, 0x3d, 0xc5, 0x89, 0x38, 0xbe, 0x53, 0x20, 0x23, 0xbd,
  0x16, 0x0e, 0x28, 0x3e, 0x00, 0xfe, 0x99, 0x3e, 0x92, 0x69, 0x37, 0xbe,
  0x2f, 0xfd, 0x2e, 0xbe, 0xea, 0xd3, 0xcd, 0x3d, 0xe0, 0xf5, 0xff, 0x3d,
  0x1d, 0x4d, 0x03, 0xbd, 0xcf, 0xc7, 0x44, 0x3e, 0x12, 0xda, 0xb5, 0xbb,
  0x45, 0x87, 0x92, 0xbe, 0xc3, 0xaa, 0x64, 0xbc, 0x29, 0x6a, 0xae, 0x3e,
  0x3d, 0x73, 0x51, 0xbd, 0x59, 0xd9, 0x0a, 0x3e, 0x55, 0x4a, 0xaf, 0xbe,
  0xd6, 0x8d, 0x36, 0xbe, 0x8d, 0xd6, 0xb7, 0x3e, 0x2c, 0x53, 0x5c, 0x3e,
  0x9e, 0x03, 0x33, 0xbe, 0x04, 0x10, 0x03, 0xbe, 0x1d, 0x23, 0x69, 0x3e,
  0xd9, 0x82, 0x30, 0x3e, 0x8d, 0xec, 0xba, 0xbe, 0x60, 0x7e, 0xbf, 0xbd,
  0x83, 0x31, 0x90, 0x3d, 0x9e, 0x8a, 0x0e, 0x3e, 0x6c, 0xa1, 0x21, 0xbd,
  0x87, 0xde, 0x1d, 0xbe, 0x81, 0x17, 0x8e, 0xbe, 0xf8, 0xc4, 0x14, 0xbd,
  0x50, 0xc5, 0x93, 0x3e, 0x7c, 0x23, 0x2a, 0x3e, 0x6c, 0xba, 0x15, 0x3e,
  0x51, 0xb1, 0x4c, 0xbd, 0x5e, 0xd3, 0x51, 0x3e, 0x3d, 0x9e, 0x50, 0xbe,
  0x1f, 0xb5, 0x10, 0xbd, 0xdc, 0x8d, 0xd6, 0x3e, 0xcd, 0xec, 0x73, 0x3e,
  0x24, 0x7b, 0x5c, 0xbe, 0x4e, 0x8f, 0xf6, 0x3e, 0x20, 0xa4, 0x8d, 0x3e,
  0x53, 0xe7, 0xa6, 0x3d, 0x70, 0x45, 0x9d, 0x3e, 0xfa, 0x51, 0x86, 0x3d,
  0x50, 0x7f, 0x7e, 0xbe, 0xf3, 0xdd, 0x5e, 0xbe, 0x04, 0x11, 0x72, 0x3e,
  0xa6, 0xba, 0xa0, 0xbe, 0xdb, 0xa0, 0x8e, 0xbe, 0x89, 0x46, 0x8a, 0xbe,
  0xa4, 0x71, 0xea, 0x3d, 0x85, 0x82, 0x8d, 0xbe, 0x99, 0x9a, 0x96, 0xbd,
  0x46, 0x21, 0xb6, 0x3d, 0xe6, 0x59, 0x0f, 0xbe, 0xab, 0x80, 0x6f, 0x3e,
  0x7a, 0x22, 0x7b, 0xbe, 0x07, 0x88, 0x6c, 0x3e, 0xe9, 0xfa, 0xdd, 0x3d,
  0x13, 0xb6, 0xcf, 0xbd, 0x1a, 0x72, 0x2a, 0xbe, 0xd0, 0x24, 0x1b, 0xbd,
  0xdf, 0xf6, 0xd4, 0xbc, 0x73, 0x67, 0x55, 0x3c, 0x39, 0x68, 0x52, 0x3e,
  0x1f, 0xe9, 0x57, 0xbe, 0x49, 0x92, 0x1c, 0x3e, 0x1b, 0x56, 0x8e, 0xbd,
  0x97, 0xbe, 0x33, 0x3e, 0x26, 0x25, 0x10, 0x3e, 0x43, 0x34, 0x81, 0xbd,
  0x0e, 0x83, 0x82, 0x3c, 0x14, 0x7b, 0x9f, 0x3c, 0x2d, 0x78, 0x01, 0x3e,
  0xc6, 0x20, 0x3b, 0x3e, 0x03, 0xa8, 0x82, 0x3e, 0x2a, 0x41, 0x07, 0xbe,
  0xe6, 0xab, 0x07, 0xbe, 0x95, 0x26, 0x0b, 0xbe, 0xb6, 0x16, 0xda, 0x3d,
  0xb4, 0x8a, 0x0c, 0xbd, 0x65, 0x15, 0x1e, 0x3e, 0x04, 0x35, 0x28, 0xbe,
  0x06, 0x1e, 0x65, 0xbe, 0x04, 0xdc, 0x8a, 0x3e, 0xb4, 0xb6, 0x62, 0x3e,
  0x7d, 0x3b, 0xdf, 0xbd, 0xf3, 0xb5, 0xd4, 0xbc, 0x07, 0x07, 0x1f, 0xbd,
  0x0b, 0x0d, 0x7a, 0xbe, 0x82, 0xc9, 0xcc, 0x3d, 0x90, 0x03, 0xc9, 0x3d,
  0x46, 0x6d, 0xa5, 0x3c, 0x0b, 0x79, 0x73, 0x3e, 0x7a, 0x9d, 0x48, 0x3d,
  0xe3, 0x0b, 0x76, 0xbe, 0xf2, 0x7d, 0x6c, 0x3d, 0x68, 0x95, 0x18, 0xbc,
  0xaa, 0xac, 0xd1, 0xbd, 0x20, 0xb3, 0xed, 0xbd, 0xb0, 0xec, 0x85, 0xbd,
  0xd0, 0x5d, 0x91, 0xbe, 0x8c, 0x4b, 0xd5, 0xbd, 0xb0, 0x94, 0x07, 0x3e,
  0xa7, 0x39, 0x21, 0xbe, 0xfa, 0x07, 0x94, 0x3e, 0x7c, 0xa7, 0x32, 0xbe,
  0x56, 0x89, 0xa3, 0xbd, 0xa1, 0xd2, 0x98, 0xbd, 0x79, 0x66, 0x1c, 0xbe,
  0xe9, 0xe7, 0x06, 0xbe, 0x51, 0xe9, 0x10, 0x3e, 0x2e, 0x79, 0x0a, 0xbe,
  0x6b, 0x1c, 0x34, 0xbc, 0x6d, 0xf7, 0x0b, 0xbe, 0x66, 0xa2, 0x03, 0x3c,
  0x30, 0x65, 0x39, 0x3d, 0xd1, 0xce, 0x45, 0xbe, 0x31, 0xb9, 0x3e, 0x3c,
  0x7b, 0xa1, 0x71, 0xbe, 0x6a, 0xbd, 0x56, 0x3e, 0x98, 0x4e, 0x80, 0x3e,
  0x5d, 0x77, 0x35, 0xbe, 0x43, 0x1b, 0x87, 0xbe, 0x50, 0xaa, 0x59, 0xbd,
  0x95, 0xb2, 0xd3, 0xbc, 0x21, 0xcf, 0x41, 0x3e, 0xc3, 0x22, 0x2a, 0xbe,
  0x28, 0xc5, 0x91, 0xbd, 0x42, 0xe3, 0x05, 0x3e, 0x1e, 0xc9, 0xa8, 0xbd,
  0x6a, 0xe4, 0x17, 0x3e, 0xf8, 0xcf, 0x5c, 0x3e, 0x96, 0x51, 0x83, 0xbe,
  0x0b, 0x10, 0x94, 0x3e, 0x5a, 0x46, 0xfc, 0xbc, 0xe6, 0xaf, 0x26, 0x3e,
  0xf8, 0xe3, 0xff, 0x3d, 0x9c, 0x7f, 0xaf, 0x3e, 0xc6, 0xef, 0x50, 0x3e,
  0xeb, 0x81, 0xc7, 0x3e, 0x65, 0x84, 0xc4, 0x3e, 0x55, 0x8a, 0x11, 0xbe,
  0x6b, 0x4c, 0x64, 0x3e, 0x02, 0x06, 0x5c, 0x3d, 0xad, 0x17, 0x6c, 0xbe,
  0x55, 0x5b, 0xcb, 0xbd, 0x08, 0x9b, 0x12, 0xbb, 0x8c, 0x7d, 0x20, 0x3d,
  0xd8, 0xe6, 0xb9, 0x3b, 0x57, 0x06, 0x3d, 0xbe, 0xfa, 0x43, 0x91, 0x3e,
  0x27, 0xaf, 0x62, 0x3e, 0x84, 0x20, 0x91, 0x3e, 0xa3, 0x02, 0x42, 0x3e,
  0x43, 0xcc, 0x23, 0xbe, 0x7b, 0xb1, 0x09, 0x3e, 0xc1, 0x64, 0x58, 0xbe,
  0xa4, 0x9e, 0x14, 0x3e, 0xa5, 0x96, 0x28, 0xbe, 0xea, 0x37, 0x55, 0xbe,
  0xf4, 0x4e, 0xcc, 0x3e, 0x63, 0xa9, 0x78, 0x3e, 0x6c, 0x64, 0xfe, 0x3c,
  0x0b, 0xc1, 0x8c, 0x3e, 0xad, 0x33, 0xaa, 0x3d, 0xf4, 0x6d, 0x43, 0xbd,
  0x08, 0x7a, 0x5f, 0x3d, 0xdc, 0xc7, 0x57, 0x3e, 0x6c, 0xc3, 0xc3, 0xbd,
  0xf7, 0x96, 0x84, 0xbd, 0xfa, 0x7b, 0xef, 0xbd, 0x5c, 0x02, 0x4a, 0xbd,
  0xda, 0x4d, 0x8d, 0x3d, 0xe7, 0xb6, 0x53, 0x3e, 0x21, 0xf8, 0xe2, 0x3d,
  0xf4, 0x7a, 0x67, 0x3e, 0xf3, 0x23, 0x24, 0xbe, 0x19, 0x11, 0x89, 0xbd,
  0xf3, 0xf0, 0x90, 0xbe, 0xad, 0xbb, 0x1a, 0x3e, 0xd7, 0xc3, 0x9a, 0x3d,
  0x65, 0xf1, 0x33, 0xbe, 0x7b, 0x55, 0x29, 0xbe, 0x53, 0xe4, 0x7d, 0x3e,
  0x27, 0xf1, 0x1c, 0x3e, 0xb1, 0x2b, 0x0c, 0x3e, 0x18, 0xc7, 0x5c, 0x3e,
  0x33, 0xb0, 0x84, 0xbe, 0x3c, 0x5c, 0x6b, 0xbe, 0x1c, 0xe1, 0xc7, 0xbd,
  0x66, 0xca, 0x16, 0x3e, 0x6e, 0xb1, 0xfe, 0x3d, 0xdc, 0x87, 0x85, 0x3e,
  0x9a, 0x5e, 0x71, 0x3e, 0x57, 0x8a, 0x65, 0x3d, 0x56, 0xe9, 0xff, 0xff,
  0x10, 0x00, 0x00, 0x00, 0x09, 0x00, 0x00, 0x00, 0x14, 0x00, 0x00, 0x00,
  0x2c, 0x00, 0x00, 0x00, 0x02, 0x00, 0x00, 0x00, 0x10, 0x00, 0x00, 0x00,
  0x40, 0x00, 0x00, 0x00, 0x17, 0x00, 0x00, 0x00, 0x73, 0x65, 0x71, 0x75,
  0x65, 0x6e, 0x74, 0x69, 0x61, 0x6c, 0x2f, 0x64, 0x65, 0x6e, 0x73, 0x65,
  0x2f, 0x4d, 0x61, 0x74, 0x4d, 0x75, 0x6c, 0x00, 0x90, 0xe8, 0xff, 0xff,
  0xea, 0xe9, 0xff, 0xff, 0x04, 0x00, 0x00, 0x00, 0x08, 0x00, 0x00, 0x00,
  0xff, 0xff, 0xff, 0xff, 0x40, 0x00, 0x00, 0x00, 0x00, 0x00, 0x0e, 0x00,
  0x18, 0x00, 0x08, 0x00, 0x07, 0x00, 0x0c, 0x00, 0x10, 0x00, 0x14, 0x00,
  0x0e, 0x00, 0x00, 0x00, 0x00, 0x00, 0x00, 0x02, 0x10, 0x00, 0x00, 0x00,
  0x08, 0x00, 0x00, 0x00, 0x10, 0x00, 0x00, 0x00, 0x2c, 0x00, 0x00, 0x00,
  0x01, 0x00, 0x00, 0x00, 0x02, 0x00, 0x00, 0x00, 0x18, 0x00, 0x00, 0x00,
  0x73, 0x65, 0x71, 0x75, 0x65, 0x6e, 0x74, 0x69, 0x61, 0x6c, 0x2f, 0x66,
  0x6c, 0x61, 0x74, 0x74, 0x65, 0x6e, 0x2f, 0x43, 0x6f, 0x6e, 0x73, 0x74,
  0x00, 0x00, 0x00, 0x00, 0xf8, 0xe8, 0xff, 0xff, 0x52, 0xea, 0xff, 0xff,
  0x04, 0x00, 0x00, 0x00, 0x18, 0x00, 0x00, 0x00, 0xd7, 0xe6, 0x3c, 0xbe,
  0x6b, 0x83, 0x8e, 0x3e, 0xe9, 0x14, 0xd0, 0x3e, 0x0a, 0x3e, 0xa5, 0xbd,
  0xd8, 0xe3, 0x61, 0xbe, 0x07, 0xc7, 0x4b, 0xbe, 0x22, 0xea, 0xff, 0xff,
  0x10, 0x00, 0x00, 0x00, 0x07, 0x00, 0x00, 0x00, 0x10, 0x00, 0x00, 0x00,
  0x44, 0x00, 0x00, 0x00, 0x01, 0x00, 0x00, 0x00, 0x06, 0x00, 0x00, 0x00,
  0x32, 0x00, 0x00, 0x00, 0x73, 0x65, 0x71, 0x75, 0x65, 0x6e, 0x74, 0x69,
  0x61, 0x6c, 0x2f, 0x64, 0x65, 0x6e, 0x73, 0x65, 0x5f, 0x31, 0x2f, 0x42,
  0x69, 0x61, 0x73, 0x41, 0x64, 0x64, 0x2f, 0x52, 0x65, 0x61, 0x64, 0x56,
  0x61, 0x72, 0x69, 0x61, 0x62, 0x6c, 0x65, 0x4f, 0x70, 0x2f, 0x72, 0x65,
  0x73, 0x6f, 0x75, 0x72, 0x63, 0x65, 0x00, 0x00, 0x74, 0xe9, 0xff, 0xff,
  0xce, 0xea, 0xff, 0xff, 0x04, 0x00, 0x00, 0x00, 0x40, 0x00, 0x00, 0x00,
  0x70, 0xc3, 0xd0, 0x3b, 0x9c, 0xda, 0x7a, 0x3b, 0x0f, 0xd1, 0x30, 0xbd,
  0xbb, 0x22, 0xce, 0xbd, 0x1d, 0x4a, 0x07, 0x3c, 0x33, 0xaf, 0xc2, 0xbd,
  0x61, 0x13, 0xf6, 0x3c, 0x3d, 0x08, 0xc9, 0xbd, 0x1c, 0xf0, 0xa5, 0xbb,
  0xd8, 0xc0, 0x64, 0x3e, 0x00, 0x00, 0x00, 0x00, 0xd1, 0xfa, 0x04, 0xbd,
  0x44, 0xe1, 0x5b, 0x3d, 0x2f, 0xb6, 0x0d, 0xbe, 0xeb, 0x68, 0xb8, 0xbc,
  0xa8, 0xb7, 0x1e, 0x3d, 0xc6, 0xea, 0xff, 0xff, 0x10, 0x00, 0x00, 0x00,
  0x06, 0x00, 0x00, 0x00, 0x10, 0x00, 0x00, 0x00, 0x44, 0x00, 0x00, 0x00,
  0x01, 0x00, 0x00, 0x00, 0x10, 0x00, 0x00, 0x00, 0x30, 0x00, 0x00, 0x00,
  0x73, 0x65, 0x71, 0x75, 0x65, 0x6e, 0x74, 0x69, 0x61, 0x6c, 0x2f, 0x64,
  0x65, 0x6e, 0x73, 0x65, 0x2f, 0x42, 0x69, 0x61, 0x73, 0x41, 0x64, 0x64,
  0x2f, 0x52, 0x65, 0x61, 0x64, 0x56, 0x61, 0x72, 0x69, 0x61, 0x62, 0x6c,
  0x65, 0x4f, 0x70, 0x2f, 0x72, 0x65, 0x73, 0x6f, 0x75, 0x72, 0x63, 0x65,
  0x00, 0x00, 0x00, 0x00, 0x18, 0xea, 0xff, 0xff, 0x72, 0xeb, 0xff, 0xff,
  0x04, 0x00, 0x00, 0x00, 0x20, 0x01, 0x00, 0x00, 0x60, 0xb4, 0x3f, 0xbe,
  0x6b, 0x1b, 0x2b, 0x3c, 0xf1, 0x61, 0xba, 0xbe, 0xee, 0x7c, 0x35, 0x3f,
  0xe5, 0xfd, 0x34, 0x3f, 0x11, 0x1e, 0x45, 0xbf, 0x76, 0x60, 0x60, 0xbe,
  0x63, 0x2d, 0x5c, 0x3f, 0x69, 0xf4, 0x0a, 0x3f, 0xf2, 0x90, 0xee, 0x3e,
  0xa3, 0x31, 0x6e, 0xbe, 0x53, 0x61, 0x9d, 0x3e, 0x27, 0xf1, 0x0a, 0x3e,
  0x4e, 0x0f, 0x1e, 0xbf, 0xc9, 0x01, 0x87, 0xbd, 0xe2, 0xbf, 0x52, 0xbd,
  0x2b, 0x69, 0x21, 0x3f, 0x13, 0xbd, 0x85, 0x3f, 0xc4, 0xb4, 0x74, 0x3f,
  0x54, 0x6c, 0x40, 0x3f, 0x13, 0x4f, 0xd4, 0x3e, 0xf0, 0x13, 0xfb, 0xbe,
  0xf3, 0xa0, 0xfb, 0x3e, 0xaa, 0x80, 0x27, 0xbe, 0x22, 0xea, 0x15, 0x3f,
  0xf2, 0x42, 0xdd, 0xbd, 0xd3, 0x99, 0x10, 0x3f, 0x31, 0x6f, 0x53, 0xbf,
  0x52, 0xb2, 0x3d, 0x3d, 0xde, 0x64, 0xe2, 0xbd, 0x34, 0xd5, 0x56, 0x3f,
  0xda, 0x74, 0x7e, 0x3f, 0xba, 0x27, 0x18, 0x3f, 0xe2, 0x73, 0x9a, 0x3e,
  0xa2, 0xf5, 0x4c, 0x3d, 0x45, 0xdd, 0xba, 0xbe, 0xfb, 0xe4, 0x63, 0x3f,
  0x2e, 0x34, 0x01, 0xbf, 0xf3, 0x91, 0xd3, 0xbe, 0x5c, 0x5b, 0x4f, 0x3f,
  0x92, 0x61, 0x0a, 0x3f, 0xc0, 0xce, 0xfe, 0x3e, 0x31, 0xa5, 0x73, 0xbc,
  0xfc, 0xc9, 0xe3, 0x3d, 0x46, 0x2f, 0xf7, 0x3d, 0x1c, 0xef, 0x26, 0x3f,
  0x6a, 0x17, 0x89, 0x3e, 0x83, 0x97, 0x42, 0x3f, 0x44, 0x2f, 0x46, 0xbd,
  0x00, 0xc6, 0xfc, 0xbd, 0xe3, 0x34, 0x98, 0xbe, 0xb4, 0xd9, 0x92, 0xbe,
  0x68, 0x86, 0x28, 0x3f, 0x46, 0x69, 0x1b, 0x3e, 0x66, 0x97, 0x0c, 0x3f,
  0xbb, 0x30, 0xc1, 0xbe, 0x8b, 0xb2, 0x2f, 0x3f, 0xe6, 0x03, 0x53, 0xbe,
  0x13, 0x63, 0xdb, 0x3d, 0xfd, 0x43, 0x36, 0x3f, 0x8b, 0xfd, 0x76, 0xbe,
  0x5d, 0xb9, 0x53, 0x3f, 0x5a, 0x7b, 0xc2, 0xbe, 0x39, 0x2a, 0xed, 0xbe,
  0x20, 0xd9, 0x11, 0xbf, 0xc2, 0xcb, 0x23, 0xbf, 0x61, 0xbc, 0x07, 0xbf,
  0x1a, 0x74, 0x01, 0xbf, 0xf3, 0x97, 0xda, 0xbe, 0x01, 0x42, 0x98, 0x3e,
  0x2c, 0x29, 0x4d, 0x3e, 0xdc, 0xae, 0x64, 0xbe, 0x4a, 0xec, 0xff, 0xff,
  0x10, 0x00, 0x00, 0x00, 0x05, 0x00, 0x00, 0x00, 0x1c, 0x00, 0x00, 0x00,
  0x38, 0x00, 0x00, 0x00, 0x04, 0x00, 0x00, 0x00, 0x08, 0x00, 0x00, 0x00,
  0x03, 0x00, 0x00, 0x00, 0x03, 0x00, 0x00, 0x00, 0x01, 0x00, 0x00, 0x00,
  0x18, 0x00, 0x00, 0x00, 0x73, 0x65, 0x71, 0x75, 0x65, 0x6e, 0x74, 0x69,
  0x61, 0x6c, 0x2f, 0x63, 0x6f, 0x6e, 0x76, 0x32, 0x64, 0x2f, 0x43, 0x6f,
  0x6e, 0x76, 0x32, 0x44, 0x00, 0x00, 0x00, 0x00, 0x90, 0xeb, 0xff, 0xff,
  0xea, 0xec, 0xff, 0xff, 0x04, 0x00, 0x00, 0x00, 0x00, 0x12, 0x00, 0x00,
  0x52, 0xef, 0x29, 0x3e, 0x67, 0xf8, 0xf9, 0xbd, 0x65, 0xbd, 0x3d, 0x3e,
  0xb7, 0x52, 0x4e, 0x3e, 0x4c, 0x14, 0x74, 0xbb, 0xe3, 0x1d, 0x92, 0x3b,
  0x33, 0x35, 0xbb, 0x3e, 0x72, 0xd1, 0x66, 0xbe, 0x84, 0xfe, 0x1a, 0x3e,
  0xbd, 0xc4, 0x40, 0x3c, 0x64, 0x25, 0x08, 0xbe, 0x27, 0x63, 0x08, 0x3d,
  0x6d, 0xd5, 0x35, 0x3e, 0x21, 0x5e, 0x70, 0x3d, 0x3b, 0xda, 0x74, 0xbd,
  0x0b, 0xa0, 0xed, 0x3d, 0x99, 0x8d, 0x1f, 0xbe, 0x16, 0xd2, 0x45, 0xbe,
  0x39, 0xea, 0x3e, 0xbe, 0x02, 0x25, 0x4e, 0xbc, 0xc2, 0xc0, 0x3a, 0xbe,
  0x4c, 0x42, 0x4a, 0xbe, 0x4f, 0x25, 0x15, 0x3e, 0xde, 0x2b, 0x9f, 0xbd,
  0xc3, 0x03, 0x89, 0xbd, 0x76, 0xfd, 0x8f, 0x3e, 0xf1, 0x82, 0x9c, 0x3e,
  0xa1, 0x22, 0x66, 0x3e, 0x07, 0xdf, 0x59, 0x3e, 0x6e, 0x49, 0x8f, 0xbc,
  0x99, 0xf6, 0x34, 0x3e, 0x96, 0x24, 0x1b, 0x3e, 0x5a, 0x1a, 0x23, 0xbe,
  0x35, 0x66, 0x17, 0x3e, 0x97, 0x7e, 0x53, 0x3e, 0xcd, 0xab, 0x33, 0x3e,
  0xe3, 0x45, 0xe1, 0xbc, 0xa9, 0x7c, 0x64, 0xbe, 0xc2, 0x2f, 0x3e, 0xbe,
  0x76, 0x10, 0x70, 0xbe, 0x02, 0x28, 0x77, 0x3e, 0xaf, 0xc3, 0x4e, 0x3e,
  0x9b, 0xa1, 0xae, 0x3d, 0x73, 0x95, 0x22, 0x3e, 0xd5, 0xf9, 0xa7, 0x3b,
  0x69, 0xcc, 0x5e, 0x3e, 0xb8, 0x7b, 0x04, 0x3d, 0x8b, 0x57, 0xe4, 0xbc,
  0xab, 0x7d, 0x36, 0x3e, 0x68, 0xf2, 0x23, 0x3c, 0x14, 0xf7, 0xf7, 0xbb,
  0x1b, 0x8a, 0x00, 0x3e, 0xac, 0x8e, 0x33, 0xbe, 0x1c, 0x5f, 0x92, 0x3d,
  0xd6, 0x33, 0xa5, 0xbd, 0x6a, 0xac, 0xca, 0xbd, 0xdf, 0x8c, 0x36, 0xbd,
  0x7e, 0x81, 0x5f, 0xbe, 0xd9, 0xfa, 0xaa, 0xbd, 0xab, 0xcf, 0x93, 0x3c,
  0x7b, 0x16, 0xf4, 0xbc, 0x14, 0x01, 0x3c, 0x3d, 0xa6, 0xb6, 0x89, 0x3e,
  0x4c, 0xe5, 0x37, 0x3d, 0xd0, 0x3e, 0x89, 0x3e, 0x08, 0x11, 0x46, 0x3d,
  0x8c, 0xfd, 0x43, 0xbe, 0xc3, 0x52, 0x60, 0xbd, 0x1a, 0xf6, 0x44, 0x3c,
  0x0f, 0x78, 0x91, 0x3e, 0xfb, 0x07, 0xdc, 0xbd, 0x53, 0xca, 0x91, 0x3e,
  0x57, 0x8c, 0x78, 0xbd, 0x5c, 0xc6, 0x79, 0x3c, 0x8d, 0x19, 0x64, 0x3e,
  0x6f, 0xc6, 0x64, 0xbe, 0x3c, 0x9f, 0x13, 0x3e, 0xc9, 0xb3, 0x61, 0xbd,
  0x72, 0x91, 0x30, 0xbe, 0x95, 0x9d, 0x3c, 0xbe, 0x66, 0xd0, 0xf2, 0x3d,
  0xd1, 0x99, 0x86, 0x3d, 0xfc, 0x3f, 0x76, 0x3e, 0xb6, 0x60, 0xca, 0xbb,
  0x83, 0xc8, 0x2f, 0xbe, 0x1a, 0xfd, 0xa8, 0x3e, 0x75, 0xf7, 0x32, 0x3e,
  0x66, 0xa2, 0x22, 0xbd, 0xf3, 0x3d, 0x90, 0xbe, 0xef, 0x90, 0x83, 0xbe,
  0x75, 0x34, 0x46, 0xbe, 0x69, 0x81, 0xe4, 0xbd, 0x71, 0x28, 0x9f, 0xbc,
  0xf5, 0x3e, 0x68, 0x3e, 0xd4, 0x17, 0xe9, 0xbd, 0x4e, 0x03, 0x7d, 0xbe,
  0x46, 0xd7, 0x8a, 0x3e, 0x8e, 0x60, 0x67, 0x3c, 0xec, 0x71, 0xce, 0xbd,
  0x73, 0xfc, 0x70, 0xbb, 0xf0, 0xce, 0x81, 0x3e, 0xba, 0x35, 0xb6, 0x3d,
  0x30, 0xd3, 0xb2, 0x3e, 0xf5, 0x01, 0x0d, 0xbc, 0xa9, 0x9c, 0x85, 0xbe,
  0x14, 0x7c, 0xc8, 0xbd, 0xa2, 0xa8, 0xba, 0xbd, 0xfe, 0x7a, 0x8c, 0xbe,
  0xa2, 0x0b, 0x22, 0xbe, 0xd0, 0x7d, 0x2e, 0xbe, 0x7a, 0x38, 0xbe, 0xbc,
  0x10, 0x6f, 0x3b, 0x3d, 0xe1, 0x8f, 0x69, 0xbe, 0x3b, 0x81, 0xbd, 0xbd,
  0x6b, 0x02, 0x00, 0xbc, 0xd6, 0x58, 0x14, 0x3e, 0x73, 0x45, 0x90, 0x3d,
  0xae, 0x02, 0x91, 0xbc, 0x4d, 0xbd, 0xcb, 0xbb, 0x4a, 0xc1, 0xd0, 0xbd,
  0xec, 0xc8, 0x1d, 0xbe, 0xef, 0xbb, 0x7c, 0xbe, 0x43, 0x6d, 0x89, 0xbd,
  0xbd, 0x61, 0x3f, 0xbd, 0xee, 0x4c, 0xc7, 0xbd, 0x88, 0xf9, 0x94, 0x3e,
  0xae, 0xa4, 0x8e, 0xbb, 0x2c, 0xe1, 0x9d, 0xbd, 0x4c, 0x5f, 0xf4, 0x3d,
  0xda, 0xa6, 0xdd, 0xbc, 0x60, 0xd3, 0x4c, 0x3c, 0x1c, 0x06, 0x15, 0x3d,
  0xcb, 0x44, 0x37, 0x3e, 0x4f, 0xc3, 0x7a, 0x3e, 0xa9, 0x01, 0x10, 0x3e,
  0xef, 0x33, 0x2a, 0x3d, 0x43, 0x4e, 0x8c, 0xbe, 0x2f, 0x72, 0xaa, 0x3d,
  0x7e, 0x5f, 0x5c, 0xbe, 0xbf, 0x7f, 0x84, 0xbe, 0x0f, 0x4f, 0x2f, 0xbe,
  0xce, 0xdb, 0x23, 0x3e, 0x5d, 0xf8, 0x93, 0xbd, 0x28, 0xb1, 0x80, 0xbe,
  0x10, 0x12, 0xe1, 0x3d, 0x57, 0x15, 0xbf, 0x3c, 0xac, 0x9c, 0xec, 0xbd,
  0xf2, 0x3f, 0x3a, 0x3e, 0xca, 0xdc, 0x2f, 0x3d, 0x4c, 0x86, 0x48, 0xbe,
  0x13, 0x57, 0x7a, 0x3e, 0xb2, 0xda, 0x3c, 0xbe, 0x74, 0xe4, 0xff, 0x3d,
  0xb9, 0x49, 0xc1, 0x3e, 0x65, 0x54, 0x80, 0x3e, 0x0f, 0x66, 0x68, 0x3e,
  0x32, 0xd2, 0x42, 0xbc, 0x94, 0x5c, 0x0e, 0x3d, 0x0f, 0x54, 0xaf, 0xbd,
  0xc2, 0x9b, 0x39, 0xbd, 0x20, 0xfa, 0x07, 0xbe, 0x21, 0x69, 0x98, 0x3e,
  0x1d, 0xed, 0x28, 0xbc, 0x54, 0xa7, 0x90, 0x3e, 0xee, 0x2d, 0x41, 0xbe,
  0x9e, 0x4f, 0xff, 0x3d, 0x96, 0x27, 0x5c, 0x3d, 0x7a, 0x05, 0x84, 0x3e,
  0x30, 0xf8, 0x7b, 0x3e, 0x8b, 0x0a, 0xa3, 0x3d, 0x6c, 0x76, 0x3c, 0xbe,
  0x48, 0x2b, 0x44, 0xbe, 0xa6, 0xc4, 0x22, 0xbe, 0xc4, 0xcd, 0xa2, 0xbd,
  0x15, 0xbe, 0x01, 0x3d, 0x6d, 0x7f, 0xfd, 0xbc, 0x99, 0xcd, 0x5a, 0xbe,
  0xcb, 0xdb, 0xb0, 0xbd, 0xce, 0xe3, 0x85, 0x3d, 0x2b, 0x37, 0xb6, 0xbc,
  0x97, 0x7e, 0x85, 0x3e, 0x1f, 0x95, 0xb2, 0x3d, 0x17, 0xd5, 0xbd, 0x3e,
  0x44, 0x94, 0x18, 0x3e, 0xbf, 0x2b, 0x85, 0x3e, 0x8f, 0xf9, 0xd1, 0xbd,
  0x3d, 0x29, 0xc3, 0x3c, 0x65, 0x95, 0xa9, 0x3d, 0x0d, 0xfb, 0xb6, 0x3e,
  0x7c, 0xbc, 0x1e, 0x3e, 0xdc, 0xd3, 0x97, 0x3e, 0xd9, 0x4b, 0x6c, 0x3d,
  0x6f, 0x1c, 0x1d, 0xbe, 0xd0, 0x9b, 0x23, 0xbe, 0x37, 0xa7, 0x10, 0x3e,
  0x58, 0x5a, 0x88, 0x3e, 0x25, 0x00, 0x77, 0xbe, 0xe8, 0x6d, 0xcf, 0xbc,
  0x94, 0x3a, 0x2e, 0x3e, 0x65, 0x07, 0x89, 0x3e, 0xa2, 0x5b, 0xec, 0x3c,
  0xb7, 0x11, 0xbd, 0x3d, 0x4c, 0xf0, 0x72, 0x3e, 0x75, 0x45, 0x39, 0x3e,
  0x28, 0xae, 0x4d, 0x3e, 0x8c, 0x8f, 0x7b, 0x3e, 0x1e, 0xb6, 0x0c, 0x3d,
  0xf2, 0x69, 0x88, 0x3e, 0x75, 0xf2, 0xdd, 0xbd, 0x84, 0x2e, 0xdb, 0x3b,
  0xb7, 0xe2, 0xbd, 0x3e, 0xe4, 0x24, 0x0b, 0x3a, 0x2d, 0x67, 0x77, 0xbe,
  0x41, 0x89, 0xb9, 0x3e, 0x37, 0x7d, 0x0d, 0xbe, 0xfa, 0x5b, 0x68, 0xbc,
  0x4b, 0x58, 0x44, 0x3d, 0xed, 0xf5, 0x9c, 0x3e, 0xdd, 0x24, 0xa9, 0x3e,
  0x60, 0x65, 0xbe, 0xbc, 0x8c, 0xc4, 0xcf, 0x3e, 0x64, 0x90, 0x74, 0x3e,
  0x0a, 0x92, 0x96, 0x3e, 0x90, 0xb3, 0x6b, 0xbc, 0x52, 0xc4, 0x06, 0x3c,
  0x35, 0xd9, 0x08, 0x3d, 0x3b, 0x7c, 0x7b, 0x3e, 0xf4, 0xae, 0x07, 0x3e,
  0x15, 0x75, 0xa9, 0x3e, 0x05, 0x22, 0x22, 0xba, 0xc8, 0x91, 0x0a, 0xbe,
  0xdc, 0x1f, 0x32, 0xbe, 0xaa, 0x0b, 0x6a, 0x3e, 0x9f, 0x82, 0xca, 0x3e,
  0x05, 0xb1, 0xa7, 0xbc, 0x64, 0x40, 0xe3, 0x3e, 0xe0, 0x00, 0x97, 0x3e,
  0x46, 0xe5, 0x66, 0x3d, 0xe6, 0x77, 0x40, 0x3e, 0xb5, 0xb1, 0x82, 0xbd,
  0xd4, 0x60, 0xa7, 0xbd, 0x84, 0x08, 0x0a, 0xbe, 0xd4, 0x86, 0x4e, 0xbd,
  0x50, 0xc9, 0x33, 0xbe, 0x13, 0xec, 0x07, 0x3d, 0xdd, 0x4d, 0xae, 0x3e,
  0xe6, 0x98, 0x63, 0x3e, 0x37, 0x6f, 0x8d, 0x3e, 0xf7, 0x05, 0xce, 0xbd,
  0x47, 0x02, 0x6a, 0xbd, 0x08, 0x6a, 0x90, 0x3e, 0x72, 0xc0, 0x6f, 0xbd,
  0xa2, 0x99, 0x1b, 0x3e, 0x88, 0x24, 0x14, 0xbe, 0xc6, 0x8f, 0xf4, 0xbd,
  0x20, 0x80, 0x06, 0xbe, 0xcf, 0x4f, 0xcd, 0x3d, 0xb6, 0x1e, 0x80, 0x3d,
  0x8b, 0x63, 0x21, 0x3e, 0x3e, 0x23, 0x67, 0xbd, 0x2f, 0xd0, 0xa7, 0x3c,
  0x5e, 0xaa, 0x5f, 0x3e, 0x85, 0x0f, 0xc6, 0xbb, 0x53, 0x10, 0xea, 0x3d,
  0x80, 0xc5, 0xb2, 0x3c, 0x51, 0xa9, 0x0e, 0x39, 0x31, 0x99, 0x9e, 0xbd,
  0x59, 0x7b, 0x90, 0xbe, 0xf9, 0xe7, 0x3c, 0xbe, 0x5b, 0x68, 0xa0, 0x3d,
  0x63, 0xb6, 0x40, 0xbe, 0xce, 0x21, 0xdb, 0x3c, 0x03, 0x0e, 0x02, 0x3e,
  0x90, 0x85, 0x52, 0xbe, 0x2c, 0x3c, 0x44, 0xbe, 0x55, 0xf9, 0x99, 0x3c,
  0x58, 0xf0, 0x7f, 0xbb, 0xce, 0x99, 0xc3, 0x3d, 0x06, 0xa3, 0x94, 0xbe,
  0x7d, 0x92, 0x36, 0xbe, 0xa7, 0xb1, 0x36, 0xbe, 0x03, 0xde, 0xe2, 0x3d,
  0x05, 0xb6, 0x73, 0x3d, 0x09, 0xe7, 0x82, 0x3e, 0xb2, 0x30, 0x31, 0xbe,
  0x58, 0x6d, 0x9e, 0xbe, 0xeb, 0x1f, 0xc7, 0x3d, 0x60, 0x0f, 0x0a, 0x3e,
  0x3f, 0xc2, 0x81, 0x3c, 0xd9, 0x0d, 0xa9, 0xbd, 0xc4, 0x37, 0xb7, 0xbd,
  0xed, 0xc2, 0x02, 0x3e, 0x52, 0xaa, 0x22, 0xbe, 0x1e, 0xdc, 0xc1, 0x3d,
  0x47, 0x9b, 0x64, 0xbe, 0x27, 0x1c, 0xf2, 0x3c, 0x93, 0xbd, 0x88, 0xbd,
  0x9a, 0x63, 0xb5, 0x3d, 0x1e, 0x2c, 0x8f, 0x3b, 0xbf, 0xb6, 0xfe, 0x3d,
  0x83, 0x50, 0x80, 0xbe, 0x24, 0xee, 0xa9, 0xbc, 0x2c, 0xd2, 0x85, 0xbe,
  0xae, 0x8e, 0x90, 0x3d, 0x0b, 0xab, 0x77, 0xbe, 0x02, 0xfd, 0x51, 0x3e,
  0xa5, 0xfc, 0xbc, 0xbd, 0xb1, 0xba, 0x81, 0xbe, 0x32, 0xc7, 0xfe, 0x3d,
  0x10, 0x70, 0x03, 0x3d, 0x0d, 0xbe, 0x3e, 0xbe, 0x59, 0x53, 0xed, 0x3d,
  0xab, 0x04, 0x32, 0xbe, 0x25, 0x88, 0xbc, 0x3d, 0x4a, 0x24, 0xea, 0xbd,
  0x4e, 0xfb, 0x2c, 0x3e, 0x6b, 0x49, 0x12, 0x3e, 0x10, 0xd1, 0x38, 0x3e,
  0x0e, 0xea, 0x7e, 0xbe, 0x8d, 0xe3, 0x3f, 0x3e, 0x9b, 0x7a, 0x47, 0xbe,
  0xe6, 0x94, 0x1c, 0xbe, 0xb1, 0x84, 0x8b, 0xbe, 0x69, 0xfc, 0x23, 0xbe,
  0x9b, 0x23, 0x06, 0x3e, 0x90, 0x0a, 0x54, 0x3d, 0xf8, 0x42, 0xd2, 0x3d,
  0x8d, 0x43, 0x3f, 0x3b, 0x59, 0x92, 0x6b, 0x3e, 0xfd, 0x2e, 0x5b, 0x3e,
  0x07, 0xec, 0x57, 0xbe, 0x84, 0xed, 0x49, 0x3e, 0x73, 0xdb, 0x6c, 0xbd,
  0x55, 0xb6, 0xd5, 0xbd, 0xf2, 0xb7, 0x16, 0x3e, 0xa6, 0x92, 0x0e, 0x3c,
  0x2a, 0x4d, 0x9d, 0x3d, 0x75, 0x12, 0x72, 0xbe, 0x3d, 0x46, 0xa5, 0x3d,
  0x62, 0xe9, 0xa8, 0xbd, 0xa2, 0x29, 0xd0, 0xbd, 0x5b, 0x00, 0x1b, 0x3e,
  0x12, 0x23, 0xda, 0xbb, 0xec, 0xd0, 0x9a, 0x3c, 0x0d, 0xbf, 0x1e, 0x3d,
  0x68, 0xb8, 0xd4, 0x3c, 0x78, 0x08, 0x2a, 0xbe, 0x9e, 0xaa, 0xd2, 0x3d,
  0x77, 0x62, 0x94, 0xbc, 0xc2, 0x2f, 0x25, 0xbe, 0x74, 0xcd, 0x58, 0x3e,
  0x2d, 0xa9, 0x22, 0x3e, 0xe2, 0x43, 0x5d, 0x3c, 0xbf, 0x65, 0x99, 0xbd,
  0x8a, 0x96, 0x5c, 0xbc, 0x2e, 0x7d, 0x3b, 0xbe, 0x2a, 0x75, 0x1c, 0xbe,
  0x6a, 0xad, 0x1e, 0xbe, 0x90, 0x7f, 0x08, 0x3e, 0x27, 0xcc, 0x29, 0xbe,
  0x5c, 0xff, 0x5a, 0xbe, 0x09, 0x56, 0xfe, 0x3c, 0x39, 0x62, 0xbd, 0x3e,
  0x9d, 0x55, 0x88, 0x3e, 0x04, 0xa2, 0x71, 0x3e, 0x56, 0xf8, 0x0f, 0x3e,
  0x07, 0x18, 0xa4, 0xbc, 0x2a, 0xfd, 0x1e, 0x3e, 0xf3, 0x07, 0x3c, 0x3d,
  0xc4, 0x33, 0xbe, 0x3d, 0xe8, 0xed, 0x61, 0xbe, 0xa1, 0xbe, 0x96, 0x3d,
  0xab, 0x71, 0x63, 0x3e, 0x5f, 0x83, 0x64, 0x3e, 0xa2, 0x60, 0x68, 0x3e,
  0x51, 0x4c, 0x98, 0xbd, 0x3d, 0xfb, 0x35, 0x3e, 0x1e, 0xfa, 0x30, 0x3e,
  0x19, 0x9f, 0x82, 0xbe, 0xeb, 0xb0, 0x20, 0x3d, 0x28, 0x29, 0xb2, 0xb8,
  0x39, 0xff, 0x82, 0xbd, 0x93, 0x01, 0x72, 0xbe, 0xe1, 0x89, 0x4e, 0x3e,
  0x69, 0xf2, 0x0d, 0xbe, 0xd0, 0x84, 0x4f, 0xbe, 0xf4, 0xac, 0x8d, 0x3e,
  0x81, 0x55, 0xe4, 0xbd, 0x75, 0xb2, 0x00, 0x3e, 0x0b, 0x07, 0x81, 0x3e,
  0x48, 0xff, 0x7a, 0xbe, 0x0a, 0xab, 0x0c, 0xbd, 0x84, 0xc9, 0x97, 0x3e,
  0x36, 0x23, 0xc6, 0xbd, 0xc4, 0xb2, 0xbb, 0x3c, 0xd9, 0xfc, 0x01, 0xbe,
  0x2b, 0xca, 0x19, 0x3c, 0xf5, 0x27, 0x14, 0x3d, 0x38, 0x40, 0xcf, 0xbd,
  0x9f, 0xf5, 0x56, 0x3d, 0xa4, 0x3c, 0x91, 0xbb, 0x61, 0x55, 0x99, 0x3c,
  0x48, 0x07, 0x12, 0xbe, 0xb7, 0xe6, 0x72, 0x3d, 0x3d, 0x94, 0x93, 0x3d,
  0x37, 0x80, 0x31, 0x3e, 0x21, 0xf8, 0x3c, 0x3e, 0x9e, 0xec, 0x42, 0x3d,
  0x0a, 0x05, 0x96, 0xbd, 0xd5, 0xed, 0x96, 0x3e, 0xb1, 0xf0, 0x8f, 0x3d,
  0xc1, 0x15, 0x90, 0x3e, 0x76, 0x13, 0xbb, 0x3e, 0x75, 0xea, 0xca, 0x3d,
  0x8d, 0x38, 0x35, 0x3d, 0xa3, 0x29, 0x6a, 0xbe, 0xa7, 0x8e, 0x15, 0x3d,
  0x25, 0xbf, 0x85, 0x3e, 0x13, 0x83, 0xfe, 0xbd, 0xad, 0xbc, 0x39, 0xbe,
  0x59, 0x33, 0x26, 0xbd, 0x4e, 0xd0, 0x4c, 0x3e, 0xa9, 0xac, 0x8e, 0xbe,
  0x72, 0x63, 0xda, 0x39, 0x19, 0x92, 0xb2, 0xbd, 0xa7, 0x1e, 0x8d, 0xbe,
  0xc9, 0x86, 0x32, 0xbe, 0x6c, 0xe8, 0x1f, 0xbc, 0xae, 0x15, 0xc6, 0xbd,
  0xcb, 0x33, 0x5f, 0x3e, 0x81, 0x9f, 0xb0, 0xbb, 0xcc, 0x98, 0xb8, 0x3d,
  0x03, 0x2b, 0x3d, 0xbe, 0x08, 0x42, 0x65, 0x3e, 0x99, 0x4e, 0x93, 0xbd,
  0xe1, 0x34, 0x9f, 0x3e, 0x39, 0x31, 0x77, 0x3e, 0x01, 0x38, 0x5c, 0xbe,
  0xa4, 0x49, 0x44, 0xbe, 0x93, 0x2b, 0x42, 0x3d, 0xc3, 0x12, 0x8d, 0x3e,
  0x46, 0x2f, 0x0a, 0x3e, 0xf5, 0x95, 0xbb, 0x3d, 0xce, 0x9d, 0x03, 0xbc,
  0xed, 0x19, 0x37, 0x3e, 0x8b, 0x25, 0xae, 0xbd, 0x73, 0x3e, 0x69, 0x3d,
  0x79, 0xaa, 0x25, 0xbe, 0x32, 0xad, 0x82, 0xbe, 0x0c, 0x60, 0x13, 0xbe,
  0x82, 0x47, 0xb5, 0xbd, 0x01, 0x82, 0xe9, 0x3d, 0x15, 0xa7, 0x11, 0xbe,
  0x35, 0xcf, 0xd5, 0x3d, 0xf5, 0x1e, 0x57, 0xbe, 0x61, 0xff, 0x21, 0xbd,
  0x82, 0x0b, 0x8d, 0x3e, 0xe5, 0x1f, 0x5f, 0x3e, 0x6b, 0x08, 0xff, 0x3d,
  0x01, 0xbf, 0xb6, 0x3e, 0xf3, 0x39, 0x82, 0x3d, 0x24, 0x5d, 0x09, 0xbd,
  0xff, 0x80, 0x88, 0x3e, 0x7e, 0x4d, 0xc7, 0xbd, 0x87, 0x3a, 0x5a, 0x3e,
  0xb7, 0xee, 0x96, 0x3e, 0x65, 0x27, 0x6c, 0x3e, 0xf1, 0x08, 0x10, 0xbe,
  0x74, 0x74, 0xfb, 0x3d, 0x55, 0x72, 0x4c, 0x3e, 0x52, 0x4a, 0xd1, 0x3d,
  0x86, 0xad, 0x85, 0xbd, 0xb9, 0xd0, 0x7b, 0x3b, 0x60, 0xcb, 0x1d, 0xbe,
  0x58, 0x9d, 0xe5, 0x3d, 0xa1, 0x6d, 0xcc, 0x3d, 0x32, 0x30, 0xbd, 0xbd,
  0x28, 0xd0, 0x91, 0xbe, 0xe0, 0xb6, 0xf2, 0x3d, 0xb0, 0x83, 0x19, 0xbe,
  0x53, 0x15, 0x71, 0xbd, 0xe4, 0x3e, 0xbe, 0xbd, 0x37, 0xa5, 0xa5, 0x3e,
  0x32, 0xe0, 0x25, 0xbe, 0xa2, 0x9d, 0x5e, 0x3d, 0xc3, 0x24, 0x1f, 0x3e,
  0x19, 0x06, 0x45, 0xbe, 0x45, 0xf1, 0x36, 0xbd, 0x4b, 0xf9, 0x26, 0xbe,
  0xdc, 0xea, 0xf1, 0xbd, 0xa9, 0x85, 0x2a, 0x3c, 0x93, 0x97, 0x4b, 0xbe,
  0x53, 0x7c, 0xe8, 0x3d, 0xc5, 0x8c, 0x5d, 0xbe, 0x90, 0xb4, 0x88, 0xbe,
  0xb2, 0x3d, 0x62, 0x3e, 0x15, 0x85, 0x54, 0xbe, 0x4e, 0xb3, 0x2c, 0xbe,
  0xc0, 0xbd, 0x9e, 0xbe, 0x8b, 0x8a, 0x80, 0xbe, 0x18, 0xc6, 0x7e, 0x3a,
  0x9d, 0x16, 0x5e, 0xbe, 0xf1, 0xb5, 0xa4, 0x3d, 0xd1, 0x92, 0x37, 0x3d,
  0x50, 0x6e, 0x45, 0x3e, 0x4a, 0x55, 0x4a, 0x3e, 0xf9, 0xd6, 0x48, 0xbe,
  0x4f, 0xe7, 0xc5, 0x3c, 0x68, 0xe6, 0x2a, 0xbd, 0x96, 0x0e, 0xfc, 0x3a,
  0xc7, 0x75, 0x30, 0xbb, 0x0d, 0xba, 0x14, 0xbd, 0x41, 0x5e, 0x84, 0x3e,
  0x7c, 0x0c, 0xc8, 0x3c, 0x26, 0x71, 0x53, 0xbd, 0x6c, 0x26, 0x55, 0xbe,
  0x2d, 0xbc, 0xe8, 0xbd, 0xd0, 0x58, 0x5c, 0xbe, 0x3e, 0x6f, 0xa2, 0xbc,
  0x5e, 0xc7, 0x40, 0xbe, 0x91, 0x16, 0x09, 0x3e, 0x8a, 0xc1, 0x84, 0x3d,
  0x91, 0x95, 0x0b, 0xbd, 0xed, 0xa0, 0x2e, 0x3d, 0x84, 0x5d, 0x91, 0x3e,
  0x92, 0x34, 0x29, 0xbd, 0x7e, 0xb5, 0x53, 0x3d, 0xf1, 0x35, 0x5b, 0x3e,
  0x40, 0x4f, 0x1b, 0xbe, 0xb1, 0x1d, 0x76, 0xbe, 0xf8, 0xd7, 0x53, 0xbe,
  0x2c, 0x0b, 0x82, 0x3e, 0x6b, 0xac, 0x54, 0x3e, 0x70, 0x27, 0x6b, 0xbe,
  0x74, 0xc5, 0x01, 0x3e, 0x4c, 0x06, 0x30, 0xbe, 0xc9, 0xa2, 0x00, 0xbe,
  0xa8, 0x6a, 0xa5, 0xbd, 0x0d, 0x2c, 0xea, 0xbd, 0x38, 0x50, 0xc4, 0xbd,
  0x90, 0x58, 0x25, 0xbe, 0xb7, 0xcd, 0xbd, 0xbd, 0xb1, 0x23, 0xc0, 0xbd,
  0xd1, 0xe3, 0x7d, 0xbe, 0xdc, 0x9e, 0x22, 0xbe, 0x97, 0xd4, 0xe4, 0xbd,
  0x6b, 0x16, 0x84, 0x3d, 0xcb, 0x9e, 0xb4, 0xbc, 0xae, 0x30, 0xe7, 0xbd,
  0xa7, 0x5f, 0x2b, 0x3e, 0xa4, 0xb5, 0x83, 0xbe, 0x5b, 0x63, 0x15, 0xbe,
  0xa1, 0x82, 0x4c, 0x3e, 0x09, 0x5a, 0x0d, 0x3c, 0x71, 0xfb, 0x7e, 0x3d,
  0xf2, 0xec, 0xd7, 0xbd, 0xd4, 0x03, 0x0f, 0xbe, 0xb9, 0x5e, 0xa9, 0x3e,
  0xb8, 0x8b, 0x84, 0x3e, 0x1a, 0xa8, 0x6e, 0xbe, 0x21, 0xa3, 0x08, 0xbe,
  0xf1, 0x8d, 0x18, 0xba, 0x70, 0x96, 0x4d, 0x3d, 0xb3, 0xb9, 0xba, 0x3c,
  0x3c, 0x46, 0x45, 0x3d, 0x6a, 0x20, 0xd8, 0xbd, 0x21, 0xb1, 0x0d, 0x3e,
  0x96, 0x09, 0x90, 0xbe, 0x93, 0xe6, 0x53, 0xbe, 0xba, 0x9c, 0x88, 0xbe,
  0x25, 0x02, 0x5e, 0xbe, 0x45, 0x64, 0x5b, 0x3e, 0x8a, 0x40, 0x87, 0xbe,
  0xa5, 0x34, 0x1b, 0x3e, 0x21, 0x20, 0x34, 0x3e, 0xb5, 0x62, 0x72, 0x3b,
  0x16, 0x1d, 0xfc, 0x3c, 0x82, 0x75, 0x95, 0x3e, 0x7d, 0x68, 0xd7, 0x3d,
  0x3b, 0x03, 0x87, 0xbe, 0xf9, 0xdd, 0x3f, 0xbe, 0x56, 0x56, 0x43, 0x3e,
  0x43, 0x3d, 0x94, 0x3e, 0xd7, 0xaf, 0x81, 0xbe, 0x55, 0xb4, 0x90, 0x3e,
  0x6f, 0x95, 0x6e, 0xbd, 0x9b, 0x65, 0x54, 0x3e, 0x23, 0xa2, 0x15, 0x3e,
  0x54, 0xd7, 0x94, 0x3e, 0x83, 0x61, 0x40, 0xbe, 0xfc, 0x97, 0x59, 0xbe,
  0xd6, 0x87, 0x31, 0x3e, 0xc1, 0x96, 0x45, 0x3d, 0x0e, 0xe6, 0x04, 0x3d,
  0x7d, 0xf1, 0xa8, 0x3e, 0x5a, 0x56, 0xd0, 0xbd, 0x16, 0xd0, 0x17, 0xbe,
  0x51, 0x8d, 0x1f, 0xbe, 0x16, 0x98, 0x94, 0x3d, 0x86, 0xf6, 0x45, 0x3d,
  0x34, 0xab, 0x19, 0xbd, 0x9e, 0x60, 0x3c, 0x3e, 0x08, 0x3d, 0x4f, 0x3c,
  0x00, 0x72, 0x31, 0xbe, 0x7e, 0xa4, 0x57, 0xba, 0x89, 0xea, 0x06, 0x3d,
  0x57, 0x6a, 0x08, 0xbd, 0x09, 0x4e, 0xf1, 0x3d, 0x72, 0xfb, 0x53, 0x3e,
  0x01, 0x15, 0x52, 0xbe, 0x4c, 0xa7, 0x25, 0xbe, 0x75, 0x0d, 0x5e, 0x3e,
  0xa4, 0xdb, 0x7d, 0x3e, 0xbb, 0x38, 0x19, 0x3c, 0x46, 0x45, 0x98, 0x3e,
  0x12, 0x8c, 0x05, 0xbe, 0x78, 0x20, 0x6b, 0x3e, 0xda, 0x8e, 0xb7, 0x3d,
  0x45, 0x95, 0x98, 0x3e, 0x97, 0x1e, 0x5d, 0xbe, 0xa8, 0xe8, 0x33, 0x3e,
  0xcb, 0x18, 0x12, 0xbd, 0x26, 0x12, 0x1f, 0x3e, 0x74, 0x5d, 0x8e, 0x3e,
  0xc3, 0x82, 0xaa, 0x3e, 0xff, 0xb9, 0x96, 0x3e, 0xa3, 0xc3, 0x7e, 0x3d,
  0x1a, 0x62, 0xd5, 0x3e, 0x00, 0x3d, 0x48, 0x3d, 0x91, 0x09, 0x53, 0x3e,
  0xb7, 0x81, 0x4b, 0xbd, 0x55, 0x05, 0x07, 0x3e, 0x22, 0x8d, 0xb1, 0x3e,
  0x3c, 0x66, 0xb9, 0x3e, 0x62, 0x14, 0xbd, 0x3e, 0x0d, 0x41, 0xac, 0x3e,
  0xa1, 0x59, 0xd2, 0x3e, 0x1c, 0x62, 0x92, 0x3e, 0x22, 0x60, 0xcd, 0x3e,
  0x6e, 0x25, 0x5f, 0x3d, 0x66, 0xb8, 0xe8, 0xbd, 0xdd, 0x7d, 0xec, 0xbd,
  0xa0, 0x91, 0xa9, 0x3d, 0x2b, 0x76, 0xa3, 0x3e, 0xb0, 0x0a, 0x70, 0x3e,
  0xce, 0xe5, 0x21, 0x3e, 0x83, 0x77, 0x8c, 0x3e, 0xc4, 0x2b, 0x20, 0x3c,
  0x7e, 0xaa, 0x82, 0x3e, 0x4c, 0x33, 0x62, 0x3d, 0x18, 0x0b, 0x0b, 0x3e,
  0x5e, 0xb1, 0x58, 0xbe, 0xd2, 0x80, 0xa8, 0xbe, 0x18, 0x60, 0x33, 0xbd,
  0x9d, 0x9c, 0x89, 0xbe, 0xe4, 0x9a, 0x23, 0x3d, 0xf2, 0xf2, 0x95, 0x3e,
  0xb1, 0x86, 0xff, 0x3c, 0x6b, 0xd4, 0xfe, 0xbd, 0x41, 0x79, 0x07, 0x3e,
  0x66, 0xbb, 0x74, 0xbe, 0xb0, 0xf5, 0x0c, 0xbe, 0x2c, 0x7c, 0xc5, 0x3e,
  0x29, 0x32, 0x1a, 0xbd, 0xf1, 0x85, 0x83, 0x3e, 0x3b, 0xfc, 0x27, 0x3e,
  0x8c, 0x7e, 0xc5, 0x3d, 0xbf, 0x01, 0x24, 0x3e, 0x89, 0x9b, 0x49, 0x3e,
  0xaf, 0x4e, 0xd6, 0x3d, 0xe3, 0x79, 0x5b, 0xbe, 0xa4, 0x41, 0x67, 0xbe,
  0x0e, 0xc6, 0x99, 0x3c, 0x35, 0x8f, 0xb0, 0xbe, 0x69, 0x37, 0xcb, 0x3d,
  0xde, 0x32, 0x8a, 0xbe, 0x6d, 0x67, 0xf0, 0xbd, 0x01, 0xa5, 0x81, 0x3e,
  0x4a, 0xd2, 0x6b, 0xbe, 0x95, 0x9a, 0xaa, 0x3d, 0x38, 0x6f, 0x61, 0xbc,
  0x3b, 0x08, 0x96, 0x3e, 0x62, 0x30, 0x89, 0x3c, 0x58, 0x2a, 0x8a, 0x3e,
  0x52, 0x00, 0x98, 0x3e, 0x9a, 0xd5, 0xaa, 0x3e, 0xd5, 0x91, 0xcc, 0x3e,
  0xf6, 0x02, 0x91, 0xbe, 0x1d, 0x0e, 0x01, 0xbd, 0x58, 0xd5, 0xed, 0xbd,
  0x07, 0x89, 0x23, 0x3e, 0x68, 0x8d, 0x51, 0xbe, 0x10, 0xcd, 0x25, 0x3e,
  0xb8, 0x07, 0x7c, 0xbd, 0x1a, 0x60, 0x20, 0x3e, 0xc6, 0xc1, 0x1f, 0xbe,
  0xf8, 0x63, 0xa8, 0xbd, 0x45, 0x04, 0x1a, 0xbe, 0x2f, 0x88, 0x7c, 0x3d,
  0x28, 0x27, 0x95, 0x3c, 0xa9, 0x3a, 0x68, 0x3e, 0x2a, 0x77, 0x7d, 0xbe,
  0xc0, 0x32, 0x59, 0xbe, 0x8c, 0x20, 0x1f, 0xbe, 0xd9, 0x88, 0x43, 0xbe,
  0xcb, 0x3b, 0xac, 0xbe, 0x51, 0xce, 0xfc, 0xbc, 0x11, 0xfa, 0x04, 0x3e,
  0x38, 0x31, 0x8e, 0x3d, 0x80, 0x84, 0x64, 0xbe, 0xc5, 0x29, 0x3c, 0x3d,
  0xa7, 0x56, 0x9d, 0xbb, 0x78, 0xe9, 0xf0, 0x3c, 0xea, 0xc8, 0x05, 0xbe,
  0x04, 0x75, 0x64, 0xbd, 0xb3, 0xc9, 0x43, 0xbd, 0x90, 0x26, 0x3b, 0xbd,
  0xf3, 0xf4, 0xd5, 0xbb, 0xd4, 0x26, 0x48, 0xbd, 0x51, 0xdd, 0x47, 0xbe,
  0xbc, 0x9d, 0x8e, 0x3e, 0xb4, 0x09, 0x64, 0x3e, 0x5a, 0xa7, 0x8c, 0x3d,
  0x27, 0xda, 0x6b, 0x3c, 0xde, 0x67, 0xaf, 0xbc, 0xa5, 0x91, 0x19, 0xbe,
  0xef, 0xc4, 0x85, 0x3e, 0x39, 0xe7, 0x13, 0x3e, 0xc4, 0xd3, 0x04, 0xbd,
  0x02, 0xb2, 0x2c, 0xbe, 0x91, 0x8c, 0xd9, 0xbd, 0x05, 0x4b, 0xfe, 0xbd,
  0xbd, 0x1b, 0xa9, 0xbd, 0x0c, 0x89, 0x67, 0x3d, 0xea, 0x10, 0x5a, 0xbe,
  0x7b, 0x9e, 0xbd, 0xbd, 0x25, 0xa5, 0xab, 0x3d, 0x31, 0x4c, 0x1a, 0xbc,
  0xe2, 0xe4, 0x2f, 0xbe, 0x11, 0x1d, 0xb9, 0x3d, 0x80, 0xe8, 0x3d, 0xbe,
  0xe6, 0x6d, 0x1a, 0xbe, 0xd2, 0x71, 0x46, 0x3e, 0xc1, 0xda, 0xb9, 0x3c,
  0xa9, 0xae, 0x74, 0x3e, 0x09, 0xff, 0x88, 0xbe, 0x81, 0x64, 0x38, 0x3e,
  0x9f, 0xda, 0x38, 0xbe, 0xe0, 0xa1, 0x4a, 0xbe, 0xc3, 0x23, 0x9e, 0x3d,
  0x1c, 0xea, 0x28, 0x3e, 0xb0, 0x63, 0x9a, 0x3d, 0x26, 0x3e, 0x57, 0x3c,
  0xfc, 0xe0, 0x93, 0x3e, 0xfa, 0x85, 0x55, 0xbd, 0xd4, 0x6c, 0x84, 0x3e,
  0xf6, 0xc0, 0x56, 0x3e, 0x6d, 0x7b, 0x9c, 0x3e, 0xde, 0x33, 0x25, 0x3e,
  0x19, 0x9d, 0x9e, 0xbc, 0x3e, 0xb3, 0x38, 0x3e, 0xff, 0x85, 0x58, 0x3d,
  0xd5, 0x03, 0x77, 0x3d, 0x53, 0x49, 0x52, 0x3e, 0xda, 0x01, 0x9d, 0x3d,
  0x3c, 0xc3, 0x3e, 0xbe, 0x19, 0x74, 0x62, 0xbe, 0xce, 0x14, 0x2a, 0xbe,
  0xcc, 0xa8, 0x49, 0x3e, 0xe6, 0x50, 0x88, 0x3d, 0x09, 0x4e, 0xa9, 0x3d,
  0xdf, 0xf6, 0x86, 0xbd, 0x56, 0x4d, 0x4d, 0x3d, 0x6c, 0x7d, 0x80, 0xbe,
  0xc9, 0x55, 0x54, 0xbe, 0x10, 0xee, 0x6b, 0x3e, 0xd2, 0x09, 0x03, 0x3e,
  0x1c, 0x31, 0x1c, 0x3e, 0xd1, 0xf0, 0x5e, 0xbe, 0x9a, 0x74, 0x83, 0xbe,
  0x68, 0xce, 0x4d, 0x3e, 0x4e, 0x48, 0x83, 0x3e, 0x37, 0x01, 0xec, 0xbd,
  0x4a, 0xee, 0x75, 0xbe, 0x63, 0xf8, 0x93, 0xbe, 0x45, 0xd3, 0x66, 0xbe,
  0xa5, 0x02, 0xd1, 0xbc, 0xa6, 0xe6, 0x9a, 0xbd, 0x6f, 0x40, 0xd7, 0xbb,
  0x11, 0x25, 0xa7, 0xbd, 0xc1, 0xdb, 0x99, 0x3e, 0x89, 0xb0, 0x75, 0x3e,
  0x88, 0x5c, 0x0f, 0x3e, 0xac, 0x4b, 0x9b, 0x3e, 0xbe, 0x21, 0x44, 0xbe,
  0xfe, 0x22, 0x20, 0x3d, 0x0f, 0xb2, 0x1d, 0xbd, 0x42, 0xb5, 0x50, 0x3e,
  0x17, 0x65, 0xdd, 0xbd, 0xc8, 0xb3, 0x81, 0x3d, 0x8d, 0xe0, 0x41, 0xbd,
  0x55, 0xb3, 0x3d, 0xbe, 0x83, 0x5f, 0xa0, 0x3e, 0x76, 0x21, 0x93, 0xbd,
  0xc5, 0x5f, 0x62, 0x3e, 0xbf, 0x33, 0x0a, 0x3e, 0x8b, 0x44, 0x6f, 0x3e,
  0xa8, 0x32, 0x80, 0x3e, 0xb3, 0xe9, 0x08, 0x3e, 0xd0, 0xe5, 0x9d, 0x3d,
  0x5c, 0xd0, 0xd9, 0x3b, 0x41, 0xf5, 0x10, 0xbd, 0x09, 0xc1, 0x31, 0xbe,
  0x94, 0x0a, 0x86, 0x3d, 0x4c, 0xdf, 0x86, 0xbe, 0x68, 0xae, 0x38, 0x3e,
  0xa8, 0x5b, 0x3b, 0x3e, 0x41, 0x7c, 0x52, 0x3e, 0x6d, 0xa3, 0x97, 0xbd,
  0x75, 0x07, 0x56, 0x3e, 0x59, 0x52, 0x79, 0x3e, 0xae, 0x8f, 0xb2, 0x3d,
  0x09, 0xf5, 0x22, 0x3e, 0x3f, 0x82, 0x4e, 0x3e, 0x17, 0xdf, 0x0f, 0xbe,
  0xc8, 0x60, 0x1c, 0x3e, 0x44, 0x93, 0xd7, 0x3d, 0x53, 0xc8, 0x6b, 0xbe,
  0x48, 0x2b, 0x59, 0x3e, 0x91, 0x99, 0x72, 0x3e, 0x46, 0xc0, 0x50, 0x3d,
  0x71, 0x43, 0x2f, 0xbb, 0x84, 0x67, 0xd9, 0x3d, 0xb1, 0xb9, 0x6d, 0x3e,
  0x41, 0x73, 0x46, 0x3b, 0xf2, 0x5e, 0x99, 0x3d, 0xd7, 0x08, 0x90, 0x3e,
  0x11, 0xe4, 0x2c, 0x3e, 0xb1, 0x74, 0x4d, 0x3e, 0x77, 0xcf, 0x36, 0xbe,
  0x23, 0x31, 0x8e, 0xbe, 0xac, 0x41, 0x83, 0x3c, 0x58, 0x21, 0xe3, 0x3c,
  0x34, 0x2a, 0xa3, 0x3c, 0x4c, 0x4f, 0x35, 0xbd, 0xd6, 0xf2, 0x73, 0x3c,
  0xae, 0x3a, 0x7e, 0xbd, 0x8a, 0x3d, 0xa0, 0x3d, 0xbf, 0x02, 0xac, 0x3d,
  0x3e, 0x26, 0xf8, 0x3d, 0x41, 0x41, 0x8d, 0xbe, 0xc3, 0xd8, 0x69, 0xbe,
  0x86, 0xb0, 0x87, 0x3e, 0x38, 0x1b, 0x85, 0x3e, 0x3a, 0x70, 0xcc, 0x3d,
  0x52, 0x27, 0x06, 0x3e, 0xfa, 0xc8, 0x67, 0xbe, 0x17, 0x6e, 0x86, 0xbe,
  0xff, 0xcf, 0x1c, 0x3e, 0xda, 0x86, 0x93, 0x3e, 0x7f, 0xd3, 0x05, 0x3e,
  0xbf, 0x43, 0x22, 0x3e, 0xac, 0xc8, 0xd1, 0xbc, 0x8f, 0x23, 0x1c, 0x3e,
  0xa9, 0x3a, 0x74, 0x3e, 0xdf, 0x6e, 0x20, 0x3e, 0x79, 0x47, 0x15, 0x3e,
  0xf0, 0x59, 0xc6, 0x3d, 0xd4, 0x55, 0x42, 0x3d, 0x2a, 0xdc, 0x35, 0xbe,
  0xc1, 0x69, 0x61, 0xbe, 0xc1, 0xc1, 0x54, 0xbe, 0xf1, 0x88, 0x84, 0xbe,
  0xda, 0x84, 0x9a, 0x3d, 0x61, 0xf5, 0x4d, 0x3e, 0x95, 0x0f, 0x31, 0x3e,
  0x3b, 0x7c, 0x02, 0xbd, 0xbf, 0x85, 0xf2, 0xbd, 0x77, 0x8e, 0x4e, 0xbe,
  0xdc, 0x76, 0x7c, 0x3e, 0x00, 0x86, 0x7b, 0xbe, 0x8d, 0x63, 0x35, 0xbe,
  0x1e, 0xf8, 0x55, 0x3e, 0x9a, 0x87, 0x75, 0xbc, 0x88, 0x37, 0x93, 0xbe,
  0x25, 0x6e, 0x00, 0xbe, 0xd9, 0x67, 0x4c, 0xbe, 0xe3, 0x6d, 0x5f, 0xbc,
  0x55, 0x2c, 0x99, 0x3e, 0xf8, 0x63, 0xb2, 0xbc, 0x2a, 0x6d, 0xcb, 0xbd,
  0xf0, 0xa0, 0xad, 0xbd, 0xf4, 0x47, 0x0b, 0xbe, 0x55, 0x02, 0x5a, 0x3d,
  0xc9, 0x8e, 0xf5, 0x3c, 0x0f, 0xc2, 0x38, 0x3c, 0xda, 0xe4, 0x11, 0xbe,
  0x0f, 0xad, 0x6a, 0x3e, 0xc1, 0x43, 0x2a, 0xbe, 0x4a, 0x2c, 0x36, 0x3e,
  0x55, 0x81, 0x93, 0x3c, 0x45, 0xb7, 0xc2, 0xbd, 0xa3, 0x6e, 0x91, 0xbd,
  0x76, 0x25, 0x6e, 0x3e, 0xbc, 0xb0, 0x3c, 0x3e, 0x49, 0x70, 0x8e, 0x3d,
  0x1e, 0x2d, 0xf5, 0xbd, 0xa6, 0xe5, 0x2a, 0x3c, 0x27, 0x40, 0x85, 0x3e,
  0x8a, 0x0c, 0x55, 0x3d, 0x66, 0xfd, 0x0e, 0x3c, 0xeb, 0x87, 0x18, 0x3d,
  0x3c, 0x13, 0x1c, 0xbe, 0x77, 0xb7, 0x43, 0x3c, 0xdd, 0xb2, 0xbd, 0x3e,
  0x9b, 0x48, 0x8d, 0x3e, 0x0a, 0x9b, 0xce, 0x3e, 0x4f, 0x6e, 0x9e, 0x3d,
  0xb1, 0xa0, 0x38, 0xbe, 0xe3, 0xdc, 0x6e, 0xbe, 0xc8, 0xa8, 0x4f, 0xbe,
  0x08, 0x7c, 0x81, 0x3e, 0xdf, 0xd9, 0xf5, 0xbd, 0xec, 0x3d, 0x07, 0x3d,
  0x5c, 0x46, 0xdf, 0x3d, 0xd4, 0xcd, 0x80, 0xbe, 0x37, 0x14, 0x0a, 0x3e,
  0x16, 0x23, 0xdc, 0x3d, 0xe7, 0x25, 0x17, 0x3e, 0x23, 0x39, 0x2c, 0xbe,
  0x84, 0x5d, 0x62, 0xbe, 0x20, 0xfd, 0xf8, 0x3d, 0xf5, 0x04, 0x37, 0x3d,
  0x71, 0x19, 0x3f, 0xbd, 0xcc, 0x56, 0x00, 0xbb, 0x64, 0xb0, 0x6f, 0xbe,
  0xda, 0xb9, 0x83, 0x3e, 0xe0, 0x0e, 0xbc, 0xbc, 0x67, 0x30, 0xa0, 0x3e,
  0xd7, 0x43, 0x80, 0xbd, 0xe2, 0xd7, 0xcd, 0x3e, 0x20, 0x61, 0x02, 0x3e,
  0x07, 0x7e, 0xbd, 0xbd, 0x4e, 0x53, 0x3a, 0xbe, 0x4b, 0x36, 0x4b, 0x3e,
  0x8f, 0x1b, 0x0f, 0x3e, 0x56, 0x57, 0xa5, 0xbe, 0xe2, 0xb7, 0x6e, 0x3d,
  0x77, 0xe4, 0x82, 0xbe, 0x89, 0x9b, 0x53, 0xbe, 0x47, 0x37, 0x69, 0xbe,
  0x11, 0x99, 0x71, 0xbe, 0xa4, 0x56, 0x2c, 0xbe, 0x7f, 0xc7, 0xa3, 0xbe,
  0xcd, 0xaf, 0x35, 0xbd, 0x63, 0xa2, 0xa1, 0xbd, 0xf9, 0x48, 0xfa, 0x3d,
  0xd8, 0x0a, 0xe8, 0xbd, 0xb2, 0x6e, 0x4f, 0xbe, 0xc7, 0x8f, 0x04, 0xbe,
  0xd0, 0x38, 0x94, 0x3e, 0xa5, 0x68, 0x20, 0x3e, 0x6e, 0xe9, 0x47, 0x3e,
  0xef, 0x8e, 0xec, 0xba, 0xce, 0x29, 0x4c, 0x3e, 0x51, 0xaa, 0x38, 0xbe,
  0xf9, 0xde, 0x20, 0xbe, 0x5b, 0xcb, 0x3d, 0x3e, 0xd1, 0x6d, 0x3e, 0xbe,
  0x8e, 0x31, 0x44, 0xbe, 0xb0, 0x96, 0x23, 0x3d, 0xb4, 0xb2, 0x24, 0x3d,
  0xe3, 0x41, 0x4e, 0x3d, 0xb8, 0x47, 0x0d, 0x3d, 0xb7, 0x69, 0x8b, 0xbe,
  0x9c, 0x31, 0xf1, 0xbd, 0x9c, 0x59, 0x33, 0x3e, 0x46, 0x04, 0x90, 0xbe,
  0x6e, 0x77, 0xa9, 0xbd, 0xa6, 0x69, 0xdc, 0xbd, 0x8d, 0x00, 0x82, 0xbe,
  0x96, 0x36, 0x70, 0xbc, 0x65, 0x37, 0x2d, 0x3e, 0x50, 0x1f, 0x67, 0xbe,
  0xda, 0xb2, 0x97, 0x3e, 0xb5, 0x19, 0x98, 0xbd, 0x7c, 0x5b, 0x2a, 0x3e,
  0xed, 0x9f, 0x9e, 0xbd, 0x58, 0x35, 0x0e, 0xbe, 0x29, 0x0e, 0x13, 0x3e,
  0xf3, 0xf2, 0xe5, 0x3d, 0x62, 0x25, 0x8a, 0x3e, 0xd3, 0x6e, 0x91, 0xbe,
  0x2a, 0x70, 0x6e, 0x3c, 0x32, 0x7b, 0x8f, 0xbd, 0x4f, 0x22, 0x29, 0xbe,
  0x1f, 0x37, 0xb5, 0x3d, 0xbd, 0xea, 0x21, 0x3e, 0x91, 0xda, 0x89, 0xbe,
  0x3f, 0xde, 0x81, 0x3d, 0xbf, 0xd2, 0x0a, 0x3e, 0xef, 0xee, 0x1e, 0xbe,
  0x33, 0x9c, 0x3c, 0xbe, 0x09, 0xa2, 0x56, 0x3d, 0xb2, 0x8d, 0x4b, 0x3d,
  0x7e, 0x1c, 0x42, 0xbb, 0xf7, 0x6e, 0x72, 0xbe, 0x3b, 0x7e, 0x3f, 0xbe,
  0xa8, 0x6d, 0x82, 0x3e, 0xef, 0xd8, 0x7a, 0xbe, 0xdf, 0x53, 0x16, 0xbe,
  0x64, 0xe4, 0x58, 0x3e, 0x2e, 0x0c, 0xff, 0xb9, 0x35, 0xc5, 0xf3, 0xbd,
  0xe7, 0x79, 0x3e, 0x3e, 0x4e, 0x9c, 0xf5, 0xbc, 0xe8, 0x6a, 0x7b, 0xbd,
  0xa6, 0xf2, 0x84, 0xbe, 0x8c, 0xf2, 0x2a, 0x3d, 0xff, 0x4f, 0x2c, 0xbe,
  0x36, 0x3a, 0x18, 0xbe, 0xcf, 0x99, 0x69, 0xbe, 0xf7, 0xc3, 0x6f, 0x3e,
  0x6d, 0xd7, 0x82, 0xbe, 0x8d, 0x7f, 0x34, 0x3d, 0xf0, 0x37, 0x15, 0xbe,
  0x5f, 0x69, 0x30, 0x3e, 0x63, 0xe8, 0xec, 0x3d, 0xa7, 0x47, 0x2f, 0xbe,
  0x3f, 0xe0, 0x4f, 0x3e, 0xe2, 0x5d, 0xbe, 0x3d, 0x14, 0x08, 0x79, 0xbd,
  0x66, 0xdd, 0xf7, 0xbd, 0xec, 0xca, 0xae, 0xbd, 0xe7, 0x4b, 0x79, 0x3e,
  0x23, 0x65, 0xf8, 0xbc, 0xea, 0xd2, 0x46, 0xbe, 0x09, 0x4f, 0x98, 0xbe,
  0xf6, 0x68, 0x53, 0x3e, 0xe0, 0x94, 0x1a, 0xbe, 0x8f, 0xcb, 0xa0, 0x3d,
  0x28, 0x59, 0x2e, 0x3e, 0xb5, 0x0b, 0x95, 0x3d, 0x01, 0x7e, 0x89, 0x3d,
  0x43, 0x4c, 0x4c, 0xbe, 0x4d, 0xfc, 0x49, 0x3e, 0xcb, 0xa0, 0x7a, 0xbe,
  0xb3, 0x35, 0x0f, 0xbd, 0xa9, 0x28, 0x01, 0x3d, 0x94, 0xb3, 0x6c, 0x3e,
  0x43, 0x0e, 0xdb, 0xbd, 0x26, 0x48, 0xbf, 0xbd, 0xe8, 0xe6, 0x74, 0x3e,
  0xe7, 0x1b, 0x6a, 0xbe, 0x46, 0xd6, 0x84, 0xbe, 0x05, 0x5e, 0xf3, 0xbd,
  0x44, 0x3e, 0xc1, 0x3e, 0x7b, 0xbb, 0x28, 0xbe, 0x41, 0x8d, 0x4d, 0x3d,
  0x17, 0x21, 0xc7, 0x3d, 0x01, 0x5d, 0x87, 0x3e, 0x11, 0xa8, 0x8d, 0xbe,
  0xe5, 0x54, 0xf7, 0x3d, 0x39, 0x60, 0x7a, 0x3e, 0x05, 0x81, 0x35, 0x3e,
  0x15, 0x96, 0x57, 0x3d, 0xbf, 0x07, 0x48, 0xbe, 0x64, 0xe3, 0x86, 0xbe,
  0x91, 0x41, 0x2e, 0x3e, 0x2c, 0xb5, 0x16, 0xbd, 0x5b, 0xf7, 0x86, 0xbd,
  0x8e, 0x20, 0x37, 0xbe, 0xcd, 0xc6, 0x94, 0xbe, 0x13, 0x88, 0x7d, 0xbe,
  0x06, 0x09, 0x81, 0xbe, 0x74, 0x8c, 0x1c, 0x3e, 0x67, 0x42, 0x6b, 0xbe,
  0xde, 0x21, 0x59, 0x3d, 0xd0, 0x6a, 0xdf, 0x3d, 0x20, 0xa8, 0xa5, 0x3d,
  0x84, 0xa4, 0x34, 0x3e, 0x39, 0x44, 0x5b, 0xbe, 0xff, 0x66, 0xcc, 0xbc,
  0xb7, 0x3b, 0x88, 0x3e, 0x86, 0x44, 0x88, 0xbd, 0xc2, 0x06, 0x8a, 0xbe,
  0xc8, 0xd5, 0x03, 0x3e, 0x65, 0x55, 0x94, 0xbe, 0xec, 0x25, 0xe1, 0xbd,
  0x47, 0x27, 0x66, 0xbe, 0x98, 0xd7, 0x1d, 0x3e, 0xfa, 0x60, 0x3a, 0xbe,
  0xa7, 0x84, 0x70, 0x3e, 0xfc, 0x04, 0x16, 0xbd, 0x40, 0xe6, 0xec, 0x3d,
  0x4d, 0x4a, 0x8f, 0xbe, 0x55, 0x1c, 0xb0, 0x3e, 0x8b, 0x8c, 0x90, 0x3e,
  0x7c, 0xcb, 0x66, 0x3e, 0x8d, 0x4e, 0xa1, 0x3d, 0x33, 0x29, 0x29, 0x3d,
  0xf6, 0xbc, 0x52, 0x3e, 0xa3, 0x21, 0x06, 0xbe, 0x65, 0x74, 0x7b, 0x3d,
  0xfd, 0x94, 0xa9, 0xbe, 0xb9, 0x71, 0x55, 0xbd, 0xcd, 0x0a, 0x33, 0xbe,
  0x8d, 0xb1, 0x90, 0x3b, 0x19, 0x92, 0x87, 0x3d, 0x66, 0x85, 0x52, 0x3c,
  0xa7, 0x21, 0x2a, 0x3d, 0x98, 0xc8, 0x0e, 0x3d, 0x90, 0xfa, 0xf2, 0xbd,
  0xec, 0xba, 0xec, 0x3c, 0x48, 0x1e, 0x88, 0xbe, 0xa1, 0x1d, 0x16, 0x3e,
  0x6f, 0xc5, 0x5d, 0xbe, 0x8a, 0xad, 0x22, 0x3e, 0x62, 0x89, 0x99, 0xbd,
  0xf3, 0x9d, 0x15, 0x3e, 0x36, 0xe1, 0xb8, 0x3b, 0x4a, 0xfb, 0x80, 0x3d,
  0x46, 0x10, 0x97, 0x3e, 0x44, 0xb4, 0x84, 0x3e, 0x13, 0xcd, 0x04, 0xbe,
  0x41, 0x2e, 0xf5, 0xbd, 0x69, 0x02, 0xb1, 0x3e, 0x62, 0x86, 0x46, 0xbe,
  0xcf, 0xdb, 0x24, 0xbd, 0x95, 0x0b, 0x8f, 0x3e, 0x79, 0xe6, 0x62, 0x3d,
  0x43, 0x85, 0x1c, 0xbe, 0x44, 0x53, 0x5b, 0x3e, 0xd8, 0xa3, 0x2d, 0xbd,
  0x4d, 0xbc, 0x98, 0x3d, 0x61, 0x43, 0x90, 0xbd, 0x32, 0x71, 0x49, 0xbe,
  0x24, 0x25, 0x74, 0xbd, 0x26, 0xa4, 0x44, 0xbe, 0x63, 0x31, 0x52, 0x3e,
  0x19, 0x48, 0xce, 0x3d, 0xf0, 0x34, 0x1a, 0xbe, 0x84, 0xb0, 0x7c, 0xbb,
  0x27, 0x87, 0x71, 0xbd, 0x63, 0xf8, 0x43, 0x3e, 0xac, 0xc4, 0x92, 0x3e,
  0xa9, 0x22, 0x1c, 0xbe, 0x91, 0x8c, 0x52, 0x3e, 0x97, 0x0d, 0x8f, 0x3d,
  0x9a, 0x1d, 0x24, 0x3e, 0x77, 0x43, 0x05, 0x3e, 0x12, 0xc1, 0x7d, 0xbe,
  0xa2, 0xfe, 0xff, 0xff, 0x10, 0x00, 0x00, 0x00, 0x04, 0x00, 0x00, 0x00,
  0x1c, 0x00, 0x00, 0x00, 0x38, 0x00, 0x00, 0x00, 0x04, 0x00, 0x00, 0x00,
  0x10, 0x00, 0x00, 0x00, 0x03, 0x00, 0x00, 0x00, 0x03, 0x00, 0x00, 0x00,
  0x08, 0x00, 0x00, 0x00, 0x1a, 0x00, 0x00, 0x00, 0x73, 0x65, 0x71, 0x75,
  0x65, 0x6e, 0x74, 0x69, 0x61, 0x6c, 0x2f, 0x63, 0x6f, 0x6e, 0x76, 0x32,
  0x64, 0x5f, 0x31, 0x2f, 0x43, 0x6f, 0x6e, 0x76, 0x32, 0x44, 0x00, 0x00,
  0xe8, 0xfd, 0xff, 0xff, 0x42, 0xff, 0xff, 0xff, 0x04, 0x00, 0x00, 0x00,
  0x20, 0x00, 0x00, 0x00, 0x60, 0x8b, 0xed, 0x3a, 0xd3, 0x30, 0x17, 0xb9,
  0xf4, 0x03, 0xb7, 0x3c, 0x42, 0x63, 0xfe, 0xb8, 0x7f, 0x3e, 0x96, 0x3d,
  0x5b, 0x5f, 0x8e, 0x3d, 0x71, 0x41, 0x36, 0x3d, 0x7a, 0xee, 0xad, 0xbd,
  0x1a, 0xff, 0xff, 0xff, 0x10, 0x00, 0x00, 0x00, 0x03, 0x00, 0x00, 0x00,
  0x10, 0x00, 0x00, 0x00, 0x7c, 0x00, 0x00, 0x00, 0x01, 0x00, 0x00, 0x00,
  0x08, 0x00, 0x00, 0x00, 0x64, 0x00, 0x00, 0x00, 0x73, 0x65, 0x71, 0x75,
  0x65, 0x6e, 0x74, 0x69, 0x61, 0x6c, 0x2f, 0x63, 0x6f, 0x6e, 0x76, 0x32,
  0x64, 0x2f, 0x42, 0x69, 0x61, 0x73, 0x41, 0x64, 0x64, 0x3b, 0x73, 0x65,
  0x71, 0x75, 0x65, 0x6e, 0x74, 0x69, 0x61, 0x6c, 0x2f, 0x63, 0x6f, 0x6e,
  0x76, 0x32, 0x64, 0x2f, 0x43, 0x6f, 0x6e, 0x76, 0x32, 0x44, 0x3b, 0x73,
  0x65, 0x71, 0x75, 0x65, 0x6e, 0x74, 0x69, 0x61, 0x6c, 0x2f, 0x63, 0x6f,
  0x6e, 0x76, 0x32, 0x64, 0x2f, 0x42, 0x69, 0x61, 0x73, 0x41, 0x64, 0x64,
  0x2f, 0x52, 0x65, 0x61, 0x64, 0x56, 0x61, 0x72, 0x69, 0x61, 0x62, 0x6c,
  0x65, 0x4f, 0x70, 0x2f, 0x72, 0x65, 0x73, 0x6f, 0x75, 0x72, 0x63, 0x65,
  0x00, 0x00, 0x00, 0x00, 0x04, 0x00, 0x06, 0x00, 0x04, 0x00, 0x00, 0x00,
  0x00, 0x00, 0x06, 0x00, 0x08, 0x00, 0x04, 0x00, 0x06, 0x00, 0x00, 0x00,
  0x04, 0x00, 0x00, 0x00, 0x40, 0x00, 0x00, 0x00, 0x46, 0xfe, 0x96, 0xbd,
  0x86, 0x2f, 0x0c, 0x3e, 0x0a, 0xc1, 0xf7, 0x3d, 0xe3, 0x9f, 0x67, 0x3d,
  0x30, 0x43, 0x91, 0xbd, 0x22, 0x20, 0x90, 0xbd, 0x51, 0x48, 0x34, 0x3e,
  0xed, 0x27, 0x2b, 0x3e, 0x93, 0x46, 0xe1, 0xbd, 0xf3, 0x4b, 0x42, 0x3e,
  0x7b, 0x96, 0xeb, 0x3c, 0x70, 0x4d, 0x11, 0x3e, 0x4c, 0x52, 0x97, 0xbd,
  0x1e, 0x63, 0xd7, 0x3d, 0x54, 0x57, 0x08, 0x3e, 0x93, 0xa7, 0x9b, 0xbd,
  0x00, 0x00, 0x0e, 0x00, 0x14, 0x00, 0x04, 0x00, 0x00, 0x00, 0x08, 0x00,
  0x0c, 0x00, 0x10, 0x00, 0x0e, 0x00, 0x00, 0x00, 0x10, 0x00, 0x00, 0x00,
  0x02, 0x00, 0x00, 0x00, 0x10, 0x00, 0x00, 0x00, 0x7c, 0x00, 0x00, 0x00,
  0x01, 0x00, 0x00, 0x00, 0x10, 0x00, 0x00, 0x00, 0x6a, 0x00, 0x00, 0x00,
  0x73, 0x65, 0x71, 0x75, 0x65, 0x6e, 0x74, 0x69, 0x61, 0x6c, 0x2f, 0x63,
  0x6f, 0x6e, 0x76, 0x32, 0x64, 0x5f, 0x31, 0x2f, 0x42, 0x69, 0x61, 0x73,
  0x41, 0x64, 0x64, 0x3b, 0x73, 0x65, 0x71, 0x75, 0x65, 0x6e, 0x74, 0x69,
  0x61, 0x6c, 0x2f, 0x63, 0x6f, 0x6e, 0x76, 0x32, 0x64, 0x5f, 0x31, 0x2f,
  0x43, 0x6f, 0x6e, 0x76, 0x32, 0x44, 0x3b, 0x73, 0x65, 0x71, 0x75, 0x65,
  0x6e, 0x74, 0x69, 0x61, 0x6c, 0x2f, 0x63, 0x6f, 0x6e, 0x76, 0x32, 0x64,
  0x5f, 0x31, 0x2f, 0x42, 0x69, 0x61, 0x73, 0x41, 0x64, 0x64, 0x2f, 0x52,
  0x65, 0x61, 0x64, 0x56, 0x61, 0x72, 0x69, 0x61, 0x62, 0x6c, 0x65, 0x4f,
  0x70, 0x2f, 0x72, 0x65, 0x73, 0x6f, 0x75, 0x72, 0x63, 0x65, 0x00, 0x00,
  0x98, 0xff, 0xff, 0xff, 0x14, 0x00, 0x18, 0x00, 0x04, 0x00, 0x00, 0x00,
  0x08, 0x00, 0x0c, 0x00, 0x10, 0x00, 0x00, 0x00, 0x00, 0x00, 0x14, 0x00,
  0x14, 0x00, 0x00, 0x00, 0x14, 0x00, 0x00, 0x00, 0x01, 0x00, 0x00, 0x00,
  0x20, 0x00, 0x00, 0x00, 0x3c, 0x00, 0x00, 0x00, 0x24, 0x00, 0x00, 0x00,
  0x04, 0x00, 0x00, 0x00, 0x01, 0x00, 0x00, 0x00, 0x10, 0x00, 0x00, 0x00,
  0x10, 0x00, 0x00, 0x00, 0x01, 0x00, 0x00, 0x00, 0x07, 0x00, 0x00, 0x00,
  0x69, 0x6e, 0x70, 0x75, 0x74, 0x5f, 0x31, 0x00, 0x04, 0x00, 0x00, 0x00,
  0xff, 0xff, 0xff, 0xff, 0x10, 0x00, 0x00, 0x00, 0x10, 0x00, 0x00, 0x00,
  0x01, 0x00, 0x00, 0x00, 0xfc, 0xff, 0xff, 0xff, 0x04, 0x00, 0x04, 0x00,
  0x04, 0x00, 0x00, 0x00
};
unsigned int _home_zeep_sandbox_funchuk_training_output_gesture_model_tflite_len = 12736;
