#include "gesture_model_tflite.h"
const unsigned char gesture_model_tflite_data[] = {
  0x1c, 0x00, 0x00, 0x00, 0x54, 0x46, 0x4c, 0x33, 0x14, 0x00, 0x20, 0x00,
  0x04, 0x00, 0x08, 0x00, 0x0c, 0x00, 0x10, 0x00, 0x14, 0x00, 0x00, 0x00,
  0x18, 0x00, 0x1c, 0x00, 0x14, 0x00, 0x00, 0x00, 0x03, 0x00, 0x00, 0x00,
  0x18, 0x00, 0x00, 0x00, 0x2c, 0x00, 0x00, 0x00, 0xd8, 0x00, 0x00, 0x00,
  0x2c, 0x00, 0x00, 0x00, 0x80, 0x00, 0x00, 0x00, 0x78, 0x00, 0x00, 0x00,
  0x05, 0x00, 0x00, 0x00, 0x1c, 0x07, 0x00, 0x00, 0x38, 0x06, 0x00, 0x00,
  0xac, 0x03, 0x00, 0x00, 0xe8, 0x02, 0x00, 0x00, 0xac, 0x01, 0x00, 0x00,
  0x01, 0x00, 0x00, 0x00, 0xd0, 0x00, 0x00, 0x00, 0x14, 0x00, 0x00, 0x00,
  0x5c, 0x31, 0x00, 0x00, 0x58, 0x31, 0x00, 0x00, 0x00, 0x30, 0x00, 0x00,
  0x38, 0x2f, 0x00, 0x00, 0xdc, 0x1c, 0x00, 0x00, 0x60, 0x1b, 0x00, 0x00,
  0xb8, 0x1a, 0x00, 0x00, 0x38, 0x1a, 0x00, 0x00, 0xcc, 0x19, 0x00, 0x00,
  0x7c, 0x09, 0x00, 0x00, 0xa8, 0x07, 0x00, 0x00, 0x30, 0x31, 0x00, 0x00,
  0x2c, 0x31, 0x00, 0x00, 0x28, 0x31, 0x00, 0x00, 0x24, 0x31, 0x00, 0x00,
  0x20, 0x31, 0x00, 0x00, 0x1c, 0x31, 0x00, 0x00, 0x18, 0x31, 0x00, 0x00,
  0x14, 0x31, 0x00, 0x00, 0x3c, 0x00, 0x00, 0x00, 0x00, 0x00, 0x00, 0x00,
  0x01, 0x00, 0x00, 0x00, 0x0c, 0x00, 0x00, 0x00, 0x08, 0x00, 0x0c, 0x00,
  0x04, 0x00, 0x08, 0x00, 0x08, 0x00, 0x00, 0x00, 0x08, 0x00, 0x00, 0x00,
  0x13, 0x00, 0x00, 0x00, 0x13, 0x00, 0x00, 0x00, 0x6d, 0x69, 0x6e, 0x5f,
  0x72, 0x75, 0x6e, 0x74, 0x69, 0x6d, 0x65, 0x5f, 0x76, 0x65, 0x72, 0x73,
  0x69, 0x6f, 0x6e, 0x00, 0x86, 0xd0, 0xff, 0xff, 0x04, 0x00, 0x00, 0x00,
  0x10, 0x00, 0x00, 0x00, 0x31, 0x2e, 0x35, 0x2e, 0x30, 0x00, 0x00, 0x00,
  0x00, 0x00, 0x00, 0x00, 0x00, 0x00, 0x00, 0x00, 0x0f, 0x00, 0x00, 0x00,
  0x4d, 0x4c, 0x49, 0x52, 0x20, 0x43, 0x6f, 0x6e, 0x76, 0x65, 0x72, 0x74,
  0x65, 0x64, 0x2e, 0x00, 0x00, 0x00, 0x0e, 0x00, 0x18, 0x00, 0x04, 0x00,
  0x08, 0x00, 0x0c, 0x00, 0x10, 0x00, 0x14, 0x00, 0x0e, 0x00, 0x00, 0x00,
  0x14, 0x00, 0x00, 0x00, 0x5c, 0x00, 0x00, 0x00, 0x60, 0x00, 0x00, 0x00,
  0x64, 0x00, 0x00, 0x00, 0x84, 0x00, 0x00, 0x00, 0x12, 0x00, 0x00, 0x00,
  0x24, 0x30, 0x00, 0x00, 0x7c, 0x2f, 0x00, 0x00, 0x84, 0x2e, 0x00, 0x00,
  0x08, 0x2e, 0x00, 0x00, 0xac, 0x1b, 0x00, 0x00, 0x24, 0x1a, 0x00, 0x00,
  0x7c, 0x19, 0x00, 0x00, 0x10, 0x19, 0x00, 0x00, 0xa8, 0x18, 0x00, 0x00,
  0x54, 0x08, 0x00, 0x00, 0x00, 0x06, 0x00, 0x00, 0x1c, 0x05, 0x00, 0x00,
  0xdc, 0x03, 0x00, 0x00, 0x30, 0x03, 0x00, 0x00, 0x88, 0x02, 0x00, 0x00,
  0xc4, 0x01, 0x00, 0x00, 0x00, 0x01, 0x00, 0x00, 0x84, 0x00, 0x00, 0x00,
  0x01, 0x00, 0x00, 0x00, 0x00, 0x00, 0x00, 0x00, 0x01, 0x00, 0x00, 0x00,
  0x11, 0x00, 0x00, 0x00, 0x08, 0x00, 0x00, 0x00, 0x68, 0x05, 0x00, 0x00,
  0x88, 0x04, 0x00, 0x00, 0x6c, 0x03, 0x00, 0x00, 0xbc, 0x02, 0x00, 0x00,
  0x20, 0x02, 0x00, 0x00, 0x40, 0x01, 0x00, 0x00, 0x98, 0x00, 0x00, 0x00,
  0x10, 0x00, 0x00, 0x00, 0x04, 0x00, 0x00, 0x00, 0x6d, 0x61, 0x69, 0x6e,
  0x00, 0x00, 0x00, 0x00, 0x72, 0xfd, 0xff, 0xff, 0x00, 0x00, 0x00, 0x09,
  0x04, 0x00, 0x00, 0x00, 0x1c, 0x00, 0x00, 0x00, 0x10, 0x00, 0x00, 0x00,
  0x04, 0x00, 0x00, 0x00, 0x82, 0xd1, 0xff, 0xff, 0x00, 0x00, 0x80, 0x3f,
  0x01, 0x00, 0x00, 0x00, 0x11, 0x00, 0x00, 0x00, 0x01, 0x00, 0x00, 0x00,
  0x10, 0x00, 0x00, 0x00, 0xac, 0xfa, 0xff, 0xff, 0x19, 0x00, 0x00, 0x00,
  0x00, 0x00, 0x00, 0x19, 0x01, 0x00, 0x00, 0x00, 0xb8, 0xd0, 0xff, 0xff,
  0x14, 0x00, 0x00, 0x00, 0x12, 0x00, 0x00, 0x00, 0x18, 0x00, 0x00, 0x00,
  0x30, 0x00, 0x00, 0x00, 0x20, 0x00, 0x00, 0x00, 0x02, 0x00, 0x00, 0x00,
  0x01, 0x00, 0x00, 0x00, 0x06, 0x00, 0x00, 0x00, 0x08, 0x00, 0x00, 0x00,
  0x49, 0x64, 0x65, 0x6e, 0x74, 0x69, 0x74, 0x79, 0x00, 0x00, 0x00, 0x00,
  0x02, 0x00, 0x00, 0x00, 0xff, 0xff, 0xff, 0xff, 0x06, 0x00, 0x00, 0x00,
  0x94, 0xd0, 0xff, 0xff, 0xf6, 0xfd, 0xff, 0xff, 0x00, 0x00, 0x00, 0x08,
  0x03, 0x00, 0x00, 0x00, 0x18, 0x00, 0x00, 0x00, 0x0c, 0x00, 0x00, 0x00,
  0x04, 0x00, 0x00, 0x00, 0xb0, 0xd0, 0xff, 0xff, 0x01, 0x00, 0x00, 0x00,
  0x10, 0x00, 0x00, 0x00, 0x03, 0x00, 0x00, 0x00, 0x0f, 0x00, 0x00, 0x00,
  0x09, 0x00, 0x00, 0x00, 0x06, 0x00, 0x00, 0x00, 0x30, 0xd1, 0xff, 0xff,
  0x14, 0x00, 0x00, 0x00, 0x11, 0x00, 0x00, 0x00, 0x18, 0x00, 0x00, 0x00,
  0x5c, 0x00, 0x00, 0x00, 0x4c, 0x00, 0x00, 0x00, 0x02, 0x00, 0x00, 0x00,
  0x01, 0x00, 0x00, 0x00, 0x06, 0x00, 0x00, 0x00, 0x34, 0x00, 0x00, 0x00,
  0x73, 0x65, 0x71, 0x75, 0x65, 0x6e, 0x74, 0x69, 0x61, 0x6c, 0x2f, 0x64,
  0x65, 0x6e, 0x73, 0x65, 0x5f, 0x31, 0x2f, 0x4d, 0x61, 0x74, 0x4d, 0x75,
  0x6c, 0x3b, 0x73, 0x65, 0x71, 0x75, 0x65, 0x6e, 0x74, 0x69, 0x61, 0x6c,
  0x2f, 0x64, 0x65, 0x6e, 0x73, 0x65, 0x5f, 0x31, 0x2f, 0x42, 0x69, 0x61,
  0x73, 0x41, 0x64, 0x64, 0x00, 0x00, 0x00, 0x00, 0x02, 0x00, 0x00, 0x00,
  0xff, 0xff, 0xff, 0xff, 0x06, 0x00, 0x00, 0x00, 0x38, 0xd1, 0xff, 0xff,
  0xd6, 0xfc, 0xff, 0xff, 0x00, 0x00, 0x00, 0x08, 0x03, 0x00, 0x00, 0x00,
  0x24, 0x00, 0x00, 0x00, 0x18, 0x00, 0x00, 0x00, 0x0c, 0x00, 0x00, 0x00,
  0x00, 0x00, 0x06, 0x00, 0x08, 0x00, 0x07, 0x00, 0x06, 0x00, 0x00, 0x00,
  0x00, 0x00, 0x00, 0x01, 0x01, 0x00, 0x00, 0x00, 0x0f, 0x00, 0x00, 0x00,
  0x03, 0x00, 0x00, 0x00, 0x0e, 0x00, 0x00, 0x00, 0x08, 0x00, 0x00, 0x00,
  0x05, 0x00, 0x00, 0x00, 0xe4, 0xfb, 0xff, 0xff, 0x09, 0x00, 0x00, 0x00,
  0x00, 0x00, 0x00, 0x09, 0x01, 0x00, 0x00, 0x00, 0xf0, 0xd1, 0xff, 0xff,
  0x14, 0x00, 0x00, 0x00, 0x10, 0x00, 0x00, 0x00, 0x18, 0x00, 0x00, 0x00,
  0x6c, 0x00, 0x00, 0x00, 0x5c, 0x00, 0x00, 0x00, 0x02, 0x00, 0x00, 0x00,
  0x01, 0x00, 0x00, 0x00, 0x10, 0x00, 0x00, 0x00, 0x46, 0x00, 0x00, 0x00,
  0x73, 0x65, 0x71, 0x75, 0x65, 0x6e, 0x74, 0x69, 0x61, 0x6c, 0x2f, 0x64,
  0x65, 0x6e, 0x73, 0x65, 0x2f, 0x4d, 0x61, 0x74, 0x4d, 0x75, 0x6c, 0x3b,
  0x73, 0x65, 0x71, 0x75, 0x65, 0x6e, 0x74, 0x69, 0x61, 0x6c, 0x2f, 0x64,
  0x65, 0x6e, 0x73, 0x65, 0x2f, 0x42, 0x69, 0x61, 0x73, 0x41, 0x64, 0x64,
  0x3b, 0x73, 0x65, 0x71, 0x75, 0x65, 0x6e, 0x74, 0x69, 0x61, 0x6c, 0x2f,
  0x64, 0x65, 0x6e, 0x73, 0x65, 0x2f, 0x52, 0x65, 0x6c, 0x75, 0x00, 0x00,
  0x02, 0x00, 0x00, 0x00, 0xff, 0xff, 0xff, 0xff, 0x10, 0x00, 0x00, 0x00,
  0x68, 0xd3, 0xff, 0xff, 0x00, 0x00, 0x0a, 0x00, 0x10, 0x00, 0x04, 0x00,
  0x08, 0x00, 0x0c, 0x00, 0x0a, 0x00, 0x00, 0x00, 0x02, 0x00, 0x00, 0x00,
  0x10, 0x00, 0x00, 0x00, 0x04, 0x00, 0x00, 0x00, 0x01, 0x00, 0x00, 0x00,
  0x0e, 0x00, 0x00, 0x00, 0x02, 0x00, 0x00, 0x00, 0x0d, 0x00, 0x00, 0x00,
  0x07, 0x00, 0x00, 0x00, 0xa4, 0xfc, 0xff, 0xff, 0x16, 0x00, 0x00, 0x00,
  0x00, 0x00, 0x00, 0x16, 0x01, 0x00, 0x00, 0x00, 0xb0, 0xd2, 0xff, 0xff,
  0x14, 0x00, 0x00, 0x00, 0x0f, 0x00, 0x00, 0x00, 0x18, 0x00, 0x00, 0x00,
  0x40, 0x00, 0x00, 0x00, 0x30, 0x00, 0x00, 0x00, 0x02, 0x00, 0x00, 0x00,
  0x01, 0x00, 0x00, 0x00, 0x40, 0x00, 0x00, 0x00, 0x1a, 0x00, 0x00, 0x00,
  0x73, 0x65, 0x71, 0x75, 0x65, 0x6e, 0x74, 0x69, 0x61, 0x6c, 0x2f, 0x66,
  0x6c, 0x61, 0x74, 0x74, 0x65, 0x6e, 0x2f, 0x52, 0x65, 0x73, 0x68, 0x61,
  0x70, 0x65, 0x00, 0x00, 0x02, 0x00, 0x00, 0x00, 0xff, 0xff, 0xff, 0xff,
  0x40, 0x00, 0x00, 0x00, 0xfc, 0xd3, 0xff, 0xff, 0x00, 0x00, 0x0e, 0x00,
  0x18, 0x00, 0x08, 0x00, 0x0c, 0x00, 0x10, 0x00, 0x07, 0x00, 0x14, 0x00,
  0x0e, 0x00, 0x00, 0x00, 0x00, 0x00, 0x00, 0x05, 0x01, 0x00, 0x00, 0x00,
  0x2c, 0x00, 0x00, 0x00, 0x20, 0x00, 0x00, 0x00, 0x04, 0x00, 0x00, 0x00,
  0x3a, 0xfe, 0xff, 0xff, 0x02, 0x00, 0x00, 0x00, 0x02, 0x00, 0x00, 0x00,
  0x02, 0x00, 0x00, 0x00, 0x02, 0x00, 0x00, 0x00, 0x00, 0x00, 0x00, 0x01,
  0x01, 0x00, 0x00, 0x00, 0x0d, 0x00, 0x00, 0x00, 0x01, 0x00, 0x00, 0x00,
  0x0c, 0x00, 0x00, 0x00, 0x54, 0xd3, 0xff, 0xff, 0x14, 0x00, 0x00, 0x00,
  0x0e, 0x00, 0x00, 0x00, 0x20, 0x00, 0x00, 0x00, 0x58, 0x00, 0x00, 0x00,
  0x40, 0x00, 0x00, 0x00, 0x04, 0x00, 0x00, 0x00, 0x01, 0x00, 0x00, 0x00,
  0x02, 0x00, 0x00, 0x00, 0x02, 0x00, 0x00, 0x00, 0x10, 0x00, 0x00, 0x00,
  0x22, 0x00, 0x00, 0x00, 0x73, 0x65, 0x71, 0x75, 0x65, 0x6e, 0x74, 0x69,
  0x61, 0x6c, 0x2f, 0x6d, 0x61, 0x78, 0x5f, 0x70, 0x6f, 0x6f, 0x6c, 0x69,
  0x6e, 0x67, 0x32, 0x64, 0x5f, 0x31, 0x2f, 0x4d, 0x61, 0x78, 0x50, 0x6f,
  0x6f, 0x6c, 0x00, 0x00, 0x04, 0x00, 0x00, 0x00, 0xff, 0xff, 0xff, 0xff,
  0x02, 0x00, 0x00, 0x00, 0x02, 0x00, 0x00, 0x00, 0x10, 0x00, 0x00, 0x00,
  0x58, 0xd3, 0xff, 0xff, 0x1a, 0xfe, 0xff, 0xff, 0x00, 0x00, 0x00, 0x01,
  0x24, 0x00, 0x00, 0x00, 0x18, 0x00, 0x00, 0x00, 0x04, 0x00, 0x00, 0x00,
  0x0c, 0xfe, 0xff, 0xff, 0x01, 0x00, 0x00, 0x00, 0x01, 0x00, 0x00, 0x00,
  0x00, 0x00, 0x01, 0x01, 0x01, 0x00, 0x00, 0x00, 0x0c, 0x00, 0x00, 0x00,
  0x03, 0x00, 0x00, 0x00, 0x0b, 0x00, 0x00, 0x00, 0x03, 0x00, 0x00, 0x00,
  0x01, 0x00, 0x00, 0x00, 0xfc, 0xd3, 0xff, 0xff, 0x14, 0x00, 0x00, 0x00,
  0x0d, 0x00, 0x00, 0x00, 0x20, 0x00, 0x00, 0x00, 0xb8, 0x00, 0x00, 0x00,
  0xa0, 0x00, 0x00, 0x00, 0x04, 0x00, 0x00, 0x00, 0x01, 0x00, 0x00, 0x00,
  0x05, 0x00, 0x00, 0x00, 0x05, 0x00, 0x00, 0x00, 0x10, 0x00, 0x00, 0x00,
  0x83, 0x00, 0x00, 0x00, 0x73, 0x65, 0x71, 0x75, 0x65, 0x6e, 0x74, 0x69,
  0x61, 0x6c, 0x2f, 0x63, 0x6f, 0x6e, 0x76, 0x32, 0x64, 0x5f, 0x31, 0x2f,
  0x52, 0x65, 0x6c, 0x75, 0x3b, 0x73, 0x65, 0x71, 0x75, 0x65, 0x6e, 0x74,
  0x69, 0x61, 0x6c, 0x2f, 0x63, 0x6f, 0x6e, 0x76, 0x32, 0x64, 0x5f, 0x31,
  0x2f, 0x42, 0x69, 0x61, 0x73, 0x41, 0x64, 0x64, 0x3b, 0x73, 0x65, 0x71,
  0x75, 0x65, 0x6e, 0x74, 0x69, 0x61, 0x6c, 0x2f, 0x63, 0x6f, 0x6e, 0x76,
  0x32, 0x64, 0x5f, 0x31, 0x2f, 0x43, 0x6f, 0x6e, 0x76, 0x32, 0x44, 0x3b,
  0x73, 0x65, 0x71, 0x75, 0x65, 0x6e, 0x74, 0x69, 0x61, 0x6c, 0x2f, 0x63,
  0x6f, 0x6e, 0x76, 0x32, 0x64, 0x5f, 0x31, 0x2f, 0x42, 0x69, 0x61, 0x73,
  0x41, 0x64, 0x64, 0x2f, 0x52, 0x65, 0x61, 0x64, 0x56, 0x61, 0x72, 0x69,
  0x61, 0x62, 0x6c, 0x65, 0x4f, 0x70, 0x2f, 0x72, 0x65, 0x73, 0x6f, 0x75,
  0x72, 0x63, 0x65, 0x00, 0x04, 0x00, 0x00, 0x00, 0xff, 0xff, 0xff, 0xff,
  0x05, 0x00, 0x00, 0x00, 0x05, 0x00, 0x00, 0x00, 0x10, 0x00, 0x00, 0x00,
  0xc0, 0xd5, 0xff, 0xff, 0x00, 0x00, 0x0e, 0x00, 0x1a, 0x00, 0x08, 0x00,
  0x0c, 0x00, 0x10, 0x00, 0x07, 0x00, 0x14, 0x00, 0x0e, 0x00, 0x00, 0x00,
  0x00, 0x00, 0x00, 0x05, 0x01, 0x00, 0x00, 0x00, 0x3c, 0x00, 0x00, 0x00,
  0x30, 0x00, 0x00, 0x00, 0x14, 0x00, 0x00, 0x00, 0x00, 0x00, 0x0e, 0x00,
  0x18, 0x00, 0x17, 0x00, 0x10, 0x00, 0x0c, 0x00, 0x08, 0x00, 0x04, 0x00,
  0x0e, 0x00, 0x00, 0x00, 0x02, 0x00, 0x00, 0x00, 0x02, 0x00, 0x00, 0x00,
  0x02, 0x00, 0x00, 0x00, 0x02, 0x00, 0x00, 0x00, 0x00, 0x00, 0x00, 0x01,
  0x01, 0x00, 0x00, 0x00, 0x0b, 0x00, 0x00, 0x00, 0x01, 0x00, 0x00, 0x00,
  0x0a, 0x00, 0x00, 0x00, 0x2c, 0xff, 0xff, 0xff, 0x11, 0x00, 0x00, 0x00,
  0x00, 0x00, 0x00, 0x11, 0x01, 0x00, 0x00, 0x00, 0x38, 0xd5, 0xff, 0xff,
  0x14, 0x00, 0x00, 0x00, 0x0c, 0x00, 0x00, 0x00, 0x20, 0x00, 0x00, 0x00,
  0x58, 0x00, 0x00, 0x00, 0x40, 0x00, 0x00, 0x00, 0x04, 0x00, 0x00, 0x00,
  0x01, 0x00, 0x00, 0x00, 0x07, 0x00, 0x00, 0x00, 0x07, 0x00, 0x00, 0x00,
  0x08, 0x00, 0x00, 0x00, 0x20, 0x00, 0x00, 0x00, 0x73, 0x65, 0x71, 0x75,
  0x65, 0x6e, 0x74, 0x69, 0x61, 0x6c, 0x2f, 0x6d, 0x61, 0x78, 0x5f, 0x70,
  0x6f, 0x6f, 0x6c, 0x69, 0x6e, 0x67, 0x32, 0x64, 0x2f, 0x4d, 0x61, 0x78,
  0x50, 0x6f, 0x6f, 0x6c, 0x00, 0x00, 0x00, 0x00, 0x04, 0x00, 0x00, 0x00,
  0xff, 0xff, 0xff, 0xff, 0x07, 0x00, 0x00, 0x00, 0x07, 0x00, 0x00, 0x00,
  0x08, 0x00, 0x00, 0x00, 0x9c, 0xd6, 0xff, 0xff, 0x00, 0x00, 0x0e, 0x00,
  0x14, 0x00, 0x00, 0x00, 0x08, 0x00, 0x0c, 0x00, 0x07, 0x00, 0x10, 0x00,
  0x0e, 0x00, 0x00, 0x00, 0x00, 0x00, 0x00, 0x01, 0x30, 0x00, 0x00, 0x00,
  0x24, 0x00, 0x00, 0x00, 0x10, 0x00, 0x00, 0x00, 0x0c, 0x00, 0x10, 0x00,
  0x0e, 0x00, 0x04, 0x00, 0x08, 0x00, 0x0f, 0x00, 0x0c, 0x00, 0x00, 0x00,
  0x01, 0x00, 0x00, 0x00, 0x01, 0x00, 0x00, 0x00, 0x00, 0x00, 0x01, 0x01,
  0x01, 0x00, 0x00, 0x00, 0x0a, 0x00, 0x00, 0x00, 0x03, 0x00, 0x00, 0x00,
  0x00, 0x00, 0x00, 0x00, 0x04, 0x00, 0x00, 0x00, 0x02, 0x00, 0x00, 0x00,
  0x0c, 0x00, 0x10, 0x00, 0x0b, 0x00, 0x00, 0x00, 0x0c, 0x00, 0x04, 0x00,
  0x0c, 0x00, 0x00, 0x00, 0x03, 0x00, 0x00, 0x00, 0x00, 0x00, 0x00, 0x03,
  0x01, 0x00, 0x00, 0x00, 0x18, 0xd6, 0xff, 0xff, 0x14, 0x00, 0x00, 0x00,
  0x0b, 0x00, 0x00, 0x00, 0x20, 0x00, 0x00, 0x00, 0xb0, 0x00, 0x00, 0x00,
  0x98, 0x00, 0x00, 0x00, 0x04, 0x00, 0x00, 0x00, 0x01, 0x00, 0x00, 0x00,
  0x0e, 0x00, 0x00, 0x00, 0x0e, 0x00, 0x00, 0x00, 0x08, 0x00, 0x00, 0x00,
  0x7b, 0x00, 0x00, 0x00, 0x73, 0x65, 0x71, 0x75, 0x65, 0x6e, 0x74, 0x69,
  0x61, 0x6c, 0x2f, 0x63, 0x6f, 0x6e, 0x76, 0x32, 0x64, 0x2f, 0x52, 0x65,
  0x6c, 0x75, 0x3b, 0x73, 0x65, 0x71, 0x75, 0x65, 0x6e, 0x74, 0x69, 0x61,
  0x6c, 0x2f, 0x63, 0x6f, 0x6e, 0x76, 0x32, 0x64, 0x2f, 0x42, 0x69, 0x61,
  0x73, 0x41, 0x64, 0x64, 0x3b, 0x73, 0x65, 0x71, 0x75, 0x65, 0x6e, 0x74,
  0x69, 0x61, 0x6c, 0x2f, 0x63, 0x6f, 0x6e, 0x76, 0x32, 0x64, 0x2f, 0x43,
  0x6f, 0x6e, 0x76, 0x32, 0x44, 0x3b, 0x73, 0x65, 0x71, 0x75, 0x65, 0x6e,
  0x74, 0x69, 0x61, 0x6c, 0x2f, 0x63, 0x6f, 0x6e, 0x76, 0x32, 0x64, 0x2f,
  0x42, 0x69, 0x61, 0x73, 0x41, 0x64, 0x64, 0x2f, 0x52, 0x65, 0x61, 0x64,
  0x56, 0x61, 0x72, 0x69, 0x61, 0x62, 0x6c, 0x65, 0x4f, 0x70, 0x2f, 0x72,
  0x65, 0x73, 0x6f, 0x75, 0x72, 0x63, 0x65, 0x00, 0x04, 0x00, 0x00, 0x00,
  0xff, 0xff, 0xff, 0xff, 0x0e, 0x00, 0x00, 0x00, 0x0e, 0x00, 0x00, 0x00,
  0x08, 0x00, 0x00, 0x00, 0x74, 0xd6, 0xff, 0xff, 0xce, 0xd7, 0xff, 0xff,
  0x04, 0x00, 0x00, 0x00, 0x80, 0x01, 0x00, 0x00, 0x86, 0x0f, 0xb7, 0x3b,
  0x54, 0x4e, 0x4a, 0x3e, 0xa9, 0x67, 0xde, 0x3e, 0x58, 0x64, 0xec, 0x3d,
  0x20, 0xf5, 0x1b, 0xbf, 0xc1, 0x59, 0x6a, 0x3e, 0x03, 0xa4, 0xac, 0x3e,
  0xd1, 0xc9, 0xdc, 0xbe, 0xbb, 0x2a, 0x29, 0x3e, 0x89, 0xb6, 0xcf, 0xbe,
  0x10, 0x48, 0x20, 0x3f, 0x08, 0x11, 0x73, 0xbe, 0x33, 0xf7, 0xb3, 0x3e,
  0x46, 0xf8, 0x9e, 0xbe, 0x74, 0x7e, 0xa8, 0x3e, 0x12, 0x77, 0x08, 0xbe,
  0xca, 0x37, 0x21, 0x3e, 0x64, 0x4f, 0x3c, 0xbe, 0x2c, 0xed, 0x7d, 0x3d,
  0x56, 0x6e, 0x84, 0xbe, 0x1f, 0xa8, 0xe5, 0xbd, 0x51, 0x23, 0x34, 0xbe,
  0x1c, 0x41, 0xb6, 0xbd, 0x78, 0x4a, 0x14, 0xbf, 0x8e, 0x33, 0x4c, 0x3f,
  0x78, 0x8b, 0xa2, 0xbd, 0x90, 0x32, 0xa1, 0xbe, 0x80, 0xec, 0x19, 0xbe,
  0x7f, 0xc1, 0xd7, 0x3e, 0xaa, 0x25, 0x83, 0x3d, 0x26, 0xdc, 0x07, 0xbe,
  0x78, 0x92, 0x32, 0x3d, 0xd7, 0xf5, 0x8d, 0x3e, 0xe2, 0x67, 0xf6, 0x3e,
  0x2b, 0x11, 0x8a, 0xbe, 0xd9, 0x51, 0x13, 0x3e, 0x57, 0xd6, 0x4d, 0x3f,
  0xc3, 0x70, 0x6a, 0xbe, 0xb5, 0x86, 0xbd, 0x3e, 0xfb, 0xd7, 0x90, 0x3e,
  0x19, 0x8c, 0x7a, 0xbe, 0x1a, 0x57, 0xc3, 0xbd, 0xf7, 0x2e, 0xcb, 0xbe,
  0xe2, 0xdb, 0xac, 0xbe, 0x55, 0xf9, 0xd7, 0xbe, 0x29, 0xf9, 0xc5, 0xbe,
  0xb9, 0x68, 0x90, 0xbd, 0x20, 0xdf, 0x6d, 0x3f, 0xad, 0xa0, 0xac, 0xbe,
  0xd2, 0xd2, 0xa2, 0xbe, 0x68, 0xbe, 0xc3, 0x3e, 0x7c, 0xf7, 0xd7, 0xbe,
  0x4f, 0xa2, 0xca, 0xbd, 0x6a, 0xa1, 0x28, 0x3f, 0x96, 0x69, 0xfd, 0xbe,
  0xb2, 0xe0, 0xc1, 0xbe, 0x60, 0x1e, 0xdd, 0xbe, 0xb0, 0x69, 0x1e, 0x3f,
  0x72, 0xd1, 0x89, 0xbe, 0x56, 0xb2, 0xf5, 0x3e, 0x9f, 0xff, 0x9e, 0x3d,
  0x85, 0x53, 0x35, 0xbe, 0xfd, 0xf7, 0x2d, 0xbe, 0x7b, 0x57, 0x18, 0xbf,
  0x9b, 0xa1, 0x9d, 0x3e, 0xd1, 0x5e, 0xf9, 0xbe, 0x4e, 0xe2, 0x0c, 0x3f,
  0x71, 0xe2, 0x8a, 0x3e, 0xbc, 0xe4, 0x25, 0xbe, 0xdf, 0xb4, 0x15, 0x3f,
  0x16, 0xeb, 0xb7, 0xbe, 0x73, 0x74, 0x88, 0x3e, 0xc5, 0x92, 0xd1, 0xbe,
  0xa3, 0x48, 0xd5, 0xbe, 0x9a, 0xe2, 0x14, 0xbe, 0x60, 0xde, 0xb3, 0x3d,
  0x0c, 0xc5, 0xbb, 0xbe, 0xc7, 0x9e, 0x18, 0x3f, 0x3f, 0xa0, 0x83, 0xbe,
  0xcc, 0xd2, 0x4a, 0x3d, 0x5b, 0x85, 0x39, 0x3e, 0xc0, 0x5d, 0xd4, 0x3d,
  0xec, 0x54, 0xd1, 0xbe, 0x59, 0x1b, 0x17, 0xbe, 0x27, 0xbe, 0xe8, 0xbe,
  0x02, 0x8a, 0x3b, 0x3d, 0x08, 0x3f, 0xc5, 0xbe, 0xd1, 0xd9, 0xa7, 0xbe,
  0x60, 0x03, 0x03, 0xbf, 0xbb, 0xc3, 0x14, 0x3f, 0xe7, 0xcc, 0x88, 0x3e,
  0x96, 0xeb, 0xf4, 0x3e, 0x19, 0x22, 0x0c, 0xbf, 0xe9, 0xfa, 0x9d, 0x3e,
  0x9e, 0xc5, 0x9e, 0xbe, 0x49, 0xab, 0xe8, 0x3e, 0x06, 0xd9, 0xff, 0xff,
  0x10, 0x00, 0x00, 0x00, 0x0a, 0x00, 0x00, 0x00, 0x14, 0x00, 0x00, 0x00,
  0x30, 0x00, 0x00, 0x00, 0x02, 0x00, 0x00, 0x00, 0x06, 0x00, 0x00, 0x00,
  0x10, 0x00, 0x00, 0x00, 0x19, 0x00, 0x00, 0x00, 0x73, 0x65, 0x71, 0x75,
  0x65, 0x6e, 0x74, 0x69, 0x61, 0x6c, 0x2f, 0x64, 0x65, 0x6e, 0x73, 0x65,
  0x5f, 0x31, 0x2f, 0x4d, 0x61, 0x74, 0x4d, 0x75, 0x6c, 0x00, 0x00, 0x00,
  0x44, 0xd8, 0xff, 0xff, 0x9e, 0xd9, 0xff, 0xff, 0x04, 0x00, 0x00, 0x00,
  0x00, 0x10, 0x00, 0x00, 0x4e, 0xfa, 0x8d, 0x3c, 0x0e, 0x92, 0x93, 0x3e,
  0x8d, 0x54, 0x98, 0xbb, 0xaf, 0x8e, 0x6d, 0x3e, 0x22, 0xb4, 0x33, 0x3d,
  0x45, 0xb9, 0x70, 0x3e, 0x54, 0x77, 0x80, 0xbc, 0x83, 0xb2, 0x32, 0xbe,
  0x04, 0x1f, 0x11, 0x3d, 0xe7, 0xd2, 0xc6, 0x3d, 0x0b, 0x25, 0x70, 0x3e,
  0x71, 0x14, 0x2d, 0xbe, 0xeb, 0x7d, 0xc6, 0xbd, 0x9f, 0x48, 0x80, 0xbe,
  0x1c, 0x14, 0x07, 0xbe, 0x37, 0xf4, 0x3c, 0x3e, 0x06, 0xe3, 0x11, 0xbe,
  0x54, 0x16, 0xb5, 0x3d, 0x3a, 0x6c, 0x6d, 0xbe, 0x9a, 0xca, 0x6b, 0x3e,
  0x30, 0xc8, 0x8f, 0x3d, 0xc7, 0x00, 0x66, 0xbe, 0x9d, 0xc3, 0xf2, 0x3d,
  0x7e, 0xef, 0x9a, 0x3e, 0xa5, 0x86, 0x82, 0x3d, 0xfc, 0x58, 0x38, 0x3e,
  0x77, 0x64, 0x2a, 0x3e, 0x57, 0x8d, 0x3e, 0xbd, 0xdb, 0x87, 0x5c, 0xbe,
  0xe4, 0x1f, 0xe7, 0xbc, 0xa1, 0xd0, 0x20, 0xbe, 0xf7, 0x08, 0x9a, 0xbe,
  0x27, 0x6f, 0x9d, 0x3d, 0x27, 0xb3, 0x23, 0x3d, 0xe8, 0x10, 0xdd, 0xbd,
  0x8c, 0xe5, 0x85, 0xbe, 0xc9, 0xb8, 0x79, 0xbe, 0xf0, 0x8c, 0x57, 0xbc,
  0x29, 0x66, 0x69, 0xbe, 0x4b, 0xc8, 0xd3, 0xbd, 0xde, 0xdf, 0x57, 0xbd,
  0x45, 0x2b, 0x37, 0x3e, 0xef, 0x89, 0x12, 0x3d, 0x0d, 0x49, 0xeb, 0xbd,
  0x84, 0xf8, 0xbf, 0x3d, 0x18, 0x92, 0x6b, 0xbc, 0x0d, 0x15, 0x7e, 0xbc,
  0xb0, 0x59, 0x24, 0xbd, 0x36, 0x94, 0x4a, 0x3e, 0x02, 0xe4, 0xbf, 0xbd,
  0x99, 0x6f, 0x68, 0x3c, 0xd2, 0x24, 0x96, 0x3d, 0x36, 0xdf, 0x8c, 0xbe,
  0x77, 0x14, 0x7c, 0xbe, 0x43, 0x13, 0x67, 0xbc, 0xd6, 0x0f, 0x73, 0xbe,
  0xa3, 0x41, 0x84, 0x3e, 0x3e, 0xe1, 0x14, 0xbe, 0x8c, 0xc9, 0x8b, 0xbe,
  0x9c, 0x46, 0x0a, 0x3e, 0x75, 0x0c, 0x22, 0xbe, 0x31, 0x7c, 0xed, 0x3d,
  0xba, 0x21, 0x86, 0xbe, 0xe8, 0x94, 0x2f, 0xbd, 0x9a, 0x3b, 0x2a, 0x3e,
  0x80, 0x84, 0x7b, 0x3b, 0x39, 0x3a, 0x2c, 0xbe, 0x01, 0x9f, 0x10, 0xbe,
  0xf0, 0xf0, 0x59, 0xbd, 0x48, 0xc3, 0x75, 0xbe, 0x48, 0x19, 0x84, 0x3d,
  0x5d, 0xb1, 0x0b, 0xbe, 0x97, 0x00, 0x51, 0xbe, 0xc0, 0xa0, 0x87, 0x3d,
  0xd5, 0x37, 0x00, 0xbe, 0x66, 0xd2, 0xff, 0xbd, 0x50, 0x53, 0x5f, 0x3d,
  0x6c, 0x13, 0xa7, 0xbd, 0xc3, 0xb0, 0x87, 0x3e, 0xb2, 0x1d, 0x54, 0x3e,
  0x59, 0x8d, 0x89, 0xbe, 0xb8, 0xba, 0xc2, 0x3d, 0xf3, 0x0f, 0x93, 0xbe,
  0x89, 0x57, 0x31, 0xbe, 0x20, 0xdd, 0x91, 0xbe, 0xd1, 0xea, 0x8f, 0xbe,
  0x5d, 0x3a, 0x91, 0x3e, 0x40, 0xbb, 0x30, 0xbc, 0x10, 0x28, 0x28, 0x3e,
  0x72, 0x54, 0x79, 0x3e, 0x20, 0x7b, 0x13, 0xbd, 0x2b, 0x1b, 0x84, 0x3e,
  0x10, 0xf4, 0x14, 0xbd, 0x7c, 0xd6, 0xdf, 0x3d, 0xe4, 0x4d, 0xc8, 0xbd,
  0x20, 0x2f, 0x83, 0x3d, 0x8f, 0x18, 0x89, 0xbe, 0xd8, 0x8c, 0x92, 0x3d,
  0x3e, 0x60, 0x4a, 0xbe, 0xe2, 0xe4, 0x66, 0x3e, 0x8d, 0xd6, 0x8f, 0x3e,
  0xf0, 0xc6, 0x69, 0x3d, 0x1c, 0xa7, 0xb1, 0x3d, 0xa2, 0xda, 0x71, 0x3e,
  0x52, 0x5a, 0x3c, 0x3e, 0xe6, 0x58, 0x8d, 0xbd, 0x65, 0x98, 0x96, 0xbe,
  0x86, 0xd6, 0x5d, 0x3e, 0x0c, 0x13, 0xe9, 0xbd, 0x28, 0x06, 0x3a, 0xbe,
  0x5a, 0xf0, 0xe6, 0xbd, 0x2c, 0x0d, 0x87, 0xbe, 0x30, 0x24, 0xbb, 0xbc,
  0xfa, 0x3b, 0x84, 0xbe, 0x06, 0x36, 0x94, 0xbd, 0xc0, 0x34, 0x55, 0x3c,
  0xac, 0xfa, 0x2f, 0xbe, 0x78, 0xdf, 0xd2, 0x3d, 0xc0, 0xc6, 0xd3, 0xbd,
  0x9c, 0x8c, 0x15, 0x3e, 0x40, 0x1b, 0x98, 0x3c, 0x7e, 0xb3, 0x95, 0xbe,
  0x10, 0x1b, 0xfa, 0x3c, 0xe8, 0x27, 0xe2, 0x3d, 0xe6, 0x26, 0x13, 0x3e,
  0xa0, 0x7f, 0x03, 0xbc, 0xb8, 0x0d, 0x55, 0xbd, 0xf9, 0x24, 0x2d, 0xbe,
  0x5f, 0xa5, 0x58, 0x3e, 0x30, 0x7d, 0x6d, 0x3e, 0xff, 0xae, 0x81, 0x3e,
  0x3d, 0xde, 0x7e, 0x3e, 0x96, 0x4a, 0xa8, 0x3e, 0xa7, 0x28, 0x05, 0xbe,
  0x88, 0xb8, 0xe3, 0xbd, 0x19, 0xf2, 0x99, 0xbe, 0xcd, 0x97, 0x0f, 0x3e,
  0x7b, 0xf0, 0x84, 0x3c, 0xf3, 0x19, 0x2f, 0x3e, 0xf6, 0xed, 0x5b, 0xbd,
  0x07, 0x77, 0x8f, 0x3e, 0x50, 0x83, 0xac, 0xbd, 0x24, 0xe9, 0x3d, 0x3e,
  0x72, 0x9c, 0x2a, 0x3e, 0xd2, 0x9e, 0xc7, 0x3d, 0xe8, 0x6b, 0x19, 0xbe,
  0x24, 0xca, 0xb8, 0xbe, 0x15, 0xc1, 0x97, 0x3e, 0x89, 0xe2, 0xa3, 0xbe,
  0xec, 0x85, 0xb9, 0xbb, 0x5e, 0x2a, 0x09, 0xbd, 0xba, 0x2e, 0x82, 0x3e,
  0x92, 0xb5, 0xbe, 0xbd, 0x0b, 0x78, 0x67, 0x3e, 0x13, 0xf8, 0xe3, 0x3d,
  0x28, 0xd8, 0xb9, 0xbd, 0x57, 0xff, 0x74, 0x3e, 0xaf, 0x94, 0x95, 0x3e,
  0xf1, 0xe6, 0x8a, 0x3e, 0x44, 0xf7, 0xa8, 0xbd, 0x1d, 0x6c, 0x9a, 0x3e,
  0x74, 0x79, 0x84, 0xbe, 0x4c, 0x15, 0x5f, 0xbe, 0xc0, 0xff, 0x12, 0x3e,
  0x3e, 0x13, 0xa1, 0xbe, 0x28, 0x01, 0x8a, 0xbd, 0x79, 0x89, 0x11, 0xbe,
  0xf9, 0x58, 0x4c, 0x3e, 0xdc, 0xbc, 0xf8, 0xbd, 0xc1, 0x4f, 0x05, 0xbe,
  0x84, 0x88, 0x40, 0xbe, 0xdf, 0x99, 0x7e, 0xbe, 0xf6, 0xdf, 0x83, 0xbe,
  0xf6, 0xa1, 0x09, 0x3d, 0x91, 0x29, 0x89, 0x3e, 0x59, 0xcf, 0xbc, 0xbd,
  0xc8, 0xbc, 0x78, 0xbd, 0x96, 0x9d, 0x7e, 0x3e, 0x1f, 0xd7, 0x6b, 0x3e,
  0xe1, 0x60, 0xb9, 0xbd, 0x4c, 0x50, 0x86, 0x3d, 0x61, 0x30, 0x00, 0x3e,
  0x58, 0x96, 0x63, 0x3e, 0xae, 0x91, 0x97, 0xbe, 0x43, 0x07, 0xfa, 0x3c,
  0xe4, 0xee, 0x6d, 0xbe, 0xfb, 0x04, 0xa1, 0xbe, 0xd5, 0x01, 0xf2, 0xbd,
  0x70, 0x6c, 0x6f, 0xbe, 0x25, 0x2b, 0x89, 0xbe, 0x22, 0xc6, 0x12, 0x3e,
  0x75, 0x2c, 0x79, 0x3d, 0x93, 0x22, 0xa6, 0x3c, 0x36, 0xff, 0x5f, 0x3e,
  0x3c, 0x27, 0xf2, 0xbc, 0x39, 0xa5, 0x4c, 0xbd, 0xce, 0xf1, 0x8e, 0x3e,
  0xcc, 0xf9, 0x43, 0xbe, 0x5a, 0xda, 0x41, 0x3d, 0xb2, 0xf8, 0xd1, 0x3d,
  0xe7, 0x26, 0x3a, 0xbe, 0xf1, 0xd6, 0x5e, 0xbd, 0xe3, 0xe7, 0x4c, 0xbe,
  0x61, 0xc0, 0x21, 0xbe, 0x33, 0xbe, 0x17, 0xbe, 0x03, 0xdb, 0x56, 0x3d,
  0x18, 0xd5, 0x8c, 0x3d, 0x4d, 0x5c, 0x28, 0xbd, 0xb8, 0x89, 0x9e, 0xbe,
  0xda, 0x3b, 0xcd, 0xbc, 0xd1, 0x4e, 0xfe, 0xbc, 0x30, 0xc6, 0x25, 0x3e,
  0x9d, 0x3f, 0x37, 0x3e, 0x55, 0x7f, 0xe8, 0x3b, 0x9f, 0x56, 0x17, 0x3e,
  0xcb, 0x71, 0x69, 0xbe, 0x4e, 0x20, 0x87, 0x3e, 0x6a, 0x63, 0x28, 0xbe,
  0xea, 0x48, 0x55, 0xbe, 0x71, 0xe3, 0x88, 0x3d, 0x74, 0xef, 0x74, 0xbe,
  0x2f, 0x44, 0x85, 0xbd, 0x02, 0x6d, 0x1b, 0xbd, 0xbd, 0x00, 0x78, 0xbd,
  0x9c, 0xc3, 0x2b, 0x3e, 0x85, 0x9a, 0x8f, 0xbe, 0xf7, 0x45, 0xff, 0x3d,
  0xed, 0x14, 0x67, 0xbe, 0x93, 0xde, 0x36, 0x3d, 0xf2, 0x28, 0xb6, 0x3c,
  0xf8, 0xa1, 0x2a, 0xbe, 0xa2, 0xf1, 0x3a, 0xbc, 0xdb, 0xaf, 0xea, 0xbd,
  0x0b, 0xf4, 0x84, 0x3d, 0x6d, 0xfd, 0x98, 0xbc, 0x2e, 0x75, 0x33, 0x3e,
  0xd3, 0x03, 0x3c, 0xbe, 0xc0, 0xa5, 0xe8, 0xbc, 0x85, 0xce, 0x0d, 0xbe,
  0x6e, 0xc3, 0x26, 0x3e, 0x24, 0x26, 0x75, 0xbe, 0xd5, 0x14, 0x7d, 0xbe,
  0x30, 0x39, 0xa9, 0x3d, 0xf0, 0xd5, 0x87, 0xbd, 0xc7, 0x25, 0xaa, 0xbd,
  0x2d, 0x44, 0xf5, 0xbb, 0x58, 0x20, 0x4b, 0xbe, 0xd6, 0x88, 0xb3, 0xbd,
  0x6d, 0x17, 0x4f, 0x3e, 0xa8, 0x0f, 0x8f, 0xbe, 0x39, 0x6d, 0x17, 0xbc,
  0x87, 0xc8, 0x98, 0x3d, 0x06, 0x65, 0x2f, 0x3d, 0xc3, 0xb0, 0x5f, 0xbe,
  0x60, 0x93, 0x97, 0x3d, 0x05, 0xb3, 0x55, 0x3e, 0x5e, 0xfb, 0x3e, 0xbe,
  0x81, 0x8c, 0x02, 0x3d, 0x4b, 0xdc, 0x4a, 0x3e, 0x32, 0xb5, 0x29, 0xbe,
  0x63, 0x6c, 0xbd, 0xbd, 0x68, 0xeb, 0xad, 0x3d, 0x7d, 0x64, 0x18, 0x3e,
  0x67, 0xf4, 0x03, 0x3d, 0xf1, 0x48, 0x44, 0x3e, 0x4c, 0x6b, 0x09, 0xbb,
  0x28, 0x00, 0x1b, 0x3d, 0x70, 0x0b, 0x9b, 0xbe, 0xec, 0x0e, 0x79, 0x3e,
  0x5e, 0x8f, 0x39, 0x3e, 0xa0, 0xa5, 0x55, 0x3d, 0x6f, 0x5a, 0x55, 0x3e,
  0x28, 0x7c, 0x7e, 0xbc, 0x2e, 0x68, 0xff, 0x3c, 0xb9, 0x8b, 0xe4, 0xbd,
  0xbf, 0x8e, 0x6f, 0x3e, 0xa5, 0x3e, 0xdd, 0x3e, 0x23, 0xb5, 0x6c, 0x3b,
  0xe4, 0x95, 0xa2, 0x3e, 0x01, 0x23, 0x9b, 0xbe, 0x22, 0xf3, 0x75, 0x3e,
  0x43, 0xdd, 0x4c, 0xbe, 0xb2, 0xc6, 0xc6, 0x3d, 0x28, 0xbe, 0xa9, 0xbe,
  0xc6, 0x19, 0x6d, 0x3e, 0x61, 0xf8, 0x97, 0xbd, 0x39, 0x98, 0x10, 0xbf,
  0x1e, 0x15, 0x17, 0x3e, 0xcb, 0xd6, 0x45, 0x3d, 0x0e, 0xd3, 0x98, 0x3e,
  0xa3, 0x69, 0x49, 0x3e, 0xb1, 0x39, 0xaa, 0x3e, 0x3b, 0xad, 0x99, 0x3e,
  0x49, 0x68, 0x8e, 0xbe, 0x98, 0xc4, 0x02, 0xbe, 0xf2, 0x13, 0xc0, 0x3d,
  0x35, 0x83, 0xa4, 0x3d, 0x69, 0xb3, 0x86, 0x3c, 0xe4, 0x8e, 0xab, 0x3e,
  0x8b, 0x52, 0x0d, 0xbd, 0xb8, 0xe3, 0x54, 0xbe, 0xbc, 0x13, 0xe4, 0x3d,
  0x90, 0x2a, 0xc5, 0xbd, 0x2b, 0xac, 0x18, 0xbe, 0xb1, 0xdf, 0x98, 0xbe,
  0xba, 0x6a, 0x56, 0xbe, 0xad, 0xf8, 0xba, 0xbe, 0x9d, 0x0f, 0x55, 0xbe,
  0x1a, 0x79, 0x71, 0x3e, 0x59, 0xba, 0xa9, 0x3e, 0xb1, 0x80, 0x63, 0xbe,
  0xcc, 0xe1, 0x38, 0x3e, 0x62, 0x3a, 0xac, 0x3c, 0x9f, 0xe2, 0x38, 0xbd,
  0xcf, 0xb7, 0x16, 0x3d, 0xaf, 0x62, 0xb6, 0x3d, 0x1b, 0x90, 0x79, 0xbd,
  0x4b, 0x1a, 0x9d, 0x3e, 0xa8, 0x61, 0x39, 0xbd, 0x53, 0xcc, 0x4d, 0x3d,
  0x30, 0x15, 0xc0, 0xbd, 0xf9, 0x91, 0x0e, 0x3e, 0xbd, 0x6c, 0x0a, 0x3e,
  0x4a, 0xe5, 0xbf, 0x3d, 0x39, 0xf5, 0x4e, 0x3e, 0xb8, 0x52, 0xd6, 0x3e,
  0x98, 0x59, 0x89, 0xbe, 0x62, 0xba, 0x5e, 0x3e, 0xbe, 0x04, 0x6a, 0xbd,
  0x25, 0x31, 0xbf, 0xbd, 0x8e, 0x83, 0xd7, 0x3e, 0x50, 0x43, 0x3e, 0xbe,
  0xeb, 0x04, 0x07, 0x3e, 0xd0, 0x28, 0x83, 0x3e, 0x54, 0xc2, 0x3e, 0x3e,
  0xc5, 0xeb, 0x8d, 0x3e, 0x8e, 0xac, 0x99, 0xbe, 0x5c, 0x24, 0x56, 0xbe,
  0x42, 0x19, 0x42, 0x3d, 0x62, 0x13, 0xca, 0x3d, 0x7a, 0x34, 0x82, 0xbe,
  0xb4, 0xfe, 0x24, 0xbe, 0x9f, 0x1f, 0xf0, 0x3d, 0x18, 0x1b, 0x61, 0xbe,
  0x20, 0xbe, 0x14, 0xbe, 0x19, 0xfd, 0x5d, 0xbe, 0x11, 0x38, 0xa8, 0xbe,
  0x72, 0x28, 0x9c, 0x3e, 0x44, 0x1c, 0x81, 0x3e, 0x3b, 0x2d, 0x98, 0x3e,
  0x07, 0x3d, 0x86, 0x3e, 0xb0, 0x2d, 0xad, 0x3d, 0x29, 0x34, 0x50, 0xbe,
  0x07, 0x19, 0x40, 0xbd, 0xaa, 0xd5, 0x66, 0xbe, 0xe4, 0x58, 0x35, 0x3e,
  0xba, 0x22, 0xc0, 0xbd, 0x44, 0xa9, 0x1c, 0x3e, 0x03, 0xe3, 0x03, 0x3d,
  0x76, 0xfd, 0x5f, 0xbe, 0x5b, 0x10, 0x61, 0xbe, 0x36, 0x3b, 0x7e, 0x3d,
  0xbe, 0xd7, 0x0d, 0x3e, 0x7f, 0xe9, 0x8f, 0x3e, 0x05, 0xb6, 0x93, 0xbe,
  0x9a, 0xe5, 0xc1, 0xbd, 0xf2, 0xe5, 0x4f, 0xbd, 0xd0, 0xc1, 0x33, 0xbe,
  0xd2, 0xf1, 0x7b, 0xbe, 0xb0, 0x5e, 0x57, 0xbe, 0xae, 0x32, 0x99, 0x3d,
  0x43, 0x61, 0xe9, 0xbd, 0x85, 0xcd, 0x92, 0xbd, 0xa4, 0x19, 0x00, 0xbe,
  0xc0, 0xfc, 0x13, 0x3d, 0x0c, 0x2c, 0x66, 0xbc, 0xfc, 0xfa, 0x4c, 0x3e,
  0x0d, 0xe0, 0x2b, 0xbe, 0x72, 0x77, 0x67, 0xbe, 0xac, 0x45, 0x52, 0xbc,
  0x4e, 0x04, 0x1e, 0x3d, 0x24, 0x5f, 0x98, 0xba, 0x97, 0x3e, 0x08, 0xbe,
  0x0f, 0x30, 0xed, 0xbd, 0x38, 0x92, 0xce, 0x3b, 0x59, 0x26, 0x97, 0xbe,
  0xd9, 0x96, 0xef, 0xbc, 0x53, 0xee, 0x7d, 0x3d, 0xe0, 0xe8, 0x75, 0x3e,
  0x25, 0xe2, 0x98, 0x3e, 0x35, 0x3f, 0x0c, 0xbe, 0x3e, 0xf9, 0x8b, 0xbe,
  0x7f, 0x60, 0x70, 0x3e, 0x91, 0x2e, 0x93, 0x3e, 0x6f, 0x53, 0xcc, 0xba,
  0xd5, 0x46, 0x24, 0xbe, 0x92, 0x3c, 0x30, 0xbd, 0x43, 0x0e, 0x85, 0xbd,
  0xe1, 0x87, 0x88, 0xbe, 0x57, 0xa9, 0x99, 0xbe, 0xb5, 0xf8, 0x69, 0x3e,
  0x8f, 0x68, 0x57, 0xbe, 0x0e, 0x33, 0xf0, 0xbc, 0x7f, 0x15, 0x41, 0x3e,
  0x33, 0x36, 0xbc, 0xbd, 0x68, 0x5b, 0x88, 0x3e, 0xc0, 0x24, 0x57, 0xbd,
  0x5e, 0xfd, 0x6f, 0x3e, 0xac, 0x54, 0x4b, 0xbe, 0x35, 0x5e, 0x41, 0xbd,
  0x14, 0x40, 0x82, 0x3e, 0x66, 0x9a, 0xd4, 0xbd, 0x8f, 0x42, 0x38, 0xbe,
  0x21, 0xf9, 0x14, 0xbe, 0xc7, 0xc1, 0x3a, 0xbe, 0xe0, 0x57, 0xc5, 0xbc,
  0xb7, 0xf5, 0x06, 0xbe, 0xb9, 0x3d, 0xa0, 0xbd, 0x99, 0xf3, 0x84, 0xbe,
  0x7c, 0xc3, 0xaa, 0x3d, 0x52, 0x28, 0xb2, 0xbd, 0x7c, 0xdc, 0xcd, 0x3c,
  0x4f, 0xae, 0x65, 0xbe, 0xe9, 0x6f, 0xb5, 0xbd, 0x39, 0x9d, 0x34, 0x3e,
  0x89, 0x92, 0x77, 0xbe, 0xf1, 0x12, 0x09, 0x3d, 0xaf, 0x1e, 0x0a, 0xbe,
  0x78, 0x0f, 0x48, 0xbe, 0xa5, 0xef, 0x68, 0xbd, 0x4b, 0x3c, 0x26, 0xbe,
  0xda, 0x60, 0x04, 0x3e, 0x6b, 0x02, 0x78, 0x3c, 0xa8, 0x11, 0x8e, 0xbd,
  0xc7, 0x60, 0x34, 0x3e, 0xde, 0x08, 0x1d, 0x3e, 0x13, 0xf5, 0x9f, 0x3d,
  0xba, 0xd9, 0xe5, 0x3d, 0x2d, 0x25, 0x4b, 0xbe, 0x44, 0xb2, 0x0d, 0xbe,
  0xf5, 0x8e, 0x8a, 0xbd, 0x18, 0x85, 0x80, 0xbe, 0x6d, 0x98, 0x5b, 0x3e,
  0xb8, 0x49, 0x98, 0xbe, 0x57, 0xb1, 0xa8, 0xbd, 0xce, 0x91, 0x86, 0xbe,
  0x22, 0xe4, 0xd5, 0xbc, 0xae, 0x76, 0xd1, 0xbd, 0x25, 0x19, 0xa6, 0x3d,
  0xcb, 0x50, 0xd8, 0x3d, 0x8c, 0x7e, 0x37, 0x3d, 0x29, 0x9c, 0x96, 0xbd,
  0xdb, 0xd2, 0x81, 0xbe, 0x7b, 0xfc, 0x89, 0x3d, 0x03, 0xca, 0x1d, 0xbe,
  0x7f, 0x5d, 0x7c, 0xbe, 0x23, 0x0c, 0x8d, 0x3d, 0xd2, 0xaa, 0xa0, 0x3c,
  0x0b, 0x27, 0xac, 0x3e, 0x40, 0xc4, 0x48, 0xbd, 0x2a, 0x04, 0x98, 0xbd,
  0xca, 0x28, 0x90, 0x3e, 0x91, 0x92, 0x82, 0x3e, 0xd4, 0x8d, 0xa2, 0x3e,
  0x41, 0xf9, 0x21, 0xbe, 0xa9, 0x8c, 0x3f, 0xbe, 0xa3, 0xcc, 0x6b, 0x3d,
  0x81, 0x72, 0x75, 0x3e, 0x11, 0xae, 0xd5, 0x3d, 0x1b, 0xfe, 0x80, 0x3e,
  0x15, 0x9f, 0x71, 0xbe, 0xb3, 0xb5, 0x27, 0xbe, 0xe6, 0x04, 0x0b, 0x3d,
  0xfc, 0xe9, 0x2e, 0x3e, 0xda, 0x27, 0x81, 0xbe, 0xf4, 0x1a, 0x6e, 0x3e,
  0x38, 0x54, 0x7d, 0x3e, 0x85, 0x9d, 0x86, 0xbe, 0xf6, 0xdf, 0xc7, 0x3d,
  0xbb, 0xe8, 0x3c, 0xbe, 0xe6, 0x21, 0x93, 0xbe, 0x81, 0x6d, 0xaf, 0x3d,
  0xc9, 0xdd, 0x8b, 0xbe, 0x01, 0xbc, 0x60, 0x3e, 0x7b, 0x1b, 0x4e, 0x3e,
  0x3b, 0x6f, 0xa2, 0xbe, 0x17, 0x2a, 0x99, 0xbd, 0x5d, 0x05, 0xa7, 0x3d,
  0xbf, 0xbc, 0x4a, 0x3d, 0xb8, 0x9b, 0x45, 0xbc, 0x07, 0x02, 0x97, 0x3e,
  0xbd, 0xd6, 0x8a, 0x3e, 0x9f, 0xb1, 0x83, 0x3e, 0xd6, 0xd6, 0xeb, 0x3c,
  0x70, 0x96, 0xd1, 0xbe, 0xc6, 0xe5, 0x7e, 0xbe, 0xde, 0xe8, 0x27, 0x3e,
  0x19, 0xb5, 0x90, 0x3e, 0x62, 0xca, 0xae, 0xbe, 0x03, 0x06, 0xb7, 0xbd,
  0x37, 0x9c, 0xf7, 0x3d, 0x31, 0x20, 0x31, 0x3e, 0x4b, 0xa7, 0x44, 0xbe,
  0xe9, 0x1c, 0x71, 0x3d, 0xff, 0x36, 0x25, 0xbe, 0x68, 0x2d, 0x5e, 0x3e,
  0xca, 0x88, 0x9f, 0x3e, 0x34, 0xfd, 0xe1, 0xbd, 0x9e, 0x25, 0x74, 0x3c,
  0xc7, 0x96, 0xab, 0xbd, 0x8c, 0x2a, 0xad, 0xbe, 0x41, 0x0c, 0x97, 0xbd,
  0xb2, 0x0a, 0xb8, 0xbe, 0x18, 0x2e, 0xca, 0xbd, 0x9b, 0x58, 0x4a, 0x3e,
  0x51, 0xb5, 0x68, 0xbe, 0x57, 0xec, 0x3a, 0xbe, 0x41, 0xd0, 0xb4, 0xbd,
  0x5d, 0x4e, 0xe2, 0xbd, 0x55, 0x1b, 0x68, 0xbe, 0x4c, 0xd6, 0x91, 0xbe,
  0xad, 0x92, 0x59, 0xbe, 0x81, 0x5b, 0xce, 0x3d, 0x5a, 0x58, 0x3a, 0xbe,
  0x09, 0xe6, 0x1b, 0x3e, 0x10, 0x9b, 0x0a, 0x3c, 0x93, 0x71, 0x23, 0xbe,
  0x1a, 0xb5, 0x86, 0x3e, 0x50, 0x60, 0x7d, 0x3d, 0x4c, 0xf5, 0xcc, 0x3b,
  0xbb, 0x8a, 0x86, 0x3d, 0x88, 0x60, 0xb2, 0xbd, 0x26, 0xab, 0x09, 0xbe,
  0x48, 0xd1, 0x75, 0x3d, 0x01, 0x98, 0x9e, 0xbd, 0x98, 0x6d, 0x0b, 0xbd,
  0x3d, 0x50, 0xb9, 0xbd, 0x68, 0x8a, 0x96, 0x3e, 0x23, 0x8e, 0x5d, 0xbe,
  0x38, 0x97, 0x05, 0xbe, 0x2c, 0x77, 0x8b, 0x3e, 0x7b, 0xb2, 0xa0, 0x3e,
  0xa9, 0x0b, 0x71, 0xbe, 0xc7, 0xfa, 0x3a, 0xba, 0xc7, 0xee, 0x41, 0xbe,
  0xeb, 0x1d, 0x65, 0x3d, 0xc2, 0xfa, 0xe3, 0x3e, 0xf6, 0x4f, 0x98, 0xbe,
  0xe3, 0x32, 0x5b, 0x3d, 0xf1, 0x03, 0x83, 0x3e, 0x75, 0xb2, 0x5d, 0x3e,
  0xa6, 0x7d, 0x97, 0xbd, 0x87, 0xd4, 0x06, 0x3e, 0xa1, 0x72, 0xc2, 0x3e,
  0x84, 0x77, 0x8f, 0x3e, 0x43, 0x64, 0xbe, 0xbe, 0xaa, 0x8c, 0x78, 0xbe,
  0x64, 0xfa, 0x9e, 0x3c, 0x9c, 0x42, 0x47, 0x3d, 0xc3, 0xa7, 0x98, 0x3e,
  0x63, 0xb4, 0xdf, 0xbd, 0xd3, 0xfc, 0x98, 0xbd, 0x29, 0xc9, 0x8c, 0x3e,
  0x0f, 0x65, 0x65, 0x3d, 0x5a, 0x9f, 0x87, 0x3d, 0xb1, 0x3d, 0x1c, 0x3e,
  0x89, 0x42, 0x3b, 0xbe, 0x14, 0x46, 0x46, 0xbe, 0x87, 0x1d, 0x31, 0x3e,
  0xf1, 0xe3, 0x4e, 0x3e, 0x9d, 0xee, 0x64, 0xbd, 0x68, 0x92, 0xb6, 0x3d,
  0x4b, 0x22, 0xa9, 0x3e, 0x0c, 0xa8, 0x05, 0x3c, 0xac, 0x16, 0x94, 0x3d,
  0x60, 0xca, 0x05, 0xbe, 0x3f, 0xaa, 0x32, 0x3d, 0x09, 0x92, 0xfb, 0xbd,
  0xd9, 0xcb, 0x13, 0xbe, 0xfa, 0x7f, 0xd3, 0xbd, 0x43, 0x6e, 0x8f, 0x3e,
  0xc6, 0xd5, 0x5d, 0x3e, 0x6d, 0xd5, 0x11, 0xbe, 0x79, 0x90, 0x77, 0x3e,
  0x60, 0x1c, 0x08, 0xbd, 0x31, 0xcd, 0x6b, 0xbc, 0xfe, 0xcd, 0x1e, 0xbe,
  0x6c, 0xfa, 0x8d, 0xbe, 0x67, 0xc3, 0x15, 0x3d, 0x5f, 0x88, 0x81, 0xbe,
  0x88, 0xb8, 0x66, 0x3e, 0xd0, 0x7f, 0x17, 0xbe, 0xea, 0x8a, 0xfb, 0x3c,
  0x0a, 0x77, 0x22, 0x3e, 0x46, 0x12, 0x91, 0xbd, 0xb5, 0x57, 0xbd, 0xbe,
  0x3b, 0x45, 0x80, 0x3e, 0xc2, 0x5d, 0xf3, 0x3e, 0x96, 0x11, 0x7f, 0xbe,
  0x97, 0x5d, 0x54, 0x3e, 0x2f, 0xbd, 0x73, 0xbe, 0x63, 0x05, 0x54, 0x3e,
  0x94, 0x4f, 0x9e, 0x3e, 0xe1, 0x4e, 0x3f, 0xbd, 0xa9, 0x60, 0x90, 0x3d,
  0x61, 0xe1, 0x48, 0xbe, 0xa1, 0x79, 0x10, 0x3e, 0x51, 0x0b, 0xa3, 0xbe,
  0x9b, 0x89, 0xd0, 0xbc, 0x66, 0x45, 0x58, 0x3e, 0xa0, 0xa7, 0xa7, 0xbd,
  0x34, 0x5c, 0x15, 0xbe, 0x76, 0x12, 0xf4, 0xbd, 0x67, 0x36, 0xa5, 0xbe,
  0x42, 0x01, 0x8d, 0x3e, 0x0b, 0x21, 0xc0, 0xbc, 0x25, 0xf2, 0x57, 0x3e,
  0x6b, 0xdb, 0x85, 0xbe, 0xd9, 0x50, 0x73, 0x3e, 0x97, 0xf6, 0x9b, 0x3e,
  0x32, 0x7c, 0x39, 0xbd, 0xaf, 0x0c, 0xa7, 0xbd, 0xa6, 0x26, 0xc2, 0x3e,
  0x69, 0x87, 0x66, 0xbe, 0x31, 0x45, 0x90, 0x3e, 0x98, 0x1b, 0x5b, 0xbe,
  0x8c, 0x2b, 0x66, 0x3e, 0x88, 0xb5, 0xa4, 0x3e, 0x99, 0x1e, 0x48, 0xbe,
  0xd4, 0x53, 0x30, 0x3d, 0x9b, 0x55, 0x35, 0x3d, 0x0b, 0xad, 0x2c, 0xbe,
  0xe9, 0x79, 0x81, 0xbe, 0xb1, 0xae, 0x66, 0xbc, 0xa4, 0xcb, 0xe2, 0xbd,
  0xe1, 0x20, 0x2f, 0x3c, 0x87, 0x95, 0x0a, 0xbd, 0xa5, 0xbc, 0x18, 0x3e,
  0xe5, 0x13, 0x7f, 0x3e, 0x5a, 0x7c, 0x9b, 0x3e, 0x41, 0x53, 0x3a, 0x3d,
  0xac, 0x55, 0xeb, 0x3c, 0x0d, 0x8b, 0x8e, 0xbe, 0xfa, 0x12, 0x49, 0x3d,
  0x92, 0x66, 0x30, 0x3e, 0x8b, 0x3d, 0x88, 0xbe, 0x46, 0xa1, 0x11, 0x3e,
  0xbc, 0x10, 0xf8, 0xbd, 0x60, 0xac, 0x4c, 0x3e, 0xba, 0xf8, 0xa5, 0xbe,
  0x98, 0x63, 0x8c, 0xbd, 0xda, 0x07, 0xdb, 0xbc, 0x03, 0xa1, 0x47, 0xbe,
  0x7e, 0xed, 0x43, 0x3e, 0x62, 0x47, 0x84, 0x3e, 0x0b, 0x3a, 0x1b, 0xbe,
  0x03, 0xf1, 0xce, 0xbd, 0x48, 0xfc, 0xb8, 0x3e, 0xee, 0x23, 0xdb, 0xbd,
  0x88, 0x84, 0xbc, 0x3d, 0xd5, 0x48, 0x11, 0x3e, 0xf3, 0xdf, 0x00, 0x3c,
  0xc4, 0x13, 0x72, 0xbe, 0x86, 0x96, 0x0e, 0xbd, 0xc0, 0xe3, 0x96, 0x3e,
  0xad, 0x94, 0x2a, 0xbe, 0x6d, 0xfe, 0xb3, 0x3e, 0x88, 0x78, 0x88, 0xbb,
  0xfc, 0x4d, 0xd9, 0xbd, 0x03, 0xa9, 0x01, 0x3c, 0x59, 0x19, 0xdd, 0x3e,
  0xe7, 0xb5, 0xa2, 0x3e, 0x1c, 0xd3, 0xaf, 0xbd, 0xca, 0x56, 0xc5, 0x3d,
  0x34, 0x4d, 0x03, 0x3e, 0x60, 0xa7, 0x3c, 0xbe, 0x50, 0x47, 0xc9, 0x3b,
  0x88, 0x8c, 0x30, 0x3d, 0x7c, 0xff, 0x63, 0x3e, 0xd8, 0x80, 0x1f, 0xbe,
  0xd2, 0xe6, 0xe5, 0x3c, 0xe8, 0xfd, 0x08, 0x3e, 0x95, 0x58, 0xb8, 0xbe,
  0xe8, 0x29, 0x28, 0xbe, 0xcc, 0x6c, 0x40, 0x3e, 0xb7, 0xb9, 0x1a, 0xbe,
  0x36, 0x04, 0x48, 0x3e, 0x33, 0xc7, 0x75, 0xbd, 0x08, 0xe0, 0xfc, 0x3c,
  0xa2, 0xcc, 0xa9, 0xbd, 0x19, 0xe3, 0x9f, 0x3e, 0x4f, 0xba, 0x93, 0x3d,
  0x2f, 0xcb, 0x97, 0x3e, 0x5e, 0xf7, 0x2c, 0x3e, 0x79, 0xf2, 0x3d, 0x3d,
  0x9d, 0xe5, 0x93, 0x3e, 0x99, 0x25, 0x37, 0x3e, 0x25, 0x0e, 0x30, 0x3c,
  0x7f, 0x2a, 0x97, 0x3e, 0x14, 0xef, 0x35, 0x3e, 0xa3, 0x17, 0xb1, 0x3c,
  0xc7, 0x2a, 0x29, 0x3e, 0xc1, 0x88, 0x01, 0x3e, 0x73, 0x36, 0xb2, 0x3e,
  0x80, 0x86, 0x37, 0xbb, 0x1d, 0x5a, 0x12, 0xbe, 0x0a, 0x56, 0x96, 0xbe,
  0x37, 0x40, 0x96, 0x3e, 0x1e, 0x5f, 0x8b, 0xbe, 0xa0, 0xc7, 0x98, 0x3c,
  0x80, 0x43, 0x74, 0xbc, 0x00, 0xdd, 0xc9, 0xbb, 0x5a, 0xb0, 0x1e, 0x3e,
  0x24, 0x5d, 0x2d, 0x3e, 0xc0, 0x7f, 0xd2, 0x3d, 0x88, 0xdc, 0xe2, 0x3d,
  0x20, 0xe3, 0x42, 0x3d, 0xa8, 0x43, 0x2e, 0x3e, 0x3c, 0xe7, 0x87, 0xbe,
  0xe2, 0x06, 0x77, 0xbe, 0xbc, 0x5d, 0x6f, 0xbd, 0x78, 0xba, 0x12, 0xbe,
  0xdc, 0xae, 0xf5, 0xbd, 0x74, 0x87, 0xc4, 0xbd, 0x4a, 0x63, 0x75, 0xbe,
  0x00, 0xfd, 0x5d, 0x3d, 0xd0, 0xd5, 0x17, 0x3d, 0x39, 0x21, 0x2b, 0xbe,
  0x80, 0xd1, 0xb5, 0x3c, 0xda, 0x91, 0x1d, 0x3e, 0xf8, 0x28, 0x94, 0x3d,
  0xe0, 0x9a, 0x05, 0x3e, 0xe0, 0x8d, 0xc3, 0x3d, 0x74, 0x22, 0x3b, 0xbe,
  0x32, 0x90, 0x31, 0xbe, 0x28, 0xd1, 0x24, 0xbd, 0x80, 0x6d, 0x09, 0xbd,
  0x39, 0x66, 0x8b, 0x3e, 0x7a, 0xe0, 0x73, 0x3e, 0xc0, 0xcb, 0xf4, 0xbc,
  0xc5, 0x62, 0x22, 0xbe, 0x5a, 0x3c, 0x84, 0xbe, 0xd4, 0x1c, 0xf6, 0x3d,
  0x76, 0xf6, 0xa7, 0xbd, 0x60, 0xf7, 0x27, 0x3e, 0x00, 0xfd, 0x84, 0x3a,
  0x2a, 0x2b, 0x98, 0xbe, 0xd6, 0xee, 0x71, 0xbe, 0x66, 0xf5, 0x7f, 0x3e,
  0x4b, 0x9d, 0x8e, 0x3e, 0xc0, 0x5a, 0xa6, 0xbd, 0xac, 0x1e, 0xc2, 0x3d,
  0xa6, 0x58, 0xbd, 0xbd, 0x2e, 0x35, 0xd5, 0xbd, 0xc9, 0x39, 0x9c, 0xbe,
  0x06, 0x22, 0x23, 0xbe, 0x9a, 0x54, 0x8c, 0xbd, 0x90, 0x65, 0xcc, 0xbc,
  0xee, 0xe6, 0x69, 0xbe, 0x07, 0xd2, 0x1a, 0xbe, 0x46, 0x49, 0x3c, 0x3e,
  0x17, 0x24, 0x8c, 0x3e, 0x60, 0xff, 0x7a, 0x3c, 0xa8, 0x91, 0xe2, 0x3d,
  0xb0, 0xf5, 0x6f, 0x3d, 0xc6, 0x6b, 0x84, 0xbe, 0x5c, 0xc5, 0xe5, 0xbd,
  0x25, 0x01, 0x9c, 0x3e, 0x98, 0x8c, 0xd1, 0xbb, 0xf8, 0xec, 0x16, 0xbe,
  0x14, 0x72, 0xdf, 0x3b, 0x64, 0x8b, 0x41, 0xbe, 0xda, 0x5e, 0x4c, 0xbe,
  0x69, 0x0b, 0x8e, 0x3e, 0x28, 0x66, 0xb4, 0xbc, 0xb2, 0x26, 0x07, 0xbe,
  0xf2, 0x3c, 0x6c, 0x3d, 0x47, 0xbf, 0xb9, 0xbc, 0xc2, 0xcc, 0xa6, 0xbd,
  0xde, 0xef, 0x09, 0x3e, 0x93, 0xd8, 0x76, 0xbe, 0x2b, 0x84, 0x28, 0x3d,
  0xb6, 0x70, 0xbe, 0x3e, 0xd7, 0x8f, 0x9d, 0xbe, 0xae, 0xe4, 0xbd, 0xbd,
  0x2d, 0x0a, 0x48, 0x3e, 0xe8, 0x21, 0x7c, 0xbe, 0xfd, 0x27, 0x88, 0x3c,
  0x75, 0x55, 0x95, 0xbd, 0x48, 0x6f, 0xf3, 0xbc, 0x9e, 0x20, 0x8c, 0xbe,
  0xe2, 0x20, 0x1e, 0x3e, 0x8f, 0x3e, 0x8f, 0x3e, 0x0d, 0x6b, 0xe3, 0xbd,
  0x25, 0xc8, 0x12, 0xbe, 0xfc, 0x2f, 0x47, 0xbd, 0x0e, 0x3f, 0xb7, 0xbd,
  0x1b, 0xac, 0xb7, 0x3d, 0xe7, 0x4d, 0x3d, 0x3d, 0xdf, 0x42, 0x1b, 0x3d,
  0x3c, 0xa2, 0x87, 0x3d, 0x20, 0xa4, 0x8f, 0x3e, 0xfe, 0x1f, 0xa2, 0x3e,
  0x4f, 0x2f, 0x12, 0xbe, 0x5c, 0xed, 0x06, 0xbe, 0xcc, 0x14, 0xd3, 0x3e,
  0x8c, 0xf3, 0x07, 0xbe, 0xf1, 0x00, 0x74, 0x3a, 0xab, 0x20, 0xd4, 0xbb,
  0x13, 0xab, 0x36, 0xbe, 0x6c, 0x5a, 0xcc, 0x3c, 0x63, 0x0b, 0xb7, 0x3d,
  0x09, 0x74, 0x7b, 0x3e, 0x26, 0xd7, 0x24, 0xbe, 0x1a, 0x94, 0x9a, 0x3d,
  0x0c, 0xc2, 0x71, 0x3d, 0x95, 0x03, 0x1f, 0xbe, 0x1b, 0x14, 0x57, 0x3e,
  0xa4, 0x53, 0x98, 0x3e, 0x0f, 0xfc, 0x50, 0x3e, 0x25, 0xfd, 0x18, 0x3e,
  0xe6, 0xdf, 0xc2, 0x3e, 0x6a, 0x43, 0x6b, 0xbe, 0xd4, 0x65, 0x16, 0x3d,
  0xda, 0x69, 0xa0, 0x3d, 0x65, 0xc0, 0x47, 0xbe, 0x06, 0xa0, 0x6b, 0xbe,
  0x1c, 0xf8, 0x38, 0x3d, 0xd5, 0xf3, 0xcc, 0xbd, 0xdf, 0x8a, 0x89, 0xbd,
  0xd1, 0x04, 0x7f, 0x3d, 0x51, 0xd0, 0xd3, 0xbc, 0x97, 0x69, 0x66, 0xbe,
  0x0c, 0xc4, 0x7c, 0x3e, 0x69, 0xf0, 0x3b, 0x3e, 0xdc, 0xfe, 0x52, 0xbe,
  0xdc, 0x8c, 0x84, 0x3e, 0x49, 0xad, 0x9e, 0xbd, 0x64, 0x7c, 0x94, 0x3e,
  0x60, 0xfd, 0x31, 0x3d, 0x37, 0xa5, 0xd2, 0xbd, 0x51, 0x03, 0x0f, 0x3c,
  0x02, 0xb4, 0x4d, 0x3e, 0x45, 0xd5, 0x1d, 0x3c, 0xb6, 0x60, 0x86, 0xbe,
  0x53, 0x22, 0x2b, 0x3e, 0x3c, 0x32, 0x4f, 0xbe, 0xcc, 0x1c, 0x98, 0x3e,
  0x7b, 0xb0, 0x32, 0xbe, 0x85, 0x1b, 0x1f, 0x3e, 0x54, 0xe6, 0x4a, 0xbe,
  0x4b, 0x6a, 0x9e, 0xbc, 0xf8, 0xd3, 0x44, 0xbe, 0x6b, 0xa6, 0x75, 0x3d,
  0xb7, 0x6e, 0x6f, 0xbd, 0x7c, 0xb4, 0xef, 0xbd, 0x20, 0x54, 0xe5, 0x3d,
  0x8b, 0x0c, 0x8e, 0xbe, 0x1b, 0xb6, 0x8a, 0x3e, 0x80, 0x30, 0xbd, 0xbd,
  0x15, 0xc6, 0x23, 0xbe, 0x9f, 0x87, 0x19, 0x3d, 0xa0, 0x39, 0xfc, 0x3e,
  0x15, 0x64, 0x6f, 0x3d, 0xfe, 0x60, 0xbb, 0xbd, 0xeb, 0xfc, 0xb3, 0xbc,
  0xd1, 0xc9, 0x7d, 0x3d, 0xb4, 0x4a, 0x96, 0xbd, 0x8a, 0x1f, 0xee, 0x3c,
  0xb3, 0xf0, 0x88, 0xbe, 0x44, 0x81, 0xba, 0x3d, 0xfd, 0x5d, 0x8e, 0x3e,
  0x25, 0x19, 0x03, 0xbe, 0xf0, 0x4d, 0x26, 0x3e, 0x65, 0xc7, 0x82, 0xbd,
  0x75, 0x80, 0x91, 0xbe, 0x0a, 0x8d, 0xf4, 0x3d, 0x79, 0x56, 0xaf, 0xbc,
  0xdd, 0xbc, 0x91, 0x3d, 0x74, 0x61, 0x65, 0x3e, 0x41, 0x88, 0x76, 0xbe,
  0x29, 0x3a, 0x87, 0xbd, 0xc7, 0x46, 0x3b, 0xbe, 0x3d, 0x3f, 0xc8, 0x3d,
  0x9b, 0x15, 0xc1, 0x3d, 0x4a, 0xc1, 0x5e, 0x3c, 0x1f, 0x72, 0x6a, 0xbe,
  0x05, 0xbe, 0x85, 0xbe, 0x7b, 0x51, 0x55, 0x3e, 0x02, 0x75, 0x52, 0x3e,
  0x3b, 0xef, 0x5c, 0xbd, 0x98, 0x6d, 0x8f, 0x3e, 0xfa, 0xe0, 0x4d, 0xbd,
  0xf0, 0xe7, 0x8f, 0xbe, 0x1a, 0xd5, 0xce, 0x3d, 0x02, 0xe5, 0x9e, 0xbe,
  0x4c, 0x89, 0x22, 0x3d, 0xd7, 0x9b, 0x3f, 0xbe, 0x48, 0x3e, 0x1d, 0xbe,
  0xd5, 0x5f, 0x85, 0x3e, 0x80, 0x09, 0x51, 0xbe, 0x19, 0xec, 0x82, 0x3e,
  0xbc, 0x60, 0xd6, 0xbd, 0x1f, 0xe5, 0x74, 0xbe, 0x9b, 0x0b, 0x36, 0x3e,
  0x35, 0xe7, 0x47, 0x3e, 0xda, 0x3b, 0xd1, 0xbc, 0x5f, 0x62, 0x3a, 0xbd,
  0x69, 0x90, 0xd2, 0xbd, 0x0c, 0x85, 0x45, 0x3e, 0x46, 0xd6, 0x3c, 0xbd,
  0x66, 0x16, 0x7c, 0xbe, 0x1b, 0x47, 0x2c, 0x3d, 0xbf, 0x4f, 0x51, 0xbd,
  0xed, 0x34, 0x8b, 0x3e, 0x7d, 0xe8, 0x5e, 0xbe, 0x9f, 0xc8, 0x8e, 0xbe,
  0x89, 0x71, 0x1c, 0xbe, 0x9c, 0x1f, 0x2b, 0x3e, 0x66, 0xc8, 0x6b, 0xbe,
  0x81, 0x5d, 0xb0, 0x3d, 0x0e, 0x91, 0x3b, 0x3e, 0x2c, 0x02, 0x95, 0xbc,
  0x32, 0xfc, 0xbb, 0xbc, 0xe5, 0x7e, 0x2d, 0x3e, 0x7f, 0xa7, 0x29, 0x3d,
  0xf3, 0x5c, 0xa0, 0x3e, 0x90, 0xe0, 0xfb, 0xbd, 0x43, 0x1b, 0xb4, 0x3b,
  0xe3, 0xcd, 0x86, 0x3e, 0xe7, 0xc5, 0x86, 0x3e, 0x03, 0x5e, 0x92, 0x3d,
  0x8a, 0xca, 0x62, 0xbe, 0xe8, 0x7c, 0xcd, 0xbd, 0x70, 0xb2, 0xa4, 0xbd,
  0x7e, 0xf8, 0xd5, 0xbd, 0x1d, 0xfd, 0x42, 0xbe, 0x1d, 0x3a, 0x67, 0x3e,
  0x78, 0xb3, 0x30, 0xbc, 0x72, 0xda, 0x7d, 0xbe, 0x5c, 0xa2, 0x37, 0x3e,
  0xe7, 0x62, 0x78, 0x3e, 0xf9, 0x0d, 0x31, 0x3e, 0xcc, 0x88, 0x14, 0xbe,
  0x68, 0x04, 0xa0, 0x3d, 0x44, 0x66, 0x9d, 0x3c, 0xd6, 0x69, 0x1f, 0x3e,
  0x03, 0xcf, 0x9e, 0xbe, 0x05, 0x80, 0x28, 0xbe, 0x18, 0x9e, 0xff, 0xbd,
  0xaf, 0xbd, 0x54, 0x3d, 0xb1, 0x04, 0x45, 0x3e, 0x54, 0x33, 0x8d, 0xbe,
  0xb0, 0x4b, 0x9f, 0x3d, 0x15, 0xdc, 0x52, 0xbe, 0x9f, 0x7d, 0xc4, 0xbd,
  0xc6, 0x49, 0x97, 0xbe, 0xc7, 0x9b, 0xf1, 0xbd, 0x79, 0x46, 0xa7, 0x3c,
  0x08, 0x31, 0x61, 0x3e, 0xab, 0x7d, 0x7f, 0x3e, 0x50, 0xd6, 0x50, 0xbe,
  0x02, 0x58, 0x6b, 0xbe, 0xea, 0xec, 0x09, 0xbe, 0x89, 0x5c, 0xc2, 0xbc,
  0x7b, 0x37, 0x83, 0xbd, 0xe4, 0xe1, 0x0d, 0xbe, 0x6f, 0x12, 0xd5, 0xbc,
  0xc6, 0x25, 0x3e, 0x3e, 0x72, 0x2a, 0x94, 0xbd, 0xe0, 0x81, 0x0e, 0xbd,
  0x11, 0xf5, 0x70, 0x3e, 0x71, 0xea, 0x70, 0xbd, 0x5d, 0xc9, 0x20, 0x3e,
  0xe2, 0x07, 0xab, 0xbe, 0x63, 0x22, 0x64, 0x3e, 0x16, 0xc1, 0x42, 0x3d,
  0x3e, 0x9d, 0xfa, 0x3c, 0x5e, 0x2a, 0xb6, 0x3e, 0xd2, 0xa3, 0xae, 0x3e,
  0x60, 0x08, 0xc7, 0x3e, 0xbe, 0x95, 0x3c, 0xbe, 0x47, 0x8b, 0x71, 0xbe,
  0x77, 0x6f, 0x93, 0x3e, 0xc1, 0xb4, 0x03, 0x3e, 0x24, 0xc3, 0x63, 0x3e,
  0x39, 0xc2, 0x14, 0x3e, 0x3f, 0x7e, 0x96, 0xbe, 0xaa, 0x6c, 0x96, 0x3e,
  0x84, 0xce, 0x5b, 0x3e, 0xc3, 0x49, 0x3c, 0xbd, 0xb8, 0xb5, 0xb3, 0xbd,
  0x08, 0x82, 0x88, 0x3d, 0xb4, 0x95, 0x29, 0x3e, 0xb3, 0x3d, 0x84, 0xbe,
  0x82, 0x28, 0x98, 0x3e, 0x55, 0x28, 0xbd, 0x3e, 0xfd, 0xc5, 0x30, 0xbd,
  0x1b, 0xa0, 0x9d, 0xbd, 0x63, 0x18, 0x84, 0x3e, 0xaa, 0x06, 0x7f, 0x3e,
  0x70, 0xcd, 0x08, 0x3e, 0x22, 0x84, 0xf1, 0x3e, 0xb6, 0x9d, 0x9c, 0x3e,
  0x3b, 0x8c, 0xb6, 0x3e, 0x72, 0x56, 0x39, 0x3e, 0xaf, 0xeb, 0x69, 0xbe,
  0x3b, 0xef, 0x8d, 0x3e, 0x2f, 0xab, 0xab, 0xbd, 0xe0, 0xdf, 0xb3, 0x3e,
  0x11, 0x9e, 0x56, 0x3e, 0xcf, 0x51, 0x05, 0x3e, 0xea, 0x9d, 0xbc, 0x3d,
  0x33, 0x7a, 0x60, 0xbe, 0x63, 0xe5, 0x4a, 0xbe, 0x1f, 0x21, 0xbb, 0x3e,
  0x6a, 0x78, 0x00, 0x3e, 0xba, 0xaf, 0x20, 0x3e, 0xc3, 0x3d, 0x5b, 0x3e,
  0x10, 0x06, 0x7e, 0xbe, 0xed, 0x73, 0xd3, 0xbd, 0xc0, 0x36, 0x10, 0xbe,
  0x15, 0xbc, 0x29, 0xbe, 0x26, 0xa4, 0xbd, 0x3e, 0x56, 0xe9, 0xff, 0xff,
  0x10, 0x00, 0x00, 0x00, 0x09, 0x00, 0x00, 0x00, 0x14, 0x00, 0x00, 0x00,
  0x2c, 0x00, 0x00, 0x00, 0x02, 0x00, 0x00, 0x00, 0x10, 0x00, 0x00, 0x00,
  0x40, 0x00, 0x00, 0x00, 0x17, 0x00, 0x00, 0x00, 0x73, 0x65, 0x71, 0x75,
  0x65, 0x6e, 0x74, 0x69, 0x61, 0x6c, 0x2f, 0x64, 0x65, 0x6e, 0x73, 0x65,
  0x2f, 0x4d, 0x61, 0x74, 0x4d, 0x75, 0x6c, 0x00, 0x90, 0xe8, 0xff, 0xff,
  0xea, 0xe9, 0xff, 0xff, 0x04, 0x00, 0x00, 0x00, 0x08, 0x00, 0x00, 0x00,
  0xff, 0xff, 0xff, 0xff, 0x40, 0x00, 0x00, 0x00, 0x00, 0x00, 0x0e, 0x00,
  0x18, 0x00, 0x08, 0x00, 0x07, 0x00, 0x0c, 0x00, 0x10, 0x00, 0x14, 0x00,
  0x0e, 0x00, 0x00, 0x00, 0x00, 0x00, 0x00, 0x02, 0x10, 0x00, 0x00, 0x00,
  0x08, 0x00, 0x00, 0x00, 0x10, 0x00, 0x00, 0x00, 0x2c, 0x00, 0x00, 0x00,
  0x01, 0x00, 0x00, 0x00, 0x02, 0x00, 0x00, 0x00, 0x18, 0x00, 0x00, 0x00,
  0x73, 0x65, 0x71, 0x75, 0x65, 0x6e, 0x74, 0x69, 0x61, 0x6c, 0x2f, 0x66,
  0x6c, 0x61, 0x74, 0x74, 0x65, 0x6e, 0x2f, 0x43, 0x6f, 0x6e, 0x73, 0x74,
  0x00, 0x00, 0x00, 0x00, 0xf8, 0xe8, 0xff, 0xff, 0x52, 0xea, 0xff, 0xff,
  0x04, 0x00, 0x00, 0x00, 0x18, 0x00, 0x00, 0x00, 0x32, 0x15, 0x05, 0xbe,
  0x2a, 0xa3, 0xcd, 0xbc, 0x40, 0xf3, 0x35, 0x3e, 0x2b, 0x5a, 0x26, 0x3d,
  0xea, 0xa2, 0x77, 0xbd, 0xb9, 0xea, 0x35, 0xbb, 0x22, 0xea, 0xff, 0xff,
  0x10, 0x00, 0x00, 0x00, 0x07, 0x00, 0x00, 0x00, 0x10, 0x00, 0x00, 0x00,
  0x44, 0x00, 0x00, 0x00, 0x01, 0x00, 0x00, 0x00, 0x06, 0x00, 0x00, 0x00,
  0x32, 0x00, 0x00, 0x00, 0x73, 0x65, 0x71, 0x75, 0x65, 0x6e, 0x74, 0x69,
  0x61, 0x6c, 0x2f, 0x64, 0x65, 0x6e, 0x73, 0x65, 0x5f, 0x31, 0x2f, 0x42,
  0x69, 0x61, 0x73, 0x41, 0x64, 0x64, 0x2f, 0x52, 0x65, 0x61, 0x64, 0x56,
  0x61, 0x72, 0x69, 0x61, 0x62, 0x6c, 0x65, 0x4f, 0x70, 0x2f, 0x72, 0x65,
  0x73, 0x6f, 0x75, 0x72, 0x63, 0x65, 0x00, 0x00, 0x74, 0xe9, 0xff, 0xff,
  0xce, 0xea, 0xff, 0xff, 0x04, 0x00, 0x00, 0x00, 0x40, 0x00, 0x00, 0x00,
  0xfa, 0xb2, 0x36, 0xbc, 0x00, 0x00, 0x00, 0x00, 0xd3, 0x67, 0xe3, 0xbb,
  0x0f, 0xa7, 0xaf, 0xbc, 0x10, 0x8f, 0x48, 0x3e, 0x30, 0x65, 0xea, 0xbb,
  0xc8, 0x42, 0x08, 0xbc, 0x08, 0x35, 0x8a, 0x3d, 0x52, 0x59, 0x97, 0x39,
  0xd3, 0x66, 0x9c, 0x3d, 0xeb, 0xaf, 0x35, 0xbd, 0x00, 0x00, 0x00, 0x00,
  0xd9, 0x4f, 0x41, 0x3b, 0xac, 0xcb, 0x74, 0xbc, 0x45, 0xef, 0x94, 0xbc,
  0xd6, 0xd3, 0x2a, 0x3e, 0xc6, 0xea, 0xff, 0xff, 0x10, 0x00, 0x00, 0x00,
  0x06, 0x00, 0x00, 0x00, 0x10, 0x00, 0x00, 0x00, 0x44, 0x00, 0x00, 0x00,
  0x01, 0x00, 0x00, 0x00, 0x10, 0x00, 0x00, 0x00, 0x30, 0x00, 0x00, 0x00,
  0x73, 0x65, 0x71, 0x75, 0x65, 0x6e, 0x74, 0x69, 0x61, 0x6c, 0x2f, 0x64,
  0x65, 0x6e, 0x73, 0x65, 0x2f, 0x42, 0x69, 0x61, 0x73, 0x41, 0x64, 0x64,
  0x2f, 0x52, 0x65, 0x61, 0x64, 0x56, 0x61, 0x72, 0x69, 0x61, 0x62, 0x6c,
  0x65, 0x4f, 0x70, 0x2f, 0x72, 0x65, 0x73, 0x6f, 0x75, 0x72, 0x63, 0x65,
  0x00, 0x00, 0x00, 0x00, 0x18, 0xea, 0xff, 0xff, 0x72, 0xeb, 0xff, 0xff,
  0x04, 0x00, 0x00, 0x00, 0x20, 0x01, 0x00, 0x00, 0x57, 0x13, 0x63, 0xbe,
  0xd0, 0xa6, 0x62, 0x3f, 0x4e, 0xd1, 0x89, 0x3f, 0x45, 0x1f, 0x93, 0x3c,
  0x0e, 0xd2, 0x05, 0xbf, 0x77, 0xd3, 0x00, 0x3f, 0x01, 0xd7, 0x07, 0xbf,
  0xef, 0x46, 0x01, 0x3f, 0x66, 0x95, 0x9f, 0x3f, 0x1d, 0x7a, 0x00, 0x3f,
  0x64, 0x46, 0x06, 0x3f, 0xb3, 0x9c, 0xf8, 0xbe, 0x61, 0x7f, 0x01, 0xbf,
  0x0f, 0x9b, 0x9c, 0xbe, 0x31, 0x62, 0x2f, 0x3f, 0x4f, 0x98, 0x09, 0x3f,
  0xe8, 0x90, 0x34, 0x3f, 0xbc, 0x9e, 0x69, 0x3f, 0x65, 0x9e, 0x3e, 0xbf,
  0xf5, 0x27, 0x68, 0x3e, 0x5b, 0xe8, 0x20, 0xbf, 0x04, 0x77, 0x40, 0xbf,
  0xcf, 0x7f, 0x21, 0xbf, 0x09, 0x9a, 0x46, 0x3f, 0x86, 0xbd, 0xc2, 0x3d,
  0x23, 0xf2, 0xbf, 0xbd, 0xda, 0x7c, 0xcb, 0xbe, 0x8f, 0x9c, 0x40, 0xbf,
  0x35, 0x87, 0xf7, 0x3e, 0xf4, 0x04, 0xe5, 0xbe, 0x58, 0xd4, 0x6e, 0x3f,
  0xfb, 0x01, 0xc0, 0xbb, 0x2e, 0x16, 0xb4, 0x3e, 0x88, 0x48, 0xe8, 0x3e,
  0x90, 0x45, 0xf9, 0xbe, 0x15, 0x6e, 0xc1, 0x3e, 0xfe, 0xbf, 0x5d, 0x3f,
  0xe7, 0x3d, 0x9b, 0x3d, 0x84, 0x20, 0x27, 0x3f, 0x2a, 0xbb, 0xd7, 0xbe,
  0x2a, 0xd2, 0xc4, 0x3e, 0x09, 0xeb, 0x13, 0x3f, 0x78, 0xc8, 0x9a, 0x3f,
  0x68, 0x7d, 0x16, 0x3f, 0x92, 0xcc, 0xab, 0x3e, 0x58, 0x34, 0x49, 0x3f,
  0xc4, 0x94, 0x24, 0x3f, 0x09, 0x56, 0x91, 0x3e, 0x06, 0xe2, 0x49, 0xbe,
  0xa6, 0x32, 0x4b, 0xbe, 0xbc, 0xee, 0x52, 0xbe, 0x7c, 0x52, 0x13, 0xbf,
  0x56, 0xdb, 0x2a, 0xbf, 0x2d, 0x98, 0x41, 0xbf, 0x1e, 0x63, 0x45, 0xbe,
  0x8b, 0x6f, 0xda, 0xbe, 0x68, 0x8a, 0xf9, 0xbe, 0xf8, 0x38, 0x42, 0xbf,
  0xfc, 0x9b, 0xb9, 0xbd, 0x65, 0xc0, 0x2b, 0xbf, 0x2c, 0xf6, 0x69, 0xbe,
  0x7a, 0xb3, 0x30, 0xbe, 0xb5, 0xa4, 0xd8, 0x3e, 0xee, 0x5f, 0x71, 0xbd,
  0xe5, 0xed, 0x51, 0xbf, 0xec, 0x4f, 0xa0, 0x3e, 0xae, 0xc7, 0x5b, 0x3f,
  0xed, 0x82, 0x65, 0x3e, 0x63, 0x24, 0xcb, 0xbe, 0xc8, 0x29, 0x47, 0xbf,
  0xa5, 0xc1, 0x4f, 0x3e, 0xca, 0x4a, 0x4c, 0xbf, 0x4a, 0xec, 0xff, 0xff,
  0x10, 0x00, 0x00, 0x00, 0x05, 0x00, 0x00, 0x00, 0x1c, 0x00, 0x00, 0x00,
  0x38, 0x00, 0x00, 0x00, 0x04, 0x00, 0x00, 0x00, 0x08, 0x00, 0x00, 0x00,
  0x03, 0x00, 0x00, 0x00, 0x03, 0x00, 0x00, 0x00, 0x01, 0x00, 0x00, 0x00,
  0x18, 0x00, 0x00, 0x00, 0x73, 0x65, 0x71, 0x75, 0x65, 0x6e, 0x74, 0x69,
  0x61, 0x6c, 0x2f, 0x63, 0x6f, 0x6e, 0x76, 0x32, 0x64, 0x2f, 0x43, 0x6f,
  0x6e, 0x76, 0x32, 0x44, 0x00, 0x00, 0x00, 0x00, 0x90, 0xeb, 0xff, 0xff,
  0xea, 0xec, 0xff, 0xff, 0x04, 0x00, 0x00, 0x00, 0x00, 0x12, 0x00, 0x00,
  0x36, 0x06, 0x48, 0x3e, 0xf9, 0xf3, 0x26, 0x3e, 0x47, 0xb9, 0x2b, 0xbd,
  0x4e, 0xb7, 0x33, 0x3d, 0x7c, 0xba, 0x7b, 0xbe, 0xf3, 0x28, 0xde, 0x3d,
  0x04, 0x67, 0xb6, 0x3c, 0x90, 0x8e, 0x8f, 0xbe, 0x27, 0xe0, 0x72, 0x3e,
  0x32, 0xab, 0x2e, 0xbd, 0xa0, 0xeb, 0x89, 0xbe, 0xc3, 0x0b, 0x99, 0xbc,
  0x9b, 0x89, 0x7d, 0xbe, 0x1a, 0x27, 0x9c, 0x3d, 0xdf, 0x22, 0x26, 0x3e,
  0x1b, 0x50, 0x06, 0x3e, 0xfe, 0xcd, 0x4b, 0xbe, 0xe0, 0x69, 0xa0, 0x3d,
  0x5b, 0x79, 0x6f, 0x3e, 0xbe, 0x9a, 0x88, 0xbe, 0x27, 0x1b, 0x8b, 0x3e,
  0x05, 0xb9, 0x2c, 0x3e, 0x8a, 0x1e, 0x71, 0xbe, 0x86, 0x6b, 0x3c, 0xbe,
  0xe2, 0x02, 0x53, 0xbe, 0xf7, 0x91, 0x13, 0x3e, 0x3c, 0xd4, 0xb8, 0x3d,
  0xe0, 0x6a, 0x72, 0xba, 0x77, 0xcb, 0x49, 0xbe, 0x81, 0xa3, 0x78, 0x3d,
  0x84, 0x4e, 0x03, 0x3d, 0x80, 0xab, 0x59, 0x3d, 0x88, 0x2d, 0x63, 0x3e,
  0x98, 0x50, 0x27, 0x3d, 0x5f, 0x48, 0x38, 0xbe, 0x3a, 0x26, 0xa6, 0xbd,
  0x99, 0x34, 0x7d, 0x3d, 0x5b, 0xe6, 0x23, 0xbe, 0x40, 0x26, 0xda, 0xbd,
  0xd6, 0x89, 0x8c, 0xbe, 0x55, 0x88, 0x35, 0x3e, 0xca, 0xe7, 0x6d, 0x3e,
  0x59, 0x25, 0x8c, 0xbe, 0x8c, 0x96, 0x9a, 0xbe, 0x73, 0x73, 0x4d, 0xbe,
  0x86, 0x10, 0x78, 0x3c, 0xec, 0x5e, 0x5f, 0x3d, 0x9e, 0x7b, 0x43, 0x3e,
  0xd3, 0xd0, 0x73, 0x3d, 0x24, 0x9c, 0x65, 0xbe, 0x77, 0xbf, 0xe0, 0xbc,
  0xf3, 0x0f, 0x95, 0xbe, 0x7d, 0x4c, 0x1d, 0xbe, 0x8f, 0x79, 0xca, 0x3d,
  0x15, 0x14, 0xf3, 0x3d, 0xc9, 0xa2, 0xfc, 0x3c, 0x19, 0x0b, 0x7f, 0xbc,
  0x14, 0x40, 0x5c, 0xbd, 0xf1, 0xad, 0x05, 0xbd, 0xa3, 0xda, 0x83, 0xbc,
  0x80, 0x5a, 0x21, 0x3e, 0xcd, 0x09, 0xae, 0xbd, 0x97, 0x42, 0x9f, 0xbd,
  0x32, 0x19, 0x45, 0x3e, 0xb7, 0x47, 0x08, 0x3e, 0xd9, 0x1c, 0x98, 0xbe,
  0x91, 0x8a, 0x6a, 0x3c, 0x8e, 0xb3, 0x3c, 0x3e, 0x5d, 0xc8, 0xf6, 0xbc,
  0xdc, 0x3a, 0x1c, 0x3e, 0xaa, 0x6d, 0x34, 0xbd, 0x9e, 0x7e, 0x47, 0xbe,
  0xe8, 0x52, 0x88, 0x3e, 0xc2, 0x0a, 0xcc, 0xbc, 0xc1, 0x69, 0x67, 0x3e,
  0x25, 0x6b, 0x65, 0xbe, 0x15, 0xe4, 0x1e, 0xbe, 0x9d, 0x0d, 0xd0, 0xbd,
  0x24, 0x42, 0x13, 0xbe, 0x0a, 0xf9, 0x5f, 0x3c, 0x8e, 0x48, 0x9c, 0x3e,
  0x7e, 0x8b, 0x1f, 0x3e, 0xbe, 0xa9, 0xd2, 0xbb, 0x8e, 0x56, 0x3c, 0xbd,
  0x32, 0x24, 0x34, 0xbe, 0x38, 0x09, 0x84, 0x3e, 0x5f, 0xd3, 0x84, 0x3d,
  0x46, 0x82, 0x4e, 0x3e, 0x6b, 0xde, 0x86, 0xbe, 0x87, 0x1f, 0xbe, 0xbd,
  0xbc, 0xcc, 0x06, 0xba, 0xe4, 0x83, 0x50, 0x3d, 0xa2, 0xf3, 0xf9, 0x3d,
  0x1b, 0x2b, 0xa0, 0xbc, 0x40, 0x60, 0x8c, 0xbe, 0x7a, 0xb6, 0x8e, 0x3e,
  0xca, 0x11, 0xeb, 0xbb, 0x11, 0x53, 0x5d, 0xbe, 0x48, 0x3f, 0x1c, 0xbe,
  0x4b, 0xf2, 0x21, 0xbe, 0xb1, 0xb4, 0xfe, 0x3c, 0x8f, 0x74, 0x82, 0x3d,
  0xf8, 0x6f, 0x50, 0x3d, 0xca, 0xe5, 0x23, 0x3e, 0x83, 0x58, 0x2c, 0xbe,
  0x14, 0xcd, 0x87, 0x3e, 0x3d, 0xfb, 0x8b, 0xbd, 0xfe, 0xcb, 0xaa, 0xbd,
  0x5b, 0x1c, 0xf4, 0x3d, 0xab, 0x75, 0x5f, 0x3e, 0x87, 0xd5, 0x48, 0x3e,
  0x19, 0xc3, 0x8d, 0xbe, 0x0e, 0x5f, 0x41, 0xbd, 0x96, 0x30, 0x8b, 0x3e,
  0xce, 0x78, 0x93, 0x3d, 0x66, 0xf5, 0x66, 0x3e, 0x18, 0xfd, 0x94, 0x3e,
  0x86, 0x62, 0x59, 0xbc, 0xfd, 0xde, 0xc3, 0xbd, 0xc1, 0xbe, 0xd2, 0xbc,
  0x31, 0x33, 0x17, 0x3d, 0x43, 0x16, 0x2f, 0xbe, 0x12, 0xf0, 0x65, 0x3d,
  0xa2, 0x7f, 0x2b, 0x3d, 0xc7, 0x80, 0x78, 0x3a, 0x04, 0xe6, 0x84, 0x3e,
  0x9e, 0xd5, 0x8c, 0x3e, 0x1a, 0x24, 0x42, 0xbd, 0x96, 0x1a, 0x72, 0x3e,
  0xbf, 0xee, 0x02, 0x3d, 0x74, 0x39, 0x87, 0x3e, 0xfe, 0xc8, 0xcb, 0x3c,
  0xe8, 0x72, 0xee, 0x3d, 0x21, 0x34, 0xd2, 0xbd, 0x0c, 0x89, 0x44, 0x3e,
  0x88, 0x6a, 0x95, 0xbe, 0x12, 0xaa, 0x01, 0x3e, 0xd4, 0x4f, 0x5f, 0xbd,
  0x0a, 0x45, 0xb8, 0xbd, 0xbb, 0xf9, 0x52, 0xbe, 0x47, 0xaa, 0x3a, 0x3d,
  0xaf, 0x24, 0x5f, 0xbe, 0xe5, 0x64, 0x79, 0xbe, 0xf4, 0x2c, 0xd3, 0xbd,
  0x45, 0xbf, 0x6d, 0xbe, 0x82, 0xf2, 0x03, 0xbe, 0x8f, 0x3b, 0x41, 0x3e,
  0x68, 0xa4, 0x75, 0x3d, 0x8f, 0x7e, 0xec, 0xbb, 0x18, 0xe5, 0xd5, 0x3c,
  0x48, 0x78, 0x30, 0xbd, 0x76, 0xcd, 0x45, 0x3e, 0x5b, 0x3d, 0x04, 0xbe,
  0x6b, 0x18, 0xe4, 0x3d, 0xd2, 0x7a, 0x78, 0x3e, 0x38, 0x9f, 0x5a, 0x3e,
  0x33, 0xad, 0x03, 0xbe, 0x04, 0xa5, 0x24, 0xbe, 0x6f, 0x28, 0xea, 0xbc,
  0x6a, 0x41, 0x8e, 0x3e, 0x66, 0xc3, 0x4a, 0xbe, 0x11, 0xe0, 0x43, 0x3e,
  0xee, 0x82, 0x8a, 0x3e, 0x70, 0x8c, 0x8e, 0x3e, 0xc4, 0xca, 0x27, 0x3e,
  0x0c, 0x45, 0x03, 0xbe, 0x18, 0xf7, 0x5b, 0xbe, 0x22, 0x84, 0x2d, 0x3e,
  0x01, 0x11, 0x72, 0x3e, 0xd9, 0x45, 0x31, 0xbe, 0x8d, 0x5b, 0xe0, 0x3d,
  0x20, 0xd9, 0x5a, 0x3e, 0xd7, 0xa8, 0x14, 0xbe, 0x54, 0xa4, 0x59, 0xbd,
  0xc0, 0x20, 0x68, 0x3d, 0xff, 0x68, 0x4f, 0xbd, 0x62, 0xfd, 0xa9, 0x3e,
  0x5f, 0xbd, 0x13, 0x3e, 0x6d, 0xcf, 0xd1, 0xbd, 0xb2, 0x4d, 0x04, 0xbe,
  0x16, 0x29, 0x30, 0xbe, 0xbf, 0xfb, 0x3f, 0xbe, 0x27, 0x58, 0x82, 0x3e,
  0x28, 0xab, 0x7f, 0xbe, 0x18, 0xc6, 0x5d, 0x3e, 0xe3, 0x75, 0x3d, 0x3b,
  0x33, 0xc8, 0x0a, 0x3e, 0xb2, 0xf0, 0xff, 0xbd, 0xd5, 0x4b, 0x9d, 0x3e,
  0xab, 0x84, 0xaf, 0xbd, 0xad, 0xb9, 0x32, 0x3e, 0x5b, 0xdc, 0x98, 0xbe,
  0x43, 0x79, 0xd1, 0x3e, 0xbe, 0xc1, 0x32, 0x3d, 0xd2, 0x0d, 0xad, 0xbd,
  0x0d, 0x5c, 0x86, 0x3d, 0x40, 0x2f, 0xc2, 0xbd, 0x27, 0x6d, 0xb5, 0xbc,
  0x6a, 0x21, 0xa2, 0x3d, 0xf6, 0x27, 0x7b, 0x3e, 0x07, 0xb2, 0x06, 0x3f,
  0x6e, 0xc2, 0x6f, 0xbd, 0xc4, 0x00, 0x6e, 0x3c, 0x12, 0x3f, 0x7b, 0x3c,
  0x39, 0x2d, 0xcc, 0x3e, 0x37, 0x1b, 0x92, 0xbe, 0x67, 0xd2, 0xa1, 0xbb,
  0x03, 0x62, 0x74, 0x3e, 0x38, 0xd7, 0x75, 0xbe, 0xbe, 0x28, 0x1a, 0x3e,
  0x61, 0x82, 0x4b, 0x3e, 0x6d, 0xb2, 0xb8, 0x3e, 0xc2, 0x8b, 0xcd, 0x3e,
  0x46, 0xc4, 0x31, 0xbe, 0xf2, 0x33, 0x80, 0xbe, 0x90, 0x97, 0x0f, 0xbd,
  0x41, 0xa4, 0x95, 0x3e, 0x13, 0x23, 0x73, 0x3e, 0x0c, 0xf5, 0x88, 0xbd,
  0xc9, 0xf4, 0xe6, 0xbd, 0x5a, 0x34, 0x73, 0x3e, 0xb3, 0xa3, 0x6a, 0x3d,
  0xe0, 0x8a, 0x97, 0x3e, 0x79, 0xe3, 0x35, 0xbe, 0x13, 0x94, 0x87, 0xbe,
  0x91, 0xa9, 0x24, 0xbd, 0x14, 0x25, 0x8f, 0x3e, 0x93, 0xa8, 0xef, 0xbd,
  0x19, 0x76, 0x4c, 0x3d, 0x62, 0x6d, 0x3c, 0xbe, 0xd3, 0x00, 0xcd, 0x3d,
  0x21, 0x54, 0x80, 0xbd, 0xe0, 0xad, 0x16, 0x3e, 0x50, 0x81, 0x6c, 0x3e,
  0xbf, 0x24, 0x73, 0x3e, 0xe7, 0x32, 0xf1, 0x3c, 0x51, 0x14, 0x6a, 0x3e,
  0x30, 0xd3, 0xc7, 0x3e, 0xa0, 0xd5, 0x9c, 0xbc, 0x47, 0x52, 0x1a, 0xbd,
  0xac, 0xb7, 0x40, 0x3e, 0xe9, 0x51, 0x77, 0x3e, 0xcb, 0x5f, 0xf4, 0xbd,
  0x8b, 0x8c, 0x08, 0xbe, 0x0a, 0xd4, 0xc4, 0x3d, 0x56, 0x12, 0x3f, 0xbe,
  0xff, 0x6e, 0x0a, 0x3d, 0x62, 0x1b, 0x8e, 0xbe, 0xc0, 0x80, 0xfb, 0x3d,
  0x3a, 0xf2, 0x78, 0xbe, 0x2b, 0xe5, 0x33, 0xbe, 0xcb, 0x88, 0x2d, 0x3e,
  0x60, 0x8e, 0x7d, 0xbe, 0x0b, 0x1b, 0x75, 0xbd, 0x9a, 0x43, 0xdd, 0xbd,
  0x3b, 0x36, 0x92, 0xbe, 0x7e, 0xb9, 0xa6, 0xbd, 0xad, 0x8e, 0x90, 0x3e,
  0x02, 0xde, 0x61, 0xbe, 0x92, 0x1b, 0x81, 0xbd, 0xc3, 0x93, 0x84, 0xbe,
  0xf3, 0xc7, 0x9d, 0xbd, 0x82, 0x9a, 0x79, 0x3e, 0x09, 0x62, 0xf5, 0xbd,
  0x0b, 0x1b, 0x08, 0x3e, 0x8f, 0x42, 0x7d, 0x3e, 0x5f, 0x64, 0x83, 0x3e,
  0xed, 0x20, 0xc1, 0x3d, 0x79, 0xfb, 0xd9, 0xbd, 0xa9, 0xbd, 0x68, 0x3e,
  0xb9, 0xc2, 0xae, 0x3d, 0x58, 0xa2, 0x2e, 0xbe, 0x6f, 0x18, 0xce, 0x3d,
  0xf0, 0x47, 0x00, 0x3d, 0xa9, 0x0c, 0x59, 0x3e, 0x27, 0xe7, 0xd0, 0x3d,
  0x56, 0x75, 0x3d, 0x3e, 0x5f, 0xd0, 0x94, 0x3d, 0xa9, 0x05, 0x2c, 0xbe,
  0x80, 0x7e, 0x35, 0xbe, 0xcb, 0xf6, 0x67, 0xbe, 0x68, 0xd7, 0xea, 0xbd,
  0xfb, 0x7a, 0x54, 0x3d, 0xa1, 0xe3, 0x48, 0xbd, 0xc6, 0x81, 0x8f, 0xbe,
  0x88, 0x24, 0x83, 0x3e, 0x3d, 0xc3, 0x62, 0x3e, 0xaf, 0xed, 0x1e, 0xbe,
  0x73, 0x12, 0x0e, 0xbe, 0x42, 0xac, 0x82, 0xbe, 0xcd, 0x52, 0x65, 0xbd,
  0xa6, 0x30, 0x38, 0xbe, 0x51, 0xcf, 0xfc, 0x3b, 0x92, 0x5d, 0x15, 0xbe,
  0xbc, 0x1a, 0x46, 0xbe, 0x42, 0xe0, 0x14, 0xbd, 0x1e, 0x84, 0xe0, 0x3c,
  0x5f, 0x40, 0xb9, 0x3d, 0x1c, 0x1f, 0x31, 0x3e, 0x89, 0x7c, 0x61, 0x3d,
  0x9c, 0xbf, 0xac, 0xbe, 0xad, 0x29, 0x1f, 0xbe, 0x2d, 0x70, 0x69, 0xbe,
  0xc5, 0x31, 0xa8, 0xbd, 0x03, 0x04, 0x84, 0x3e, 0xe4, 0xed, 0x76, 0x3e,
  0xf1, 0xe8, 0x88, 0x3e, 0x39, 0x4a, 0x6f, 0x3e, 0x82, 0x1e, 0xf5, 0x3c,
  0xf0, 0x96, 0x94, 0x3d, 0x15, 0x99, 0x3f, 0x3e, 0x7c, 0xeb, 0xa6, 0x3d,
  0x04, 0x1f, 0xa3, 0xbe, 0x42, 0x4e, 0x86, 0x3d, 0x1b, 0x23, 0x65, 0xbe,
  0x33, 0xf5, 0x85, 0xbe, 0x8d, 0x36, 0x4c, 0xbe, 0xe5, 0x72, 0x30, 0x3e,
  0x68, 0x81, 0x5a, 0xbe, 0x68, 0x9f, 0x84, 0xbe, 0xae, 0x05, 0x85, 0xbe,
  0x64, 0x60, 0x26, 0xbe, 0xb5, 0xf8, 0x99, 0x3d, 0x75, 0xb6, 0xa3, 0x3d,
  0xa9, 0xd9, 0x6a, 0xbe, 0x4e, 0x63, 0x78, 0xbd, 0x86, 0x24, 0x82, 0xbe,
  0xbd, 0xe4, 0x51, 0xbe, 0x70, 0xad, 0xe3, 0x3d, 0x32, 0x2c, 0x64, 0xbc,
  0x55, 0x6c, 0x38, 0x3e, 0x3f, 0xf6, 0xaa, 0xba, 0xbb, 0x74, 0x61, 0x3e,
  0x48, 0x4c, 0x89, 0x3e, 0x08, 0xbb, 0x8a, 0x3c, 0xf2, 0xb9, 0xa2, 0x3d,
  0x24, 0x5e, 0xae, 0x3e, 0xc5, 0xc5, 0x97, 0x3e, 0x72, 0xa4, 0xf0, 0xbd,
  0x4c, 0x5c, 0x96, 0x3e, 0x6e, 0xea, 0x4d, 0xbe, 0x2e, 0x0a, 0x9f, 0xbd,
  0x50, 0x8b, 0x76, 0x3e, 0x5e, 0xb1, 0x2b, 0xbe, 0x2e, 0x55, 0x14, 0xbe,
  0x3e, 0xdd, 0x83, 0x3e, 0x03, 0x0d, 0x33, 0x3e, 0x5a, 0xf1, 0x6d, 0x3e,
  0x90, 0x8e, 0x97, 0x3e, 0x33, 0x4d, 0x58, 0xbe, 0xaf, 0xe4, 0x85, 0xbe,
  0x9d, 0x1d, 0xba, 0x3d, 0x8b, 0x34, 0x9f, 0x3d, 0x91, 0x88, 0x97, 0xbc,
  0xe2, 0x27, 0x68, 0xbc, 0xb7, 0xf9, 0xa9, 0xbc, 0x89, 0x64, 0x8d, 0x3d,
  0x2b, 0xae, 0x53, 0xbe, 0x59, 0xfc, 0xf9, 0x3d, 0x20, 0x1e, 0xc3, 0xbd,
  0x13, 0x02, 0x48, 0x3e, 0xd1, 0xde, 0xff, 0x3d, 0x0c, 0x5e, 0x2b, 0x3e,
  0x4e, 0x0f, 0x92, 0xbe, 0x09, 0xa6, 0x7e, 0xbd, 0xa8, 0xcf, 0xa8, 0x3c,
  0xb9, 0x0a, 0xda, 0xbd, 0x2e, 0x51, 0xa0, 0xbd, 0xa4, 0x1c, 0xc2, 0xbd,
  0x9f, 0x6b, 0x87, 0xbe, 0x74, 0xa1, 0xde, 0x3d, 0x3c, 0x3e, 0x49, 0x3e,
  0x78, 0x26, 0xdb, 0xbd, 0x6e, 0x05, 0x87, 0x3e, 0x61, 0x73, 0xef, 0xbd,
  0x29, 0x00, 0x2e, 0xbe, 0x3c, 0x14, 0xb5, 0x3c, 0xb9, 0x96, 0x40, 0xbe,
  0x11, 0x58, 0x44, 0xbe, 0xe8, 0x34, 0x46, 0xbe, 0xbc, 0xf4, 0x90, 0xbd,
  0x1b, 0xfa, 0x66, 0xbe, 0x60, 0xff, 0xfb, 0x3d, 0x12, 0xee, 0x94, 0xbc,
  0xee, 0xd0, 0xa1, 0xbd, 0x51, 0x95, 0xbb, 0x3e, 0xd8, 0x5b, 0x16, 0x3e,
  0xba, 0xdb, 0xc6, 0xbd, 0x03, 0xdc, 0xaf, 0x3e, 0xf9, 0x0f, 0x2a, 0x3e,
  0xac, 0xae, 0xbd, 0x3d, 0xbd, 0xf1, 0x58, 0x3e, 0xe3, 0xd5, 0x76, 0x3d,
  0xf9, 0xa3, 0x0c, 0x3e, 0xd5, 0xee, 0x8a, 0x3c, 0x1e, 0x1a, 0xa9, 0x3e,
  0xbc, 0xe5, 0x9a, 0x3e, 0x24, 0xee, 0x91, 0xbd, 0x42, 0x8b, 0xfb, 0x3d,
  0x9b, 0x49, 0x8a, 0x3d, 0x51, 0xe3, 0x63, 0x3e, 0x13, 0x72, 0x82, 0x3e,
  0xc5, 0x10, 0x72, 0xbe, 0xf6, 0xa1, 0x43, 0x3d, 0x8f, 0x17, 0x9a, 0xbe,
  0xa8, 0x6e, 0x04, 0x3e, 0x72, 0x93, 0x8f, 0x3e, 0x8f, 0x51, 0x23, 0xbe,
  0x56, 0x08, 0x9c, 0x3e, 0xf0, 0xe9, 0xa0, 0x3d, 0x23, 0x33, 0x11, 0x3e,
  0x89, 0x94, 0xf1, 0x3d, 0x03, 0xf1, 0x30, 0x3d, 0x53, 0xda, 0xb3, 0x3e,
  0xac, 0xe3, 0x83, 0xbe, 0x26, 0xf3, 0x86, 0x3e, 0x5f, 0x84, 0xa5, 0xbc,
  0x25, 0x8f, 0x15, 0x3e, 0x19, 0xf4, 0x1f, 0xbe, 0x34, 0x1b, 0x79, 0xbd,
  0x28, 0x4e, 0x8d, 0x3e, 0x3b, 0xdc, 0x8a, 0xbe, 0x81, 0xef, 0x50, 0xbe,
  0x46, 0x9d, 0x79, 0xbe, 0x20, 0x2b, 0xc5, 0xbd, 0x30, 0xb2, 0xc9, 0x3e,
  0xfe, 0xe9, 0x50, 0xbe, 0xdd, 0x4f, 0xd8, 0x3d, 0xd5, 0x2c, 0x4f, 0x3e,
  0x9a, 0xd4, 0x6f, 0xbe, 0x9d, 0xc5, 0xa7, 0xbc, 0xe5, 0x5e, 0xcf, 0x3d,
  0xd3, 0x22, 0x24, 0x3e, 0x9c, 0x5b, 0x4e, 0xbe, 0x15, 0x83, 0xb1, 0xbd,
  0x1f, 0x53, 0x46, 0xbe, 0x2f, 0x53, 0x1e, 0xbe, 0x42, 0xec, 0x43, 0xbc,
  0xd5, 0x1d, 0x21, 0x3d, 0x05, 0xd8, 0x2a, 0x3e, 0x73, 0xca, 0x0c, 0x3e,
  0xde, 0x3d, 0x71, 0x3d, 0x79, 0xa8, 0x87, 0xbc, 0x29, 0x3a, 0x00, 0xbd,
  0x84, 0xd4, 0x1b, 0xbe, 0x7f, 0xf0, 0x51, 0x3e, 0x64, 0x46, 0x83, 0x3e,
  0x8b, 0x46, 0x39, 0x3e, 0x05, 0xdc, 0x48, 0xbe, 0xb3, 0xa3, 0x89, 0xbe,
  0x8e, 0xd7, 0x2a, 0x3e, 0x59, 0xe4, 0xb0, 0xbd, 0x26, 0xb8, 0x6f, 0xbc,
  0x84, 0x07, 0x1b, 0xbd, 0x6c, 0x2e, 0x71, 0xbe, 0x12, 0x87, 0x10, 0x3e,
  0x85, 0x49, 0x86, 0xbe, 0x47, 0xc8, 0x2a, 0x3e, 0x10, 0xd2, 0x29, 0x3e,
  0xfd, 0x8f, 0x04, 0xbe, 0x53, 0x65, 0x43, 0xbe, 0xe5, 0xa2, 0x96, 0x3c,
  0xca, 0xa4, 0x94, 0x3d, 0x03, 0x25, 0x37, 0xbe, 0xb8, 0x38, 0x09, 0xbe,
  0xc2, 0xdb, 0x78, 0x3d, 0x13, 0x98, 0x34, 0xbe, 0x0b, 0x2f, 0x1a, 0x3e,
  0x8e, 0xae, 0x98, 0x3d, 0x43, 0x90, 0xd0, 0xbd, 0xe4, 0xa4, 0x6f, 0xbe,
  0xac, 0x90, 0x35, 0x3e, 0xa6, 0x16, 0x21, 0xbd, 0xa5, 0x0d, 0x52, 0xbe,
  0x5d, 0x02, 0x3f, 0x3e, 0x29, 0xd4, 0xdf, 0xbd, 0x4c, 0x15, 0x86, 0xbe,
  0x9d, 0x4a, 0x5c, 0x3e, 0x97, 0x0d, 0x5e, 0xbe, 0x1f, 0x80, 0x9c, 0x3d,
  0xec, 0x0e, 0x23, 0xbe, 0xdc, 0x8e, 0x22, 0x3e, 0xa5, 0xb2, 0x1b, 0xbe,
  0x1e, 0x8f, 0x31, 0xbd, 0x33, 0x24, 0xa9, 0x3d, 0x72, 0xb9, 0x52, 0x3e,
  0x13, 0xd6, 0x66, 0x3e, 0x90, 0x87, 0x23, 0x3d, 0x1d, 0x92, 0x64, 0xbb,
  0xcf, 0x30, 0x12, 0x3e, 0x81, 0x49, 0x6c, 0xbe, 0x6c, 0x34, 0x5e, 0x3d,
  0xf0, 0x2b, 0x1e, 0xbd, 0xbf, 0x0d, 0x40, 0x3e, 0xf7, 0x66, 0x81, 0xbe,
  0x84, 0x65, 0x2a, 0xbe, 0x6e, 0xee, 0x9e, 0x3d, 0x0e, 0xe7, 0x90, 0xbe,
  0xb1, 0xc8, 0xda, 0x3d, 0x74, 0x27, 0x89, 0xbe, 0xec, 0xc8, 0xc7, 0x3d,
  0x3f, 0x23, 0x4c, 0xbd, 0x77, 0xb9, 0x0c, 0x3e, 0x3d, 0xc2, 0xce, 0x3c,
  0xfd, 0x74, 0xc0, 0x3d, 0x11, 0x3e, 0x12, 0x3e, 0xf6, 0x7e, 0xb6, 0x3d,
  0x4f, 0xc1, 0x1c, 0x3e, 0x10, 0xb4, 0x6e, 0xbe, 0x13, 0x86, 0x84, 0xbe,
  0xfc, 0xd6, 0x5f, 0xbe, 0xcb, 0x63, 0xa9, 0x3d, 0xf5, 0x2d, 0xd3, 0x3d,
  0xf8, 0xf7, 0x45, 0xbd, 0xa6, 0x7d, 0x66, 0x3e, 0x4c, 0x6b, 0x67, 0x3e,
  0x1b, 0x37, 0x8a, 0x3e, 0x6b, 0xaa, 0x28, 0xbe, 0x4a, 0x31, 0x06, 0x3d,
  0x71, 0x20, 0x8b, 0x3e, 0x06, 0xc0, 0x20, 0xbe, 0xad, 0x4e, 0x74, 0xbe,
  0xb2, 0x7a, 0xa0, 0xbd, 0xc5, 0xd3, 0x60, 0x3e, 0x4c, 0x57, 0x99, 0x3d,
  0x5d, 0x08, 0x25, 0x3e, 0xfb, 0x5f, 0x91, 0x3e, 0x25, 0x39, 0x37, 0x3e,
  0x27, 0xb9, 0x96, 0xbe, 0xcf, 0x50, 0x62, 0x3e, 0x89, 0x5b, 0xa3, 0xbd,
  0xea, 0x13, 0x0e, 0x3e, 0x03, 0xf0, 0x8b, 0xbe, 0x80, 0x07, 0x6c, 0xbe,
  0x52, 0x00, 0x87, 0x3e, 0xa4, 0xc6, 0xfe, 0x3c, 0x9d, 0xf5, 0x22, 0xbe,
  0x90, 0x58, 0xa2, 0xbd, 0xd4, 0xdf, 0x17, 0xbe, 0x4a, 0x25, 0xc7, 0xbd,
  0x41, 0x49, 0x73, 0xbe, 0xdc, 0xdc, 0x69, 0x3e, 0x16, 0xe5, 0x84, 0xbe,
  0x25, 0x4b, 0x74, 0xbe, 0x71, 0xa7, 0x60, 0x3a, 0xc8, 0x28, 0x22, 0xbd,
  0x6e, 0x6d, 0x8f, 0x3d, 0xab, 0xc0, 0x95, 0xbd, 0x5b, 0xb8, 0x5d, 0xbd,
  0xed, 0x94, 0x50, 0xbd, 0x49, 0xb0, 0x94, 0xbc, 0x5a, 0x25, 0xcf, 0xbb,
  0x2e, 0x44, 0x70, 0xbe, 0xfe, 0xd9, 0x8d, 0xbe, 0x3c, 0xee, 0x89, 0x3d,
  0x28, 0x99, 0x5c, 0x3e, 0x11, 0x1b, 0xdd, 0xbd, 0x42, 0x3d, 0xb5, 0xbd,
  0x7e, 0x0b, 0xab, 0xbc, 0x55, 0x0c, 0xf3, 0xbd, 0x13, 0x0f, 0x19, 0x3e,
  0x7c, 0x3a, 0xfe, 0xbd, 0x3b, 0x86, 0x4f, 0xbd, 0xcc, 0x8b, 0x74, 0xbe,
  0x68, 0xcf, 0x7a, 0xbe, 0xa2, 0xe8, 0x0c, 0xbe, 0x78, 0x0b, 0x74, 0x3e,
  0x1a, 0xa7, 0xfb, 0x3b, 0x38, 0x72, 0x30, 0x3d, 0x5a, 0x76, 0xa0, 0x3e,
  0x99, 0x70, 0x87, 0x3e, 0xdd, 0xe3, 0x0b, 0xbe, 0x88, 0xc6, 0xc8, 0xbd,
  0x67, 0x5d, 0x6f, 0xbe, 0x63, 0xeb, 0x24, 0xbc, 0xd4, 0x48, 0xd5, 0xbb,
  0xc9, 0xa1, 0x1d, 0x3e, 0xee, 0x0c, 0x6b, 0xbe, 0x4a, 0x9c, 0x1c, 0xbe,
  0x20, 0xd4, 0x1f, 0xbe, 0x21, 0xc7, 0x03, 0x3d, 0xa6, 0x04, 0x0d, 0x3e,
  0x88, 0x80, 0x7e, 0xbe, 0x84, 0x3a, 0x38, 0xbe, 0x65, 0x6b, 0x65, 0xbe,
  0x4e, 0x2a, 0x5f, 0xbe, 0x38, 0xdc, 0xba, 0xbd, 0x7b, 0x5e, 0x86, 0xbe,
  0xb9, 0xf4, 0x44, 0xbe, 0x57, 0x4a, 0x68, 0xbe, 0x81, 0xb4, 0x8d, 0x3e,
  0x1b, 0x30, 0x6d, 0xbe, 0x28, 0xa0, 0xeb, 0x3c, 0x04, 0xb2, 0xb7, 0xbc,
  0x6e, 0xc1, 0xb1, 0xbd, 0xbe, 0x8a, 0x4c, 0xbe, 0xbe, 0x5a, 0x24, 0x3e,
  0xf0, 0x74, 0x25, 0x3e, 0x4e, 0x50, 0xe0, 0xbd, 0x49, 0x55, 0x13, 0x3e,
  0x25, 0xa8, 0x8b, 0xbe, 0xc3, 0x4b, 0x91, 0xbe, 0xaa, 0xd8, 0xb2, 0x3d,
  0xe9, 0xd6, 0xd2, 0xbd, 0xfb, 0x36, 0xd9, 0xbd, 0x70, 0xa8, 0x40, 0x3d,
  0x9e, 0x5d, 0x7e, 0x3d, 0xb5, 0x40, 0x8b, 0x3e, 0x5a, 0x0a, 0xfa, 0x3d,
  0xd7, 0xd0, 0x2a, 0x3e, 0x6c, 0x3f, 0x93, 0xbe, 0x24, 0x88, 0xaf, 0x3d,
  0x9b, 0xf7, 0x6c, 0x3e, 0xab, 0x7d, 0x76, 0xbe, 0x9a, 0x4e, 0x86, 0xbe,
  0x64, 0x48, 0x07, 0xbe, 0x49, 0x52, 0x2d, 0xbe, 0xda, 0xa9, 0x73, 0x3d,
  0xc4, 0x77, 0x7e, 0xbd, 0x77, 0x23, 0x68, 0xbe, 0x6f, 0x6e, 0x8a, 0x3e,
  0x87, 0x6a, 0xdf, 0x3c, 0x75, 0x1c, 0x69, 0x3e, 0xe5, 0x73, 0xf5, 0xbd,
  0xd5, 0xec, 0x9b, 0xbc, 0x29, 0x35, 0x6e, 0xbe, 0x0c, 0x36, 0x70, 0xbe,
  0xaa, 0x6f, 0xe5, 0xbd, 0x47, 0x9d, 0xa5, 0x3e, 0x07, 0x31, 0x4f, 0xbe,
  0x49, 0xa6, 0x83, 0x3e, 0x8a, 0x94, 0x7d, 0xbd, 0x71, 0x48, 0x80, 0x3d,
  0x55, 0xdf, 0x8d, 0xbe, 0xa3, 0x40, 0x58, 0xbd, 0x35, 0xd8, 0x9b, 0x3d,
  0x37, 0xf5, 0x4b, 0xbe, 0xd2, 0x65, 0x64, 0xbe, 0x12, 0x35, 0x56, 0x3e,
  0x99, 0x4f, 0x81, 0xbd, 0x93, 0x58, 0x3b, 0xbe, 0x6b, 0x89, 0x3a, 0xbe,
  0x48, 0x06, 0x5e, 0xbe, 0x9b, 0xbf, 0x11, 0x3e, 0xfb, 0x8f, 0x84, 0xbe,
  0xf8, 0x8b, 0xcc, 0xbd, 0x95, 0x7a, 0x80, 0x3d, 0x60, 0x0a, 0x30, 0xbe,
  0x85, 0x95, 0x0c, 0xbd, 0x25, 0x2a, 0xa3, 0x3d, 0x69, 0xd4, 0x2f, 0x3e,
  0xeb, 0x37, 0x74, 0xbe, 0xb2, 0x42, 0x36, 0xbd, 0x5c, 0x23, 0x13, 0xbe,
  0xb0, 0xb5, 0x89, 0x3e, 0x4b, 0x60, 0x3f, 0xbe, 0x7e, 0x2a, 0x92, 0xbd,
  0xff, 0xf0, 0x1b, 0xbd, 0x25, 0x97, 0x78, 0xbe, 0x93, 0x4f, 0xa8, 0x3d,
  0x9a, 0xd1, 0x28, 0x3e, 0x15, 0x82, 0x2d, 0x3d, 0x20, 0x01, 0x2e, 0xbe,
  0xc5, 0x45, 0x4b, 0x3c, 0x1a, 0xdd, 0x1c, 0xbe, 0xae, 0x45, 0x70, 0xbe,
  0x4b, 0x73, 0x82, 0x3e, 0x83, 0xe3, 0x5b, 0xbe, 0x32, 0x56, 0x8f, 0x3e,
  0x3d, 0xd4, 0x9f, 0x3d, 0x02, 0x2e, 0xa9, 0x3d, 0xbb, 0xde, 0x84, 0xbe,
  0x31, 0xb5, 0x62, 0xbe, 0x82, 0x45, 0x86, 0xbe, 0x71, 0xd8, 0x8b, 0xbe,
  0x2a, 0xb6, 0xd6, 0xbd, 0xb7, 0x55, 0x7c, 0x3e, 0xe5, 0xc9, 0x86, 0xbe,
  0x04, 0x2a, 0x59, 0x3e, 0xcb, 0x19, 0x3b, 0x3e, 0x48, 0xa6, 0xfe, 0x3d,
  0x61, 0x4c, 0x89, 0xbe, 0x7a, 0x87, 0xdd, 0xbc, 0x7a, 0x25, 0x63, 0x3e,
  0x72, 0xde, 0x54, 0x3e, 0x4a, 0xf2, 0xbb, 0xbd, 0x52, 0x34, 0x04, 0x3e,
  0x8b, 0x1b, 0x59, 0x3e, 0x1d, 0xd3, 0x91, 0x3e, 0x36, 0x6c, 0x57, 0xbe,
  0x48, 0x53, 0xd0, 0x3b, 0x05, 0x90, 0x7d, 0xbe, 0x94, 0x2f, 0x70, 0x3e,
  0x63, 0x60, 0x2d, 0xbd, 0xb1, 0x78, 0xfc, 0x3d, 0x90, 0xe6, 0x7f, 0xbe,
  0x2d, 0x31, 0x17, 0x3e, 0xf9, 0xa7, 0xcf, 0xbb, 0x96, 0xfb, 0xce, 0x3c,
  0xe3, 0xf9, 0x8e, 0x3e, 0x77, 0x63, 0x01, 0xbe, 0xf4, 0x0e, 0x61, 0xbe,
  0xcb, 0x80, 0x77, 0xbd, 0x81, 0x84, 0x3e, 0x3e, 0x8a, 0x32, 0x53, 0xbe,
  0x6d, 0x85, 0x6e, 0xbd, 0x19, 0x2b, 0x48, 0x3e, 0x56, 0x16, 0x43, 0x3e,
  0xb1, 0xb5, 0x1d, 0xbc, 0x2b, 0x74, 0x26, 0xbc, 0x70, 0xb1, 0x6e, 0xbe,
  0xfb, 0x71, 0x72, 0x3e, 0xdc, 0xf9, 0x46, 0x3e, 0xa1, 0xf4, 0x40, 0x3e,
  0x86, 0xc6, 0x72, 0x3c, 0xd5, 0x7d, 0x52, 0xbe, 0x32, 0x4e, 0xef, 0x3d,
  0x91, 0xb7, 0x7f, 0xbe, 0x6b, 0x74, 0x46, 0xbe, 0xf1, 0x26, 0x04, 0xbe,
  0xf1, 0xdb, 0x82, 0xbe, 0x86, 0x95, 0x90, 0x3d, 0x68, 0xd9, 0x37, 0xbe,
  0x9c, 0x9a, 0x67, 0xbe, 0x14, 0x8b, 0x4f, 0xbe, 0xff, 0xa3, 0x46, 0x3e,
  0x5f, 0xc5, 0xa8, 0x3e, 0x72, 0xda, 0xc4, 0xbd, 0xe4, 0x06, 0xf0, 0x3e,
  0x3b, 0xba, 0x9e, 0xbd, 0x68, 0x6c, 0x35, 0x3e, 0xd3, 0x7c, 0xac, 0xbc,
  0x14, 0xcc, 0xba, 0x3e, 0xdb, 0xef, 0xa0, 0x3d, 0x09, 0xd8, 0x83, 0x3e,
  0x8d, 0xad, 0x17, 0x3e, 0x48, 0x64, 0x84, 0xbe, 0xcc, 0x66, 0x44, 0x3e,
  0x82, 0x98, 0xf6, 0xbd, 0x8d, 0xe8, 0x96, 0x3d, 0x43, 0x5f, 0x05, 0x3e,
  0x86, 0x23, 0x9d, 0xbe, 0xb3, 0xa7, 0x17, 0x3e, 0x84, 0xff, 0xa2, 0x3c,
  0xcc, 0xb4, 0xa3, 0x3d, 0x1c, 0x98, 0x9a, 0x3d, 0xab, 0x45, 0x50, 0x3e,
  0xc2, 0x7a, 0xfe, 0x3b, 0x80, 0x7f, 0x9c, 0xbe, 0xb3, 0xe8, 0xa5, 0x3d,
  0xe1, 0xda, 0x95, 0xb7, 0xc9, 0x93, 0xe2, 0xbd, 0x13, 0x59, 0xa6, 0x3e,
  0x2a, 0xd4, 0xce, 0x3e, 0x53, 0x5d, 0x8e, 0x3e, 0xd1, 0x5b, 0x8f, 0x3e,
  0xd9, 0x4c, 0x91, 0x3e, 0x82, 0xd5, 0x98, 0x3e, 0xbd, 0x43, 0xa3, 0xbd,
  0x11, 0x60, 0x17, 0x3e, 0xc9, 0x0e, 0x6c, 0x3e, 0x41, 0xc3, 0x35, 0x3d,
  0x1f, 0x08, 0xfb, 0xbd, 0xc3, 0x1d, 0xb8, 0x3e, 0x27, 0x95, 0x03, 0x3d,
  0xbd, 0x6a, 0x12, 0xbe, 0x29, 0x4e, 0xe2, 0x3d, 0x20, 0xaf, 0x3b, 0x3e,
  0xfd, 0xfe, 0x22, 0xbe, 0xc6, 0x07, 0x25, 0xbd, 0x87, 0x6c, 0x30, 0xbe,
  0xe9, 0x66, 0x23, 0xbe, 0x87, 0xc0, 0xfa, 0xbd, 0xfe, 0x35, 0x70, 0x3e,
  0x64, 0x04, 0x46, 0xbd, 0xdf, 0xd1, 0x81, 0xbe, 0xbf, 0xfe, 0x2b, 0x3e,
  0x90, 0x0a, 0xed, 0xbd, 0x82, 0x44, 0x31, 0xbe, 0xcd, 0xb6, 0xaf, 0xbd,
  0x97, 0x98, 0x1e, 0x3d, 0x8b, 0x9e, 0x1b, 0xbd, 0xa9, 0x1f, 0x00, 0x3e,
  0xca, 0x7c, 0x95, 0xbe, 0x62, 0xa7, 0x25, 0xbe, 0xc9, 0x4a, 0x71, 0x3e,
  0x9a, 0x8f, 0x23, 0xbe, 0x39, 0x26, 0x59, 0xbd, 0xd8, 0xb6, 0x5e, 0xba,
  0x48, 0x92, 0xfb, 0x3d, 0xe1, 0x0c, 0x1d, 0x3e, 0x19, 0x58, 0xa0, 0x3e,
  0x8e, 0xfc, 0x85, 0x3e, 0x2e, 0x13, 0x3e, 0xbe, 0x25, 0x3e, 0xb1, 0x3d,
  0x74, 0x5a, 0x7e, 0xbe, 0xe7, 0xc1, 0xab, 0xbc, 0x57, 0x13, 0x85, 0xbd,
  0xa0, 0xb1, 0x29, 0x3e, 0x20, 0xea, 0x63, 0x3e, 0xaa, 0xc9, 0x92, 0x3e,
  0x9d, 0x61, 0x1f, 0xbe, 0x65, 0x37, 0xfe, 0xbd, 0x80, 0xba, 0x82, 0x3e,
  0x4f, 0xc2, 0x6f, 0x3c, 0xed, 0xca, 0x2c, 0x3e, 0x98, 0xd2, 0x91, 0x3d,
  0xeb, 0x74, 0x75, 0xbe, 0xbf, 0xc4, 0xaf, 0x3d, 0x75, 0x5b, 0x1e, 0xbd,
  0x7b, 0x68, 0x81, 0xbe, 0xf8, 0x3d, 0xbc, 0x3d, 0x13, 0x15, 0x8b, 0x3e,
  0x25, 0x77, 0xb4, 0x3e, 0xc2, 0x0f, 0x92, 0xbe, 0x58, 0x7f, 0x7d, 0x3e,
  0xe2, 0x44, 0x0c, 0x3e, 0x4d, 0xcd, 0x0f, 0xbe, 0x53, 0xde, 0xa6, 0xbb,
  0xa2, 0x35, 0xe2, 0x3c, 0xd5, 0x66, 0xa4, 0x3d, 0xe7, 0x1f, 0x8b, 0x3e,
  0x90, 0x53, 0xb9, 0x3d, 0x2d, 0xd9, 0xfa, 0xbb, 0x9a, 0x26, 0xbc, 0x3d,
  0x6a, 0xc1, 0xd9, 0xbd, 0x6f, 0x89, 0xcb, 0x3d, 0x80, 0x91, 0x5f, 0xbc,
  0x28, 0x0e, 0x02, 0xbd, 0x09, 0x08, 0xd0, 0xbd, 0x4d, 0x0d, 0x18, 0xbe,
  0x57, 0xfb, 0x2d, 0xbe, 0x7b, 0xe4, 0x77, 0xbd, 0x60, 0x3c, 0x75, 0xbe,
  0x40, 0xa3, 0x05, 0x3d, 0xe0, 0xd8, 0x1b, 0x3e, 0x6a, 0xf3, 0x8b, 0xbd,
  0x34, 0x31, 0x0b, 0x3e, 0x3e, 0xe9, 0xb1, 0xbb, 0xc6, 0x2d, 0xbe, 0xbc,
  0x0f, 0xcc, 0x80, 0x3e, 0x8f, 0x64, 0x13, 0xbe, 0x12, 0xe7, 0xab, 0xbd,
  0xf4, 0x2a, 0x03, 0x3e, 0xeb, 0x4a, 0x8c, 0xbe, 0x05, 0x6e, 0xc5, 0xbd,
  0x4b, 0x2a, 0x6d, 0xbe, 0x84, 0x6e, 0xae, 0x3b, 0x90, 0xbc, 0x99, 0xbe,
  0x7d, 0xd5, 0x57, 0x3e, 0x1c, 0x10, 0x65, 0xbe, 0x5a, 0x01, 0x94, 0xbe,
  0x46, 0x2c, 0xc1, 0x3d, 0x9d, 0x14, 0x0b, 0xbe, 0x50, 0xd4, 0xb5, 0xba,
  0xbd, 0x73, 0x0c, 0xbd, 0xd7, 0x59, 0x2d, 0xbe, 0x37, 0x83, 0x84, 0xbe,
  0x41, 0x73, 0x03, 0xbe, 0xab, 0x53, 0xdb, 0x3d, 0x80, 0x4e, 0x4d, 0xbe,
  0xb0, 0x5a, 0x3f, 0xbe, 0xe7, 0x41, 0x33, 0xbd, 0xc8, 0xf1, 0x12, 0xbd,
  0xa9, 0xf8, 0x52, 0xbe, 0x90, 0x19, 0x95, 0xbe, 0xfc, 0x95, 0x65, 0x3d,
  0x24, 0x80, 0x10, 0xbe, 0x2f, 0xb9, 0xe8, 0xbd, 0xa2, 0xa8, 0x9b, 0x3d,
  0xbf, 0xc6, 0x26, 0x3e, 0x8a, 0xec, 0x3a, 0xbd, 0x5b, 0x1d, 0x08, 0xbe,
  0x0e, 0x13, 0x27, 0xbe, 0x1b, 0x2a, 0xb5, 0xbd, 0x50, 0xe3, 0xaf, 0x3b,
  0x5f, 0x09, 0x10, 0xbc, 0x41, 0x7a, 0xcf, 0x3d, 0x4e, 0xd5, 0x7b, 0x3d,
  0x32, 0x16, 0x43, 0x3e, 0xfb, 0xd7, 0xcf, 0x3d, 0xb2, 0xff, 0x24, 0xbd,
  0x48, 0x2b, 0x8e, 0x3e, 0x22, 0xed, 0x30, 0xbd, 0xfa, 0xde, 0x11, 0x3d,
  0x7c, 0xd1, 0x20, 0x3e, 0x6d, 0xe1, 0x58, 0xbe, 0xdf, 0x64, 0x57, 0x3e,
  0x6b, 0xef, 0xf8, 0x3c, 0x56, 0x0e, 0xa7, 0xbd, 0x4a, 0xf5, 0xca, 0xbd,
  0x21, 0xff, 0xb5, 0x3d, 0x0c, 0xa6, 0xab, 0x3e, 0x45, 0x57, 0x4b, 0xbe,
  0x99, 0x3e, 0x0e, 0x3e, 0x42, 0x79, 0x0d, 0x3e, 0xa6, 0x63, 0x88, 0xbe,
  0x10, 0xd5, 0x51, 0xbe, 0xcb, 0xd3, 0x26, 0x3e, 0xb8, 0x85, 0x14, 0x3e,
  0x3a, 0xed, 0x15, 0xbe, 0x92, 0xa9, 0x01, 0xbe, 0x6c, 0x85, 0x41, 0x3d,
  0xf8, 0x52, 0x94, 0xbe, 0x61, 0x40, 0x95, 0xbd, 0x49, 0xc9, 0x19, 0xbe,
  0xb6, 0xd0, 0x2d, 0xbe, 0x50, 0xc3, 0x2f, 0x3d, 0x35, 0x19, 0x4d, 0x3e,
  0x04, 0x6e, 0x84, 0x3e, 0x61, 0x16, 0x93, 0x3e, 0xfd, 0xe7, 0xec, 0x3b,
  0x1c, 0x92, 0x13, 0x3e, 0x2a, 0x42, 0x41, 0xbd, 0xd4, 0xf2, 0x88, 0x3d,
  0x17, 0xe8, 0x10, 0x3e, 0x72, 0x8b, 0xb0, 0x3e, 0xf0, 0x59, 0x61, 0x3e,
  0x24, 0x5e, 0x30, 0xbd, 0x35, 0x75, 0x5e, 0x3e, 0x6c, 0xf7, 0x8b, 0xbe,
  0x3f, 0x65, 0x62, 0xbe, 0xd6, 0x42, 0x82, 0x3e, 0xb9, 0x27, 0x81, 0xbd,
  0x40, 0xd3, 0x48, 0x3d, 0x66, 0x3b, 0xe7, 0xbc, 0xda, 0xb2, 0x13, 0xbd,
  0xab, 0xe2, 0xfd, 0x3d, 0x19, 0x7a, 0x19, 0x3d, 0x1b, 0x97, 0x1a, 0x3e,
  0xb7, 0x2e, 0xae, 0xbc, 0xaf, 0x06, 0x65, 0xbd, 0xbd, 0xcc, 0xea, 0x3c,
  0x6f, 0xf0, 0x61, 0xbe, 0xab, 0x4f, 0x04, 0xbd, 0x3c, 0x1e, 0x1f, 0xbe,
  0x7d, 0x58, 0x93, 0xbd, 0x11, 0xde, 0xe7, 0xbd, 0x8b, 0xf2, 0xfe, 0x3d,
  0x6e, 0x67, 0x62, 0xbd, 0x36, 0xda, 0x2a, 0xbd, 0xcd, 0x02, 0x8d, 0xbe,
  0xdd, 0xd4, 0x84, 0x3e, 0xc9, 0xb7, 0x23, 0x3e, 0x20, 0x6f, 0xbf, 0x3e,
  0x5f, 0xab, 0x77, 0xbe, 0xbc, 0xbf, 0x89, 0xbe, 0xb4, 0x05, 0xf5, 0xbd,
  0x2c, 0xa3, 0xe3, 0x3d, 0x70, 0xf3, 0x8a, 0xbd, 0x53, 0x35, 0x70, 0xbe,
  0xee, 0xab, 0x2e, 0xbe, 0xb8, 0xb5, 0x26, 0x3d, 0x33, 0x75, 0x3d, 0x3d,
  0x3c, 0x2c, 0x8f, 0xbe, 0xfe, 0x51, 0x76, 0x3e, 0x4a, 0x9e, 0x9f, 0xbd,
  0xc6, 0xd9, 0x6e, 0x3e, 0x2b, 0xcf, 0xef, 0xbd, 0xa4, 0x5b, 0xf7, 0x3d,
  0xa9, 0xaf, 0x2e, 0xbe, 0x82, 0x69, 0x00, 0x3e, 0x90, 0x3f, 0x19, 0xbc,
  0x33, 0x2c, 0xf9, 0xbc, 0xcb, 0x08, 0x4e, 0xbd, 0xf1, 0x30, 0x8e, 0x3e,
  0xad, 0x96, 0x21, 0x3e, 0x87, 0xcf, 0x5f, 0x3e, 0xb9, 0x1e, 0xb1, 0x3d,
  0x7c, 0xee, 0x54, 0xbe, 0x52, 0xc4, 0x93, 0x3e, 0x72, 0x2a, 0xe1, 0x3c,
  0xf2, 0xf9, 0xf7, 0xbd, 0x62, 0xc9, 0x99, 0x3d, 0xcf, 0x70, 0xe2, 0x3d,
  0x6e, 0xc1, 0x58, 0xbe, 0x74, 0xaf, 0x8e, 0xbd, 0x0f, 0x68, 0xe3, 0xbc,
  0x3f, 0xba, 0x8b, 0xbd, 0x02, 0x33, 0x3b, 0x3e, 0x13, 0x1d, 0x62, 0x3b,
  0x46, 0xa0, 0x8c, 0x3e, 0xad, 0x1c, 0x0d, 0xbe, 0xc9, 0x9f, 0x71, 0x3e,
  0xf0, 0x93, 0x61, 0x3e, 0xf3, 0x25, 0xb6, 0x3d, 0x58, 0xce, 0x54, 0xbd,
  0xc6, 0x68, 0x06, 0x3d, 0xf2, 0x53, 0xbb, 0x3d, 0x32, 0x48, 0x69, 0x3d,
  0x95, 0xe4, 0xd2, 0x3c, 0xfb, 0x6a, 0x92, 0xbe, 0xb7, 0xc1, 0x46, 0x3d,
  0xb3, 0x62, 0x39, 0x3e, 0x38, 0xc0, 0xe7, 0x3d, 0x7d, 0x40, 0x23, 0xbc,
  0x8a, 0x04, 0x94, 0xbe, 0xad, 0x38, 0x9d, 0xbd, 0x11, 0xc8, 0x66, 0xbe,
  0x41, 0x7f, 0x0b, 0x3e, 0x7b, 0x1f, 0x08, 0xbe, 0x12, 0x8b, 0xcd, 0x3c,
  0x58, 0x8a, 0x2a, 0xbe, 0xaa, 0x59, 0x4f, 0xbe, 0x5b, 0x4b, 0x63, 0xbd,
  0x64, 0x02, 0xe7, 0x3d, 0x32, 0x43, 0x8c, 0x3e, 0x06, 0xb7, 0x83, 0xbe,
  0x5d, 0xfd, 0x46, 0x3e, 0x5e, 0xee, 0x34, 0x3e, 0x56, 0x85, 0x20, 0x3e,
  0x31, 0xfc, 0xad, 0x3e, 0x5b, 0x9d, 0xc3, 0x3e, 0x3b, 0x47, 0x5f, 0xbe,
  0xe6, 0x24, 0x18, 0x3e, 0x79, 0xff, 0x3d, 0x3c, 0xd1, 0xaf, 0xdd, 0x3d,
  0x2d, 0x7e, 0x8a, 0x3e, 0xef, 0x56, 0x66, 0x3e, 0x86, 0xfb, 0x40, 0x3b,
  0xf8, 0x72, 0x9f, 0x3e, 0x3f, 0x24, 0x08, 0xbd, 0x4c, 0x5a, 0x96, 0xbe,
  0xd7, 0x67, 0x8e, 0x3e, 0xc2, 0x0f, 0x85, 0x3b, 0x50, 0x86, 0xa8, 0x3d,
  0xe1, 0x6d, 0x2f, 0x3e, 0x56, 0x37, 0x40, 0xbd, 0x38, 0xdd, 0xed, 0x3d,
  0x69, 0x2c, 0x90, 0xbc, 0x97, 0x0a, 0x4f, 0x3d, 0x9f, 0xf6, 0x57, 0xbe,
  0x2c, 0x7c, 0x78, 0x3e, 0xc4, 0x62, 0xb4, 0x3e, 0xfd, 0xfe, 0x96, 0xbe,
  0x01, 0x95, 0x52, 0x3e, 0x74, 0xf7, 0x00, 0x3f, 0xad, 0x51, 0x14, 0xbe,
  0x89, 0x6c, 0x84, 0xbe, 0x74, 0x0a, 0x50, 0xbe, 0xaf, 0x1f, 0x93, 0x3a,
  0x18, 0x51, 0x4a, 0xbb, 0x3e, 0x04, 0xc1, 0x3d, 0x84, 0xe2, 0x86, 0x3d,
  0x52, 0xb8, 0x83, 0xbb, 0xc6, 0x8f, 0x88, 0xbc, 0xf6, 0x0d, 0xcd, 0xbd,
  0x36, 0x57, 0x74, 0xbe, 0x1d, 0x9e, 0xb9, 0x3e, 0xc1, 0x55, 0xd6, 0x3e,
  0x11, 0xbc, 0x50, 0xbe, 0x1c, 0x0f, 0x64, 0x3d, 0x7a, 0xf0, 0xbb, 0x3e,
  0x90, 0xe7, 0x4e, 0x3e, 0x52, 0xa8, 0x90, 0xbc, 0xb2, 0x82, 0x20, 0x3e,
  0x98, 0xad, 0xd0, 0x3d, 0xb5, 0x5d, 0xe6, 0x3c, 0xe7, 0xa9, 0x23, 0xbe,
  0x93, 0x77, 0xe1, 0x3c, 0x1f, 0x15, 0xc1, 0x3b, 0x59, 0x6d, 0x00, 0x3e,
  0xc0, 0x1f, 0xc1, 0xbc, 0xfa, 0x24, 0x49, 0xbe, 0x63, 0x36, 0x90, 0x3e,
  0xd0, 0xa9, 0x87, 0x3e, 0x14, 0x1a, 0x4c, 0x3d, 0xb0, 0x56, 0xc4, 0x3d,
  0x9e, 0x63, 0x8d, 0x3e, 0x00, 0x6b, 0x9c, 0xbd, 0x1c, 0xc0, 0x27, 0x3e,
  0x8b, 0x41, 0x57, 0xbe, 0x27, 0xcc, 0xa2, 0x3e, 0x15, 0xa4, 0x37, 0x3e,
  0x4b, 0x5e, 0x6a, 0x3e, 0x54, 0x24, 0xa1, 0x3e, 0x39, 0x3e, 0xc1, 0xbc,
  0xb7, 0x19, 0x2b, 0x3e, 0x00, 0x32, 0xa0, 0x3d, 0xe5, 0x6b, 0x5c, 0x3d,
  0xf8, 0xc2, 0x68, 0xbd, 0x0c, 0x73, 0xec, 0xbd, 0x54, 0x86, 0x78, 0x3e,
  0xf4, 0x68, 0x95, 0x3e, 0x9c, 0x6c, 0x20, 0x3e, 0x8a, 0x5d, 0x54, 0xbe,
  0xae, 0xf3, 0x72, 0x3e, 0x14, 0x7d, 0x5b, 0x3e, 0xef, 0xe4, 0x62, 0xbe,
  0x82, 0xb3, 0x51, 0xbd, 0x2c, 0xef, 0x09, 0x3e, 0x45, 0xb2, 0x5c, 0xbe,
  0xce, 0xd9, 0x02, 0xbe, 0x2a, 0x60, 0xef, 0x3d, 0x8c, 0x11, 0xa0, 0xbc,
  0x79, 0x9f, 0x5f, 0xbe, 0x02, 0x24, 0x91, 0x3e, 0x6e, 0xa4, 0x99, 0x3e,
  0xee, 0x34, 0x59, 0x3e, 0xa2, 0x1a, 0x2a, 0xbe, 0xf4, 0x8b, 0xad, 0x3e,
  0x6b, 0x6c, 0x3f, 0x3e, 0x46, 0xe4, 0xa9, 0xbd, 0x5c, 0x9d, 0x13, 0xbd,
  0x79, 0x43, 0x52, 0xbe, 0x74, 0x6d, 0x1c, 0x3e, 0x1d, 0x98, 0x50, 0xbe,
  0xa2, 0x8f, 0x68, 0xbe, 0xcf, 0x9a, 0xaa, 0xbd, 0x53, 0x0e, 0x87, 0xbd,
  0xae, 0xa9, 0x35, 0x3e, 0x9a, 0x3e, 0xf7, 0x3d, 0x15, 0x75, 0x55, 0x3e,
  0x98, 0x5d, 0xb2, 0xbd, 0xc9, 0x7a, 0x31, 0xbd, 0x3e, 0x4c, 0x5f, 0x3d,
  0x05, 0x28, 0x9a, 0x3d, 0xbf, 0xcc, 0xf9, 0xbc, 0xf1, 0xb8, 0xaa, 0xbd,
  0x28, 0x57, 0x7a, 0xbe, 0x68, 0xdd, 0xd5, 0x3e, 0xd5, 0x06, 0xba, 0x3d,
  0x75, 0x9b, 0xf1, 0xbd, 0x63, 0x89, 0x5a, 0xbe, 0xa4, 0xa9, 0x3e, 0x3d,
  0xfa, 0x4b, 0x2e, 0xbe, 0x02, 0x58, 0x3f, 0x3e, 0xb0, 0xfb, 0x08, 0x3e,
  0xf8, 0xb6, 0x08, 0xbe, 0x61, 0x9d, 0x90, 0x3c, 0xda, 0x33, 0xb5, 0x3d,
  0x35, 0xd9, 0x2c, 0xbe, 0xb4, 0xd7, 0xa0, 0xbe, 0x30, 0x9d, 0x3a, 0xbe,
  0x10, 0xa5, 0x0a, 0xbe, 0x93, 0xe0, 0x8a, 0x3e, 0xb4, 0x88, 0xb7, 0xbd,
  0xa7, 0x76, 0x39, 0x3e, 0x25, 0xd6, 0x06, 0x3d, 0xc5, 0x70, 0x10, 0xbe,
  0x51, 0x6d, 0x95, 0xbd, 0xbb, 0x90, 0x89, 0xbe, 0xef, 0x2b, 0xef, 0x3d,
  0x87, 0x41, 0x93, 0x3c, 0xe9, 0x12, 0xf8, 0x3e, 0x71, 0x23, 0x62, 0x3e,
  0x3d, 0x9c, 0x50, 0xbe, 0x7d, 0xf4, 0xf1, 0x3b, 0x80, 0x36, 0x69, 0xbd,
  0x3c, 0xb0, 0x10, 0xbe, 0x00, 0xa1, 0x8c, 0x3e, 0x6f, 0x8a, 0x86, 0xbe,
  0xa2, 0xfe, 0xff, 0xff, 0x10, 0x00, 0x00, 0x00, 0x04, 0x00, 0x00, 0x00,
  0x1c, 0x00, 0x00, 0x00, 0x38, 0x00, 0x00, 0x00, 0x04, 0x00, 0x00, 0x00,
  0x10, 0x00, 0x00, 0x00, 0x03, 0x00, 0x00, 0x00, 0x03, 0x00, 0x00, 0x00,
  0x08, 0x00, 0x00, 0x00, 0x1a, 0x00, 0x00, 0x00, 0x73, 0x65, 0x71, 0x75,
  0x65, 0x6e, 0x74, 0x69, 0x61, 0x6c, 0x2f, 0x63, 0x6f, 0x6e, 0x76, 0x32,
  0x64, 0x5f, 0x31, 0x2f, 0x43, 0x6f, 0x6e, 0x76, 0x32, 0x44, 0x00, 0x00,
  0xe8, 0xfd, 0xff, 0xff, 0x42, 0xff, 0xff, 0xff, 0x04, 0x00, 0x00, 0x00,
  0x20, 0x00, 0x00, 0x00, 0x04, 0x2e, 0x8d, 0xb8, 0x42, 0xc8, 0x72, 0xb8,
  0x41, 0x49, 0xa0, 0x3b, 0xd1, 0x63, 0x61, 0x38, 0xfe, 0xc4, 0xd4, 0x38,
  0xb9, 0xb1, 0x93, 0xb8, 0xeb, 0x38, 0x64, 0x3e, 0x22, 0xf1, 0x04, 0x3b,
  0x1a, 0xff, 0xff, 0xff, 0x10, 0x00, 0x00, 0x00, 0x03, 0x00, 0x00, 0x00,
  0x10, 0x00, 0x00, 0x00, 0x7c, 0x00, 0x00, 0x00, 0x01, 0x00, 0x00, 0x00,
  0x08, 0x00, 0x00, 0x00, 0x64, 0x00, 0x00, 0x00, 0x73, 0x65, 0x71, 0x75,
  0x65, 0x6e, 0x74, 0x69, 0x61, 0x6c, 0x2f, 0x63, 0x6f, 0x6e, 0x76, 0x32,
  0x64, 0x2f, 0x42, 0x69, 0x61, 0x73, 0x41, 0x64, 0x64, 0x3b, 0x73, 0x65,
  0x71, 0x75, 0x65, 0x6e, 0x74, 0x69, 0x61, 0x6c, 0x2f, 0x63, 0x6f, 0x6e,
  0x76, 0x32, 0x64, 0x2f, 0x43, 0x6f, 0x6e, 0x76, 0x32, 0x44, 0x3b, 0x73,
  0x65, 0x71, 0x75, 0x65, 0x6e, 0x74, 0x69, 0x61, 0x6c, 0x2f, 0x63, 0x6f,
  0x6e, 0x76, 0x32, 0x64, 0x2f, 0x42, 0x69, 0x61, 0x73, 0x41, 0x64, 0x64,
  0x2f, 0x52, 0x65, 0x61, 0x64, 0x56, 0x61, 0x72, 0x69, 0x61, 0x62, 0x6c,
  0x65, 0x4f, 0x70, 0x2f, 0x72, 0x65, 0x73, 0x6f, 0x75, 0x72, 0x63, 0x65,
  0x00, 0x00, 0x00, 0x00, 0x04, 0x00, 0x06, 0x00, 0x04, 0x00, 0x00, 0x00,
  0x00, 0x00, 0x06, 0x00, 0x08, 0x00, 0x04, 0x00, 0x06, 0x00, 0x00, 0x00,
  0x04, 0x00, 0x00, 0x00, 0x40, 0x00, 0x00, 0x00, 0xb1, 0xc8, 0xbf, 0xbc,
  0x5b, 0x5a, 0xa7, 0x3d, 0x69, 0x3b, 0x0c, 0xbd, 0x7b, 0x95, 0x26, 0x3e,
  0x9c, 0x71, 0x86, 0x3e, 0x89, 0x39, 0xe3, 0x3d, 0x39, 0xd2, 0xb0, 0xbd,
  0x4d, 0x4f, 0xf8, 0x3d, 0x96, 0x6c, 0x95, 0x3d, 0x06, 0x84, 0x46, 0x3d,
  0xdc, 0x58, 0x2e, 0x3e, 0x2b, 0x24, 0x14, 0x3d, 0x85, 0x45, 0x2c, 0x3e,
  0xac, 0xc7, 0x91, 0x3d, 0xf3, 0x61, 0x3e, 0xbe, 0x2f, 0xff, 0x0d, 0x3e,
  0x00, 0x00, 0x0e, 0x00, 0x14, 0x00, 0x04, 0x00, 0x00, 0x00, 0x08, 0x00,
  0x0c, 0x00, 0x10, 0x00, 0x0e, 0x00, 0x00, 0x00, 0x10, 0x00, 0x00, 0x00,
  0x02, 0x00, 0x00, 0x00, 0x10, 0x00, 0x00, 0x00, 0x7c, 0x00, 0x00, 0x00,
  0x01, 0x00, 0x00, 0x00, 0x10, 0x00, 0x00, 0x00, 0x6a, 0x00, 0x00, 0x00,
  0x73, 0x65, 0x71, 0x75, 0x65, 0x6e, 0x74, 0x69, 0x61, 0x6c, 0x2f, 0x63,
  0x6f, 0x6e, 0x76, 0x32, 0x64, 0x5f, 0x31, 0x2f, 0x42, 0x69, 0x61, 0x73,
  0x41, 0x64, 0x64, 0x3b, 0x73, 0x65, 0x71, 0x75, 0x65, 0x6e, 0x74, 0x69,
  0x61, 0x6c, 0x2f, 0x63, 0x6f, 0x6e, 0x76, 0x32, 0x64, 0x5f, 0x31, 0x2f,
  0x43, 0x6f, 0x6e, 0x76, 0x32, 0x44, 0x3b, 0x73, 0x65, 0x71, 0x75, 0x65,
  0x6e, 0x74, 0x69, 0x61, 0x6c, 0x2f, 0x63, 0x6f, 0x6e, 0x76, 0x32, 0x64,
  0x5f, 0x31, 0x2f, 0x42, 0x69, 0x61, 0x73, 0x41, 0x64, 0x64, 0x2f, 0x52,
  0x65, 0x61, 0x64, 0x56, 0x61, 0x72, 0x69, 0x61, 0x62, 0x6c, 0x65, 0x4f,
  0x70, 0x2f, 0x72, 0x65, 0x73, 0x6f, 0x75, 0x72, 0x63, 0x65, 0x00, 0x00,
  0x98, 0xff, 0xff, 0xff, 0x14, 0x00, 0x18, 0x00, 0x04, 0x00, 0x00, 0x00,
  0x08, 0x00, 0x0c, 0x00, 0x10, 0x00, 0x00, 0x00, 0x00, 0x00, 0x14, 0x00,
  0x14, 0x00, 0x00, 0x00, 0x14, 0x00, 0x00, 0x00, 0x01, 0x00, 0x00, 0x00,
  0x20, 0x00, 0x00, 0x00, 0x3c, 0x00, 0x00, 0x00, 0x24, 0x00, 0x00, 0x00,
  0x04, 0x00, 0x00, 0x00, 0x01, 0x00, 0x00, 0x00, 0x10, 0x00, 0x00, 0x00,
  0x10, 0x00, 0x00, 0x00, 0x01, 0x00, 0x00, 0x00, 0x07, 0x00, 0x00, 0x00,
  0x69, 0x6e, 0x70, 0x75, 0x74, 0x5f, 0x31, 0x00, 0x04, 0x00, 0x00, 0x00,
  0xff, 0xff, 0xff, 0xff, 0x10, 0x00, 0x00, 0x00, 0x10, 0x00, 0x00, 0x00,
  0x01, 0x00, 0x00, 0x00, 0xfc, 0xff, 0xff, 0xff, 0x04, 0x00, 0x04, 0x00,
  0x04, 0x00, 0x00, 0x00
};
unsigned int _home_zeep_sandbox_onechuk_training_output_gesture_model_tflite_len = 12736;
